t h 20811019
i n 14137978
a n 12338976
th e</w> 12074641
क े</w> 9598476
r e 9569309
् र 8565057
e r 8454717
a r 7662359
म े 7516730
o n 7364275
t i 7269880
e n 7185955
न े</w> 7164149
मे ं</w> 6364942
e d</w> 6053173
ा र 5995493
o f</w> 5855887
ह ै 5837622
i s</w> 5617048
s t 5544859
an d</w> 5537438
क ी</w> 5414425
o r 5320012
a l 5290986
o u 5182671
i n</w> 5134501
e r</w> 5079913
ो ं</w> 5053857
ि य 4942016
i t 4937868
h a 4917041
o n</w> 4773076
t o</w> 4709669
र ् 4610858
a t 4574598
in g</w> 4546028
स ् 4516345
स े</w> 4333028
औ र</w> 4106855
e s</w> 4095147
r o 3832357
i l 3794791
क ् 3730634
o r</w> 3715183
e s 3666276
d i 3643432
क ो</w> 3558756
प ्र 3523140
i c 3342890
क ा</w> 3336988
a s 3154394
् य 3103338
क र 3055931
a c 3050232
व ि 3035756
a n</w> 2966692
व ा 2965210
e l 2867885
a l</w> 2837665
र ा 2782627
e c 2734504
क ा 2641370
ल ि 2639218
म ा 2622662
a t</w> 2592888
त ा</w> 2513496
o m 2512072
r a 2500819
i t</w> 2499019
i s 2468417
है ।</w> 2436505
o l 2324264
f or</w> 2304032
a s</w> 2302998
स ा 2299590
क ि</w> 2285414
a ti 2256369
न ् 2219142
ल ा 2188497
s u 2170979
e n</w> 2145388
i d 2132196
िय ा</w> 2127746
प र</w> 2126868
न ा</w> 2126225
c h 2070562
a m 2059556
p l 2055776
ज ा 2043996
v e</w> 2018182
ह ो 2003777
u s 1990036
द े 1943768
ह ा 1942913
a d 1927651
य ा</w> 1926448
en t</w> 1902346
ह ै</w> 1895673
ब ा 1890899
त ् 1871154
u r 1842475
न ि 1839638
त ा 1833311
n o 1833128
w h 1832743
u n 1824324
स ं 1806880
न ा 1777783
e m 1770679
s h 1756012
r i 1753983
a b 1723007
भ ी</w> 1697802
क र</w> 1684118
c on 1655694
p ro 1638404
re s 1621048
en t 1613864
क ि 1601352
e t 1597150
v er 1590906
लि ए</w> 1537803
a g 1526318
ह ी 1519643
l e 1510906
ल े</w> 1498162
ह ु 1494860
l i 1487970
d e 1462843
त ्र 1457351
th e 1449378
म ि 1447723
th is</w> 1441781
s a 1430368
क् ष 1423912
ल ् 1422425
है ं 1414294
c om 1396019
i r 1394850
प ा 1392329
त े</w> 1389221
w it 1384575
l o 1374269
th at</w> 1373513
i st 1371842
क ार 1357928
र ि 1353951
ए क</w> 1349352
र ह 1344267
द ् 1332104
म ु 1324063
a k 1308304
b e 1302544
wit h</w> 1294774
े ं 1283415
ि त</w> 1282195
p o 1268184
l y</w> 1267705
ग ा 1266951
य ा 1264937
s i 1252532
g o 1241428
m o 1233912
in di 1224203
ही ं</w> 1222453
2 0 1219951
ड ़ 1219001
in g 1210509
il l</w> 1206300
b e</w> 1195998
ha s</w> 1176186
ल े 1168378
इ स</w> 1167669
ar e</w> 1148086
द ि 1145566
s e 1132204
n e 1130996
ज ि 1130562
w ill</w> 1121544
न ी</w> 1114088
er e</w> 1114081
न हीं</w> 1088354
s .</w> 1086733
त ि</w> 1085314
म ं 1082095
e d 1075452
अ प 1074704
w as</w> 1069573
l e</w> 1061942
स ि 1051001
m in 1042556
a p 1036790
g h 1031603
ha ve</w> 1030133
क ो 1029039
a r</w> 1021894
च ा 1018140
भ ार 1018102
ल ी</w> 1009071
ष ् 1007566
इ स 1003915
ati on</w> 1003010
b y</w> 1002283
h o 996763
ou n 988866
ी य</w> 986700
त ि 981420
f or 974568
h e</w> 968225
भ ा 967409
u l 965071
ल ो 964627
क िया</w> 964226
c e</w> 964202
ti on</w> 952096
	 y 943728
थ ा 941545
e x 938048
य ह</w> 935987
द ा 933038
a y 932301
s p 930719
a y</w> 929241
ह ी</w> 928202
प ु 913609
स म 911553
e .</w> 911172
िय ा 910564
s o</w> 908861
स ी 908482
ati on 908091
er s</w> 906659
श ् 903212
ल ा</w> 894666
b u 893800
h i 886141
हैं ।</w> 879332
no t</w> 878292
f ro 875605
ट ्र 874202
प ू 871507
क ह 870408
्य ा 870298
t o 867598
fro m</w> 865891
c an</w> 865872
ह ि 863815
द ी</w> 862965
an d 862360
त ी</w> 862064
श ा 859700
s ,</w> 857025
t h</w> 849691
उ न् 848575
b o 847595
ं ग 842530
f f 840143
p er 836326
s t</w> 835637
ध ा 831885
t r 829771
कर ने</w> 820845
मं त्र 815254
स र 814728
य ो 813182
at e</w> 813105
p ar 810676
स ु 810629
िय ों</w> 804806
m e 801397
al l</w> 800360
न े 798043
u c 792135
स ी</w> 789591
अ ध 789173
का र</w> 788429
ार ् 784086
र ो 783529
m ent</w> 781139
ti on 775605
क े 774803
क ु 774213
t ed</w> 768475
w e</w> 768447
min ist 767900
w or 765360
रा ज 759233
c o 756005
	y es</w> 753294
q u 751962
c i 749371
y o 747156
t er 745126
re d</w> 743632
on e</w> 731615
t s</w> 730722
ou r</w> 730126
m an 729110
p or 726424
उ न 724681
i r</w> 721262
w e 718791
i d</w> 718485
d o 717278
े ं</w> 713448
m e</w> 705403
म ् 701847
a in 699128
p ol 685061
yo u</w> 682910
कह ा</w> 682314
् य</w> 681042
h e 680897
ह ो</w> 678767
र ी</w> 678282
u m 675434
p e 675004
i m 670801
न ों</w> 669587
सा थ</w> 669324
t er</w> 669040
र ू 668952
l d</w> 667826
l a 661858
t e 660972
ं ने</w> 655250
क ्र 654009
' s</w> 653534
n o</w> 651537
ou r 650762
al so</w> 644701
20 1 644632
ic e</w> 643203
थ ा</w> 639316
ब ी 639022
स े 637857
h is</w> 635006
फ ि 633669
है ं</w> 632366
म ै 627207
ी ।</w> 626231
th er</w> 621867
re n 618367
it y</w> 615494
o p 607460
ि क</w> 607091
मंत्र ी</w> 605742
दे श</w> 604083
त र 599719
p res 599198
ग या</w> 597160
e ,</w> 596153
be en</w> 592742
ज ो</w> 591039
त ो</w> 589045
s e</w> 586388
v i 584454
हो ंने</w> 584376
भार त</w> 575414
ou t</w> 574653
u d 573835
ज ी 571363
उ स 564222
य े</w> 561047
st r 560654
ार ी</w> 558701
e t</w> 555111
प ह 554605
प ी 553980
त ु 553447
in c 550792
व र् 547755
ज ा</w> 546808
ह म 546074
स क 544134
न ु 540690
प ् 538698
the y</w> 538033
ओ ं</w> 536787
ou ld</w> 536192
y .</w> 530883
v er</w> 527078
है .</w> 526325
म ी 525392
श ि 524993
च ् 524430
उन् होंने</w> 523948
प र 521798
m a 521486
it s</w> 521344
re c 520309
र ु 519766
म ो 518935
ब ं 518293
? 	 516913
h ar 515336
e ar 512849
ार ा</w> 511176
indi a</w> 510375
y ,</w> 507737
sa id</w> 507034
है ,</w> 507031
s ec 504524
en d 502367
bu t</w> 501273
u t 501104
े ।</w> 501018
w ere</w> 500809
त् र</w> 500714
ic h</w> 500114
a f 499065
a v 494947
अप ने</w> 493988
c h</w> 493934
द ा</w> 493376
व ह</w> 492270
minist er</w> 491619
बा द</w> 490788
व े 489772
ab le</w> 488219
g i 485304
us e</w> 483902
s o 482365
wh ich</w> 482059
f i 481895
ख ा 481797
ट ी 477527
an g 473707
p r 473638
ver n 473296
ं ड 472943
0 0</w> 469691
go vern 468214
es .</w> 467374
श ्र 466057
व ा</w> 465574
ट ी</w> 463479
ार े</w> 463478
c as 463177
ं ग</w> 459580
व ी 459563
त क</w> 456898
es t</w> 456391
र े 454985
com m 454788
the ir</w> 453990
c oun 452393
un d 449232
gh t</w> 447401
ha d</w> 447330
च ु 444051
at ed</w> 442554
स् ट 440187
उ प 438229
m ar 436629
स ा</w> 429475
ग ों</w> 429210
न ी 428066
अ नु 427580
v e 427312
त ी 427225
es ,</w> 426394
पू र् 424854
al l 424008
ल ी 420307
नि र् 418429
ग ्र 417091
द िया</w> 413970
w ha 413680
a d</w> 412586
ब ि 412149
pl e</w> 408716
प रि 406666
f e 406369
पु लि 402572
च ि 402286
wh o</w> 400026
or e</w> 399071
a u 399043
u s</w> 394940
ह म</w> 392841
मा म 392168
o d</w> 391200
ब े 390673
द र् 390412
o ff 390131
स् थ 389908
र ी 389696
p u 388100
स ू 388015
th ere</w> 386828
i e 386581
s ing 385071
पुलि स</w> 384393
d el 383146
हु ए</w> 382850
p ri 381638
अध ि 381116
रा ष् 380433
म ौ 380245
v id 380055
द ो 380053
for m 379368
ढ ़ 377481
लो गों</w> 377171
p re 375554
ज ़ 375501
ब ै 375404
सर कार</w> 373862
d uc 373736
श न</w> 373435
ac c 372926
द ू 372725
श ु 372104
p h 371982
क हा 371404
a ,</w> 370523
an t</w> 369836
ल ों</w> 369494
ब ् 369424
ho w</w> 369299
ti c 369137
. . 368992
अ ं 368935
pol ice</w> 368685
t w 368232
व े</w> 365879
रह े</w> 365557
t ak 363667
s er 361979
f ir 361666
con t 361536
pe o 361375
ar g 359648
र ा</w> 359240
प्र ति 358319
a m</w> 357486
in d 356211
स् था 355843
or d 355660
ख ि 355395
wha t</w> 354601
t u 353106
कु छ</w> 351933
प ि 350185
af ter</w> 347586
en g 347535
त र</w> 346918
em b 346459
w ar 345584
त ीय</w> 345290
क ों</w> 344463
ne w</w> 343601
ह ें</w> 343251
u p 342849
रू प</w> 341442
आ ई 340904
ज ी</w> 340337
को ई</w> 339609
मा न</w> 339479
m ent 338241
ट े 336190
t ur 335775
ट ् 335756
f il 334901
सि ं 334232
d .</w> 334015
c r 333693
ए स 333432
ग ु 333235
जा ए 331123
om e</w> 330716
द ु 329536
द् व 329150
क्ष ा</w> 329127
म ा</w> 328952
त े 328382
o ther</w> 328036
द् र</w> 328029
t ra 327631
ag e</w> 327498
d ay</w> 327292
कर ते</w> 327055
जि स 326873
as s 325320
g h</w> 324952
उ त् 324506
b j 324146
व ्य 324093
t ing</w> 323270
ड ़</w> 323027
" " 322812
es s</w> 321617
sa id 321617
रह ा</w> 320996
v el 320984
on g</w> 320877
1 9 320729
ब ना 320695
स् ता 319163
s c 318955
t .</w> 318103
govern ment</w> 317636
e v 315457
b i 313416
ट ि 312846
ं ,</w> 312581
i f</w> 312498
r ou 310913
दे श 309997
ल ग 309062
m on 309026
as h 308989
r a</w> 308342
द ्र 308320
क्ष े 308310
प ो 308025
रह ी</w> 307668
वा ले</w> 304810
गा ।</w> 304508
b l 303973
ed .</w> 303920
n ation 303659
द्व ारा</w> 303658
य ु 303653
राष् ट्र 303577
ग ि 303519
उन के</w> 303297
प्र ा 302867
र े</w> 302805
s ha 302355
u p</w> 302124
f in 302028
क ी 301975
an y</w> 301372
es s 300825
ल य</w> 300551
मु ख 300261
ar y</w> 299841
? 	yes</w> 299354
धा न 299308
f ac 298548
कार ी</w> 298378
प े 297597
इस के</w> 296454
क ै 296006
p er</w> 295894
an ce</w> 294363
p a 294279
par t 294175
) ,</w> 292662
ड ि 292620
as t</w> 291574
था ।</w> 290881
ver y</w> 290523
ं च</w> 289884
sh i 289814
tw o</w> 289567
m y</w> 289125
मै ं</w> 289002
ou s</w> 288892
वा र</w> 287889
d es 287768
ें ग 287688
f o 287619
d ay 287430
ट र</w> 287243
a .</w> 286889
न िय 286813
indi an</w> 286378
भार तीय</w> 286106
ज े 285981
il l 285649
पह ले</w> 285358
इ न</w> 285273
d ec 285156
peo ple</w> 285150
प ी</w> 284896
st at 284601
s ti 283653
v is 283571
c ha 283321
क ृ 282908
a il 282768
m at 282716
d s</w> 282638
re g 282276
ग ई</w> 282124
कहा ,</w> 280618
w at 280404
कि सी</w> 278898
र ख 278232
ag ain 277878
अप नी</w> 277220
िया ।</w> 276822
i on</w> 276437
r s</w> 275891
al ly</w> 275337
ह र</w> 274605
द ौ 274362
g u 274060
ज ् 273597
कि न</w> 272371
el ec 272344
su p 271904
श े 271708
m ad 271591
ac h 270582
st ate</w> 270296
मि ल</w> 270020
मा न 270002
id ent</w> 269476
क र् 269136
म ह 268398
am e</w> 268237
il e</w> 267990
res s</w> 267747
h i</w> 267362
2 0</w> 266763
y our</w> 266566
k e</w> 266433
c our 266098
्र े 265662
क् त</w> 264989
en ce</w> 264818
हा ं</w> 264299
न् य</w> 264021
n a 263817
i g 262262
h el 262036
य ू 261991
ं ब 261238
do es</w> 261037
ab out</w> 260922
c ol 260876
w i 260594
रु प 259994
ले किन</w> 259907
en c 259296
म ी</w> 259048
स ो 258916
इ ं 258780
again st</w> 258610
च ी 258508
त था</w> 258121
फि ल् 257382
i ti 257044
c ent 256225
भ ि 255819
ए व 255175
w n</w> 255035
ड ी 254631
er ,</w> 254605
at t 254574
man y</w> 254314
es e</w> 253885
स् ‍ 253691
ग ा</w> 253639
ट ा 253520
हो ने</w> 252304
क् या</w> 252264
b r 251565
i c</w> 251433
s id 251389
us ed</w> 250611
ch ie 250602
स ब 250450
wh en</w> 250441
सिं ह</w> 249913
tion s</w> 249854
is h 249310
s on 249214
re e</w> 248985
mo d 248240
एव ं</w> 248073
j o 247770
o c 247284
द ो</w> 247219
on ly</w> 247216
आ प 246618
ब ता 246367
ं ड</w> 245986
b et 245616
चा र</w> 245525
su r 245388
t or 245110
k s</w> 244859
ब हु 244583
क् ष</w> 244258
ग र</w> 244156
यो ज 243771
t ri 243726
con g 243611
स भी</w> 243564
e p 242493
ent s</w> 242394
w ould</w> 241882
द ी 241776
उन् हें</w> 241692
d o</w> 241631
k ing</w> 241556
t ,</w> 241421
ब ो 241365
u e</w> 241162
म ू 240991
m ak 240945
यो ग</w> 240511
ec t</w> 240288
राज ्य</w> 240221
chie f</w> 240096
um b 240005
in ter 239795
ज ू 239260
pro duc 238536
off ic 238427
y ear 238168
ब ढ़ 238105
ड़ ी</w> 238087
por t</w> 237684
ol d</w> 237674
a re 237345
o ver</w> 236615
g ra 236446
1 0 236383
ज ै 236350
p ra 236328
ग ए</w> 235976
य ों</w> 235787
us t</w> 235444
कार ्य 234786
k no 234778
खि ला 233884
nation al</w> 233227
t a 232357
ar i 232239
an c 232149
न ,</w> 232098
ज ु 232021
बा त</w> 231750
अ व 230744
c l 230578
v ed</w> 230075
ज ब</w> 229945
बं ध 229725
ह ू 229524
प ा</w> 229331
माम ले</w> 229124
दि ल् 228679
ंग ्रे 228349
i l</w> 228100
फ ् 227494
u l</w> 227103
- 1 226060
inc l 224915
b an 224639
me di 224280
प्र धान 223682
र् ट</w> 223450
lo w 222633
o k</w> 222400
रा न</w> 222093
लो ग</w> 222062
ड ा 221837
the m</w> 221694
fir st</w> 220520
s ch 219988
ac k</w> 219894
th ese</w> 219616
ल गा 219386
दे ख 219188
i al</w> 219063
श्र ी</w> 218956
वि श् 218577
ग या 218571
ग ी</w> 218531
मो दी</w> 218334
ए ।</w> 218098
und er</w> 218097
तर ह</w> 217516
प्रधान मंत्री</w> 216898
sing h</w> 216027
en ti 215816
म ार् 215407
com p 215378
sh o 215001
का म</w> 214276
w el 214029
ल िया</w> 213366
द ्य 212863
हैं .</w> 212861
ज न 212847
फ ो 212103
er .</w> 212054
कर ना</w> 211892
ज ो 211793
oun d</w> 211620
	 no</w> 211004
स र</w> 210906
हैं ,</w> 210594
त ्य 209824
in e</w> 209314
al i 208905
ब ु 208752
क ं 208697
च् छ 208078
प हु 208035
si on</w> 207749
ड़ ा</w> 207691
फ ा 207623
re s</w> 207462
क ें 207112
फिल् म</w> 206962
ग ो 206910
1 0</w> 206804
por t 206729
ख ु 206618
शा मिल</w> 206576
o se</w> 206455
जा न 206197
सम य</w> 206165
b ec 205822
भ ू 205706
का ंग्रे 205295
h er</w> 205211
k ed</w> 204918
r y</w> 204384
m ore</w> 204352
ए न 204147
ation s</w> 204070
k e 203788
bj p</w> 203592
le g 203574
क ई</w> 203461
po s 202868
दा न</w> 201880
incl ud 201748
pri me</w> 201456
चा हि 200988
क ॉ 200529
व ी</w> 200259
s el 200254
m is 199977
r u 199557
ं कि</w> 199216
आ र 199144
ur ing</w> 198850
्य ू 198617
त ों</w> 198479
, 0 198402
प ै 198365
di s 198331
ti me</w> 198211
n i 197840
i es</w> 197432
b el 197405
coun tr 197279
p p 197210
ra j 196459
th an</w> 196392
ing .</w> 195923
उस के</w> 195729
ज् ञ 195492
e l</w> 195418
बहु त</w> 195250
s en 195181
स ह 195125
c ar 194628
उ स</w> 194628
दू सर 194587
ज ब 194582
इ न 194366
व र</w> 194211
आ रो 194026
र् थ 193751
v ic 193666
मि ल 193652
पा स</w> 193438
ch arg 193384
c an 193259
दो नों</w> 193250
le ad 193215
ए म 193213
कांग्रे स</w> 193179
न ्या 192932
b as 192462
pres ident</w> 192225
sh ould</w> 192060
b le</w> 191550
फि र</w> 191411
क्षे त्र</w> 191382
ह र 191161
बी च</w> 190744
c ap 190639
ar m 190022
t or</w> 189677
r i</w> 189201
j u 189036
th en</w> 188514
च् च 188090
थ े।</w> 187979
st ar 187785
प ार् 187754
lo c 187694
d uring</w> 187540
g et</w> 186666
अ न्य</w> 186375
so ci 186270
de vel 185968
al s</w> 185900
wh ile</w> 185773
कर ो 185752
जा ता</w> 185515
त ं 185182
y e 185109
go od</w> 184709
ं च 184678
mad e</w> 184606
em ent</w> 184235
ti ve</w> 184090
v ing</w> 183904
प र् 183790
आ प</w> 183468
प ति</w> 183404
बा र</w> 183299
li ke</w> 183281
सक ता</w> 183242
भ ा</w> 183064
द े</w> 182337
en er 182136
d ,</w> 182014
ं ।</w> 181960
रुप ये</w> 181751
di rec 181695
ac k 181266
v es</w> 180907
ur e</w> 180381
be ing</w> 180286
in v 180247
mod i</w> 178858
sp ec 178741
ध ि</w> 178696
an s</w> 178340
उन की</w> 178221
ti m 178185
दिल् ली</w> 178079
y a</w> 178043
f a 178004
न ो 177941
हु ई</w> 177520
c or 177493
st e 177481
p ak 177459
कर ता</w> 177283
i on 177254
str ic 177205
cong ress</w> 177055
ड़ े</w> 176925
an n 176810
दौ रान</w> 176193
जा ने</w> 176135
s ome</w> 175761
m an</w> 175715
g re 175632
si on 174750
res p 174717
ग ी।</w> 174560
e f 174491
कि ए</w> 174437
हु आ</w> 174318
ध ार 174147
ब ारे</w> 174126
sh e</w> 174096
said .</w> 173925
स् व 173605
ग त</w> 173329
h ,</w> 173007
र ,</w> 172971
फ ै 172673
इ ंड 172524
w ay</w> 172434
su ch</w> 172386
ख े 172275
चु ना 172102
devel op 172083
वि का 171960
ha n</w> 171559
pak ist 171311
in to</w> 171296
सब से</w> 171224
् ‍ 171147
s it 171140
s y 171044
आ ई</w> 170507
ic k 170323
सू च 169927
j a 169897
ing s</w> 169815
खिला फ</w> 169633
20 0 169626
स द 169005
ac e</w> 168645
c re 167561
उ से</w> 167542
भा ज 167508
cas e</w> 167463
th em 167110
g r 166984
कर ा 166798
wor k</w> 166765
m il 166694
is su 166559
अध ्य 166435
व ै 166421
क म</w> 166346
w om 166307
म हि 166288
दि न</w> 166203
po w 165750
सक ते</w> 165637
re as 165626
j e 165533
गा ं 165396
्र ा 165394
th ose</w> 165264
घ ा 164905
थ ी।</w> 164842
र ू</w> 164269
t e</w> 164177
l ed</w> 164052
स्ता न</w> 163989
w ay 163513
com pl 163484
घ ट 163341
re .</w> 163204
पा कि 163139
अध िक</w> 162963
स भा</w> 162959
व न</w> 162863
र ों</w> 162590
ल ै 162081
चा ह 161828
f ul 161758
सा म 161547
hi m</w> 161175
an s 161164
ac h</w> 160945
तु म</w> 160570
st ed</w> 160473
k ar 160077
स् प 160051
वा ली</w> 159950
र क्षा</w> 159661
ज ारी</w> 159613
el y</w> 159584
मु झ 158948
t ec 158794
5 0</w> 158788
िय े</w> 158755
u m</w> 158578
ज न</w> 158435
श ी 158292
at ing</w> 158235
pl ay 157937
a ir 157782
o f 157758
पूर् व</w> 157558
bo th</w> 157165
ल न</w> 157119
नि क</w> 157049
1 2 157027
स मा 156728
स् ट</w> 156508
e i 156453
उ न</w> 156349
ज्ञ ा 156277
बता या</w> 156121
re l 155762
प ं 155689
विका स</w> 155592
ड े 154916
मे ं 154897
स र् 154863
ले कर</w> 154091
p ur 153916
es ti 153901
tak e</w> 153621
com e</w> 153563
bet we 153334
ता ओं</w> 152964
e red</w> 152558
betwe en</w> 152371
p s</w> 152292
cour t</w> 152260
य र</w> 151834
िय ो 151831
थ ी</w> 151201
गया ।</w> 151149
शु रू</w> 151142
म हा 150983
f am 150966
प्र देश</w> 150555
ar d</w> 150230
o g 150195
del hi</w> 150124
pro vid 150068
th rou 150014
di stric 149543
कं प 149516
स् वा 149257
ी ,</w> 149203
भा ग</w> 149161
ver ,</w> 149046
त्र ों</w> 148701
ए ं</w> 148698
hi m 148659
प् त</w> 148368
il d 147997
ं क</w> 147962
k h 147762
सम ् 147717
at h</w> 147702
g e</w> 147341
m emb 147015
v o 146989
ब र</w> 146778
th ree</w> 146638
फ ी</w> 146573
मुझ े</w> 146483
st ud 146370
राष्ट्र ीय</w> 146335
स्थ ि 146079
r e</w> 145913
c am 145724
भाज पा</w> 145714
ौ र</w> 145569
it 's</w> 145415
धा न</w> 145406
in t 145305
ent .</w> 145242
f ol 145231
,0 00</w> 145199
wi th 145056
d at 144917
छ ा 144876
y ou 144849
ren d 144445
आ ज</w> 144203
c ur 144193
तु म् 144127
w a 144068
हा ला 144026
con n 143959
ण ा 143822
ग्र ा 143556
जा ंच</w> 143158
पूर् ण</w> 143081
ध ी</w> 143059
दा र</w> 142780
sa y 142756
क िया।</w> 142663
टी म</w> 142600
दे ने</w> 142423
e as 142313
ार ों</w> 142299
फ ़ 142276
?	 no</w> 141998
su l 141886
ह त</w> 141841
f e</w> 141826
ट्र े 141583
s m 141287
per son 141221
m ay</w> 141133
इस से</w> 141050
sh ri</w> 140885
ho we 140808
स् त 140723
s po 140717
o d 140701
n ed</w> 140295
क् ति</w> 140152
छ ो 140057
ब द 139811
अ च्छ 139755
v en</w> 139729
मुख ्य 139675
दर् ज</w> 139547
ph one</w> 139503
हम ारे</w> 139413
हो ता</w> 138878
sp e 138841
ध न</w> 138781
d em 138757
ing ,</w> 138629
ती न</w> 138516
ना म</w> 138462
श ा</w> 138228
mo st</w> 138138
sup port</w> 138042
b il 137923
su b 137876
कर ण</w> 137869
य ी</w> 137791
श ो 137501
ऐ सा</w> 137469
s s</w> 137354
m i 137342
ल ,</w> 137122
ख ़ 136932
ध ि 136790
ता र</w> 136396
c u 136317
भ ी 136316
चुना व</w> 136215
मंत्र ा 136195
l ast</w> 136124
c a 135956
h a</w> 135898
ए म</w> 135841
भ े 135785
c er 135762
ण ा</w> 135661
ब ी</w> 135640
it e</w> 135484
उ म् 135383
मा र</w> 135381
re ad 135256
म ों</w> 135228
ch ang 135180
ए क् 135068
w s</w> 135031
ग े</w> 134836
d u 134821
throu gh</w> 134424
re t 134400
अ मे 134397
o per 134158
s on</w> 134136
s ol 134085
थ े</w> 134070
g ener 133910
ई ।</w> 133883
त ै 133849
ार ा 133827
ed ,</w> 133542
द् ध</w> 133524
f ic 133520
वा ई</w> 133352
ग ठ 133348
d on 133275
al la 133275
f l 133257
पार् टी</w> 133197
ट ा</w> 133139
di ff 132604
il y</w> 132504
s ed</w> 132489
क्र ि 132393
्य ा</w> 132365
und er 132276
in form 132185
k a 132106
an ,</w> 132062
g e 132039
इस में</w> 131842
ठ ा 131770
et s</w> 131737
करो ड़</w> 131516
ad d 131460
for e</w> 131206
य र 131050
अ ब</w> 130971
अ भि 130899
ड ॉ 130859
कार ण</w> 130171
ou s 130020
t y</w> 129909
बै ठ 129862
धा र</w> 129749
mak e</w> 129725
hi gh 129674
फ ी 129638
पाकि स्तान</w> 129200
b at 129114
l at 129015
su it 129004
n or 128948
howe ver,</w> 128783
p un 128714
न ई</w> 128699
क ू 128624
r an 128492
द ि</w> 128337
च े 128310
wor ld</w> 128253
g an 128146
s k 127946
ex p 127855
sti tu 127838
is e</w> 127834
मुख्य मंत्री</w> 127777
a ff 127280
द्य ो 127104
en d</w> 126959
ल ॉ 126934
o th 126927
क ता</w> 126751
सा ल</w> 126715
ye ar</w> 126632
n umb 126471
re ,</w> 126461
is t</w> 126347
प्रति श 126001
द्र ीय</w> 125935
अमे रि 125889
ड ी</w> 125850
वि शे 125721
वर् ष</w> 125688
wat er</w> 125597
k um 125563
न् न</w> 125286
े ,</w> 125078
ति क</w> 124990
he al 124944
ti es</w> 124917
str uc 124802
or y</w> 124795
स्था न</w> 124713
ें द्र</w> 124588
पि छ 124526
ं त</w> 124455
ब च्च 124376
c ri 124265
on g 124150
rend ra</w> 124073
wh ere</w> 123960
द र</w> 123767
av ail 123621
राष्ट्र पति</w> 123609
ren t</w> 123601
pro c 123462
th is 123437
pra des 123425
ation .</w> 123375
ऐ से</w> 123118
n ing</w> 122963
s ou 122947
अ ल् 122932
म त</w> 122808
ट न</w> 122550
l ak 122512
स ै 122460
के ट</w> 122312
fil m</w> 122310
p e</w> 122185
ढ ़</w> 122161
ने ता</w> 121923
v ir 121801
क् यो 121630
1 . 121623
मंत्रा लय</w> 121619
ह में</w> 121514
l l</w> 121398
r ic 121358
ओ र</w> 121353
राज ्य 121333
me et 121330
? ? 121290
al ,</w> 121197
tur e</w> 121007
c ent</w> 120980
क ,</w> 120800
य हां</w> 120797
स न</w> 120707
z e</w> 120599
व र 120595
f t</w> 120481
r it 120438
part y</w> 120379
सं बंध 120368
an t 120220
na rendra</w> 120195
k o 120074
इ से</w> 119916
pu b 119882
m s</w> 119862
v en 119822
e - 119780
t t 119742
it ed</w> 119718
जै से</w> 119635
िया ं</w> 119619
year s</w> 119579
र त</w> 119412
द न</w> 119310
ग ी 119259
न िया</w> 119225
1 2</w> 119121
ट े</w> 118890
it .</w> 118808
इ स् 118550
न ू 118122
ec ted</w> 118070
ल त</w> 117953
क ल</w> 117928
suit able</w> 117905
g and 117859
प्र े 117829
क्ष ण</w> 117745
wor k 117385
य क</w> 117113
घ ो 116802
प्र ो 116793
h ol 116697
su n 116504
क् ‍ 116494
se t</w> 116487
f r 116358
आ ं 116349
ह न</w> 116245
बं ध</w> 116182
1 5</w> 116138
3 0</w> 116080
च ित</w> 115892
ro w 115828
क्र म</w> 115751
th ing</w> 115732
bel ie 115688
c le 115575
tion .</w> 115525
जब कि</w> 115036
reg ist 114761
e p</w> 114716
सं ख 114574
ए स</w> 114433
ला ह</w> 114410
be fore</w> 114381
h and 114324
द ों</w> 114316
di d</w> 114264
i p 114153
ज वा 113967
s am 113950
pl o 113906
tak en</w> 113800
क ़ 113656
) .</w> 113569
er s.</w> 113524
shi p</w> 113453
निर् मा 113426
अ भी</w> 113384
ए ,</w> 112772
al .</w> 112713
j ust</w> 112651
प्रतिश त</w> 112461
un i 112446
st s</w> 112443
g a 112319
.. .</w> 112256
हा र</w> 112253
pol ic 112242
c c 112195
व्य व 112012
t re 111926
प्र भा 111817
ol og 111765
v ari 111696
it al</w> 111638
form er</w> 111534
देश ों</w> 111314
1 5 111293
minist ry</w> 111203
मु ख</w> 111156
श् ‍ 111092
ह े 111067
न् ‍ 111026
्या दा</w> 110999
हा ल</w> 110809
h n 110643
ho sp 110596
ac t</w> 110569
ध ्य 110567
ला ख</w> 110510
से ना</w> 110345
कर ेंग 110279
st ri 110070
व ्या 109938
ha pp 109924
ne ed</w> 109875
अ ग 109751
y an 109711
अ गर</w> 109603
म द 109594
अ ला 109460
व ज 109455
च ा</w> 109420
l in 109302
uc h</w> 109102
hi gh</w> 108864
de p 108675
उम् मी 108548
vi e 108479
ap pl 108342
re qu 108251
वा ला</w> 108200
लो क 108128
न ौ 108117
ल ं 108077
lo w</w> 108072
c el 108060
प्र ति</w> 108044
m uch</w> 108040
s in 108015
b en 107922
जा र</w> 107900
sh all</w> 107801
t el 107742
कर े 107627
pl ay</w> 107513
हम ने</w> 107449
क ी।</w> 107382
un ion</w> 107329
t y 107151
c all 107150
f it</w> 107136
v a 106865
' t</w> 106852
ब ॉ 106834
m u 106812
जिस में</w> 106788
क्यो ंकि</w> 106775
मि त</w> 106746
वि ध 106720
प त् 106671
bo d 106589
in d</w> 106529
t em 106434
ज र</w> 106317
ब ल् 106316
स्थ ित</w> 106178
आ व 106143
का फी</w> 106136
sid e</w> 105895
ra m</w> 105881
फ े 105873
c lo 105795
पु र</w> 105719
अप ना</w> 105529
gh t 105501
अध्य क्ष</w> 105412
b a 105366
त ियों</w> 105356
on om 105309
ष् ट</w> 105237
cr ore</w> 105235
v ice</w> 105110
ev en</w> 105011
सम झ 104990
गि र 104967
ic al</w> 104960
मौ जू 104812
li c</w> 104766
मौ त</w> 104720
पिछ ले</w> 104602
ार ि 104341
n am 104261
per i 104214
p at 104192
अ ल 103993
pakist an</w> 103976
s al 103675
f ul</w> 103579
del hi 103575
is h</w> 103409
m i</w> 103389
countr y</w> 103145
त् व</w> 103125
on d</w> 103118
िय ो</w> 102993
सा र</w> 102981
d et 102970
si g 102883
ब ल</w> 102873
p i 102743
y ing</w> 102624
n at 102461
प्र मुख</w> 102283
ar d 102258
सा न</w> 102139
ग ् 101976
उस की</w> 101967
p an 101932
develop ment</w> 101878
त ौर</w> 101820
थ ी 101797
दूसर े</w> 101786
1 8 101746
पो र्ट</w> 101665
or gan 101600
comm it 101598
ap pro 101554
व ल</w> 101513
तुम् ह 101284
बढ़ ा 101189
ब ्र 101166
c ould</w> 101156
लि ख 101080
त ो 100984
वि त् 100902
स् त</w> 100882
re sul 100877
ind u 100791
b ro 100768
र् ड</w> 100536
numb er</w> 100517
श र् 100441
अधि कार 100391
po si 100383
no t 100154
प्र दर् 99982
त् व 99913
ता न</w> 99911
o o 99899
m us 99856
v al 99785
inc reas 99781
सा ं 99745
ए फ 99736
ou t 99703
includ ing</w> 99690
govern ment 99526
b ha 99490
हि स् 99456
सा इ 99377
in te 99334
सद स् 99289
बे ह 99252
न्या या 99143
य न</w> 99142
र् स</w> 99125
ज रू 99082
ti c</w> 99046
वा द</w> 99029
gi ven</w> 98961
पर ी 98893
घट ना</w> 98867
कु मार</w> 98764
फै स 98701
ex am 98691
fol low 98691
k a</w> 98665
iti es</w> 98623
उप ल 98557
आ गे</w> 98494
स चि 98466
diff e 98333
h u 98209
ता ल</w> 98167
st and 98146
सु रक्षा</w> 98062
त्र ा</w> 98041
च ौ 98034
ation ,</w> 97952
es h</w> 97911
स् वी 97907
वा स</w> 97868
जान कारी</w> 97833
pub lic</w> 97752
फो न</w> 97642
न र 97611
d r 97590
g o</w> 97495
i ,</w> 97425
-1 9</w> 97299
acc ord 97211
i z 97203
ec onom 97127
पू री</w> 97111
यो ग 97107
स्थि ति</w> 97013
mar k 96973
t al 96810
योज ना</w> 96799
, "</w> 96737
उपल ब् 96686
said ,</w> 96657
च ल</w> 96464
m ain 96424
k ash 96424
bo o 96416
cont in 96378
हो ंग 96304
resp on 96186
s ab 96150
त हत</w> 96072
यु क्त</w> 95798
pow er</w> 95760
wel l</w> 95669
as s</w> 95582
को र्ट</w> 95427
न ल</w> 95421
कार ् 95402
व ो 95283
p m</w> 95247
ch ild 94916
wh e 94914
मुख ्य</w> 94835
is ed</w> 94736
फ ्र 94710
am ong</w> 94654
sec ret 94608
श ी</w> 94570
पहु ंच 94567
tec hn 94520
day .</w> 94471
po in 94355
par t</w> 94111
हि ं 94076
la un 93955
r is 93857
h ou 93828
pro j 93776
ट् र</w> 93752
re al 93672
य ल</w> 93636
th at 93606
व ृ 93585
1 4 93577
ल ु 93559
re le 93544
. "</w> 93491
ver s 93452
inv esti 93216
अ र् 93163
distric t</w> 93143
इस का</w> 93100
ज े</w> 92993
c ro 92911
investi g 92908
ट ों</w> 92896
बैठ क</w> 92837
t ain 92826
er s,</w> 92724
बै ंक</w> 92702
m m 92685
गां धी</w> 92682
w n 92545
अ स्प 92517
b ack</w> 92515
बना ने</w> 92502
हो ती</w> 92449
ज ़</w> 92385
मे रे</w> 92384
b est</w> 92330
m p 92308
स ,</w> 92275
प ड़ 92252
bec a 92231
s an 92167
आ योज 92130
उन का</w> 92100
ट र 91937
श ्य 91876
कार ्य</w> 91781
h ome</w> 91653
कु ल</w> 91606
l it 91588
the re 91586
end ed</w> 91554
m en 91547
s ame</w> 91533
re li 91482
ज ्यादा</w> 91407
g ir 91400
ati ve</w> 91378
re d 91348
वर् त 91338
कर ी 91261
वि भि 91085
st or 91074
वि धा 91068
f ur 91004
मद द</w> 90984
g b</w> 90958
मी र</w> 90898
e ach</w> 90890
िया ,</w> 90878
avail able</w> 90861
beca use</w> 90843
उस ने</w> 90818
ल ने</w> 90807
मा ल</w> 90683
जि न 90658
े .</w> 90587
ड ल</w> 90565
o b 90502
ord er</w> 90495
नि श् 90352
l arg 90329
क् स</w> 90298
ch ed</w> 90281
क श् 90199
id e</w> 90116
ल र</w> 90102
a th 89971
g g 89968
कंप नी</w> 89954
h on 89936
ed uc 89770
ab le 89767
प्र दान</w> 89741
ha r</w> 89718
ar re 89714
घो ष 89705
हो गा।</w> 89640
h ere</w> 89461
oun d 89433
स् था</w> 89423
इ ला 89317
t al</w> 89310
अला वा</w> 89171
मे ं,</w> 89049
sec ur 88876
म ार 88857
0 0 88816
kash m 88795
म त 88781
cent r 88760
way s</w> 88746
qu al 88620
go ing</w> 88570
2 . 88513
l y 88480
म न</w> 88394
o m</w> 88340
च ार 88340
ig n</w> 88309
1 1</w> 88300
स द</w> 88273
re por 88209
ra h 88138
e very</w> 88126
1 6 88026
संख ्या</w> 87985
t ly</w> 87909
se ver 87811
rec ei 87810
tic al</w> 87805
i a</w> 87597
सूच ना</w> 87583
m umb 87512
m or 87493
प्रा प्त</w> 87488
indi a.</w> 87388
acc used</w> 87300
kno w</w> 87295
कें द्रीय</w> 87162
ra m 87145
वा ल</w> 86998
p ul 86960
1 3 86933
mumb a 86904
आ तं 86899
l ing</w> 86873
j am 86847
का नू 86804
म ृ 86796
भा ष 86704
घ र</w> 86635
sp or 86612
अधि कारी</w> 86597
अल् लाह</w> 86431
द िया।</w> 86393
g rou 86345
उ द् 86343
2 5</w> 86314
श ल</w> 86309
ल िये</w> 86219
h .</w> 86189
वि त</w> 85995
res t</w> 85975
do wn</w> 85743
ज हां</w> 85687
m et 85640
ट ो 85606
comm is 85597
ch in 85551
था ,</w> 85530
ं स</w> 85453
न ए</w> 85332
ग ं 85325
20 20</w> 85299
भा व 85205
ta in</w> 85087
खा न</w> 85084
त म</w> 85060
ष् ठ</w> 85026
tr ans 85022
ड िया</w> 85018
no w</w> 84992
दि खा 84937
d e</w> 84866
स फ 84862
ज ग 84729
sur e</w> 84706
2 4</w> 84701
se e</w> 84649
जी त</w> 84628
c es</w> 84584
गिर फ् 84573
ु दा</w> 84553
ड ् 84547
pol i 84514
h ind 84421
सा मा 84394
u al</w> 84381
त ,</w> 84286
di sc 84229
ल ड़ 84196
पह ली</w> 84121
cr ick 83892
महि ला</w> 83871
ban k</w> 83852
w in 83849
य दि</w> 83801
b us 83598
दु निया</w> 83521
alla h</w> 83515
vid e 83461
म क</w> 83457
go d</w> 83407
1 00</w> 83359
ज ल् 83344
वे श</w> 83336
e ff 83274
pl ace</w> 83238
en s</w> 83235
f arm 83177
heal th</w> 83155
त ु</w> 83150
रा त</w> 83073
tion al</w> 82995
चाहि ए।</w> 82974
न ीय</w> 82944
भ र</w> 82937
c ul 82902
साम ने</w> 82892
इंड िया</w> 82889
p ic 82849
im port 82824
b le 82820
निर्मा ण</w> 82806
cont ro 82700
उत् पा 82685
िय न</w> 82651
न ही 82605
to p</w> 82498
द ारी</w> 82432
li m 82403
अ भ 82399
ग ै 82314
कार्य क्रम</w> 82304
li fe</w> 82299
hel p</w> 82234
है ?</w> 82187
soci al</w> 82051
em ent 82042
ण ी</w> 82035
g ar 82006
ह ित</w> 81990
ें ।</w> 81984
जा ना</w> 81978
gi ve</w> 81966
विशे ष</w> 81944
r un 81781
ब ड़ी</w> 81775
प ता</w> 81732
ध ्या 81679
ti ce</w> 81656
er ing</w> 81510
ne x 81467
d ue</w> 81456
m al 81441
accord ing</w> 81432
pres ent</w> 81264
he ar 81255
kum ar</w> 81170
rele as 81139
qu es 81085
pl ac 81078
fam ily</w> 80945
त ब</w> 80941
t est</w> 80928
सक ती</w> 80927
क्र िया</w> 80907
i ght</w> 80789
ख ् 80751
bod y</w> 80723
de part 80645
जी वन</w> 80603
centr al</w> 80587
प श् 80557
f our</w> 80541
in f 80464
e st 80429
ध ी 80428
या र</w> 80305
or d</w> 80257
च र् 80162
mon th 80139
om e 80129
th ou 80127
l es</w> 80083
to day</w> 80054
hel d</w> 79970
lak h</w> 79950
j an 79743
c la 79733
con stitu 79730
रा म 79708
can di 79705
emb er</w> 79637
हाला ंकि</w> 79635
ti v 79604
विभि न्न</w> 79593
ए क 79525
regist ered</w> 79512
pro gra 79496
स्ट े 79451
ना ग 79427
स्वा स्थ 79418
te am</w> 79406
he ad 79374
ग ई।</w> 79358
जाए गा।</w> 79308
पू रा</w> 79303
bo ok</w> 79296
स ब</w> 79280
अस्प ताल</w> 79152
l and</w> 79120
ना ओं</w> 79120
gand hi</w> 79112
ं द</w> 79102
stat es</w> 79061
p ass 78976
व हीं</w> 78945
l ong</w> 78934
an y 78914
s ci 78847
स हा 78836
ब न 78763
ए ल 78644
परि वार</w> 78634
di c 78584
ं ट</w> 78533
ass emb 78507
माम ला</w> 78448
re f 78444
1 4</w> 78424
त र् 78378
हो गा</w> 78341
j us 78295
pres ent 78211
pu t</w> 78205
ar ound</w> 78192
आ ने</w> 78191
से वा</w> 78151
उत् तर</w> 78147
2 1</w> 78064
ंग ् 78034
कें द्र</w> 77910
अल ग</w> 77900
ut t 77890
d ra 77876
h y 77827
inter national</w> 77822
ph on 77738
आप को</w> 77688
fi ed</w> 77632
पं जा 77595
at es</w> 77573
कश् मीर</w> 77555
in ju 77444
प ित</w> 77349
man ag 77336
के वल</w> 77306
tion ,</w> 77174
g l 77161
bas ed</w> 76989
ci al</w> 76965
अं तर 76872
indi a,</w> 76864
ser vic 76791
at e 76767
मी डिया</w> 76731
e qu 76725
व्य क्ति</w> 76674
comm un 76630
इस लिए</w> 76533
de f 76528
कर ें</w> 76488
नर ेंद्र</w> 76428
मौ के</w> 76387
sec ond</w> 76194
war d</w> 76178
a in</w> 76157
मु ंब 76103
cam er 76071
indi a 76015
इस की</w> 76011
म ,</w> 75988
re gi 75963
read y</w> 75956
क्ष ि 75915
o ver 75891
तै यार</w> 75829
pr in 75788
si ze</w> 75685
peo pl 75663
fo re 75559
य त</w> 75484
v ill 75481
gener al</w> 75470
stud ents</w> 75431
1 , 75411
ची न</w> 75402
श्र ी 75386
उ ठा 75364
on .</w> 75336
produc t</w> 75264
आ धार</w> 75192
meet ing</w> 75123
पा ल</w> 75111
g ed</w> 75015
प्र कार</w> 74973
मै च</w> 74973
cas es</w> 74934
लै ंड</w> 74910
वि भाग</w> 74884
3 0 74843
नी ति</w> 74815
या न</w> 74814
ज ल</w> 74809
्या लय</w> 74792
sever al</w> 74728
जे पी</w> 74710
wh y</w> 74666
b ab 74640
or s</w> 74627
for m</w> 74610
प्र ी 74556
k han</w> 74519
w ant</w> 74517
स ौ 74401
s ing</w> 74388
ड ियो</w> 74370
मि क</w> 74364
क ौ 74362
to tal</w> 74351
k ill 74321
ज य</w> 74290
st o 74164
स्वास्थ ्य</w> 74164
य हो 74111
आव श्य 74009
sh ar 73888
5 0 73834
us ing</w> 73728
f un 73679
अव सर</w> 73635
vari ous</w> 73614
हा ँ</w> 73611
क द 73558
a ir</w> 73516
l ine</w> 73476
to ok</w> 73468
po st 73406
201 9</w> 73399
इस ी</w> 73378
बा इ 73288
with out</w> 73217
wom en</w> 73215
1 7 73183
ंब र</w> 73130
र ण 73114
an .</w> 73079
क ल् 73057
ma j 73003
ट ल</w> 72995
l y,</w> 72993
bat ter 72908
nex t</w> 72826
ac tion</w> 72777
au th 72774
par ti 72765
हम ारी</w> 72665
l s</w> 72641
b re 72544
dec is 72513
दि ए</w> 72475
secur ity</w> 72469
र ल</w> 72452
प्र या 72432
re co 72398
al leg 72307
ॉ र् 72304
हा सि 72239
t en</w> 72237
ऑ फ</w> 72131
w o 72115
सं बंध</w> 72114
"" " 72080
ट ू 72060
. .</w> 72015
er n</w> 71922
तर ी 71901
sch em 71874
medi c 71868
i or</w> 71839
oc cas 71771
ma har 71724
आरो प</w> 71682
क भी</w> 71659
कर ती</w> 71551
conn ec 71545
g row 71495
ए च 71445
tr u 71375
ल ता</w> 71348
an ts</w> 71332
ब र 71327
lead er</w> 71320
रा हु 71232
s ent</w> 71229
ann oun 71218
ख ो 71189
स् तर</w> 71109
ह रा 71090
re mo 71090
रे ल 71083
चाहि ए</w> 71032
pu r</w> 71015
विश् व</w> 71009
? 	y 70953
al ong</w> 70883
f ri 70800
ar ,</w> 70793
wor l 70766
sab ha</w> 70766
ियो ज 70748
it y.</w> 70744
क्ष ा 70720
kno w 70699
he av 70678
ac coun 70675
th in 70614
र ै 70603
as h</w> 70587
वा लों</w> 70561
अधिकार ियों</w> 70511
b i</w> 70506
k ,</w> 70437
ष् ट 70432
st ing</w> 70412
m .</w> 70222
रो ध</w> 70222
यहो वा</w> 70200
ना थ</w> 70188
न जर</w> 70173
मै ंने</w> 70163
स् कू 70159
गा र</w> 70055
द र 70050
बा त 70010
in st 69931
जा ती</w> 69927
ve l</w> 69924
व ार् 69779
मु द् 69775
ष ण</w> 69767
वि ष 69728
स दी</w> 69709
e ver 69707
sit u 69678
su cc 69600
ए ल</w> 69540
them .</w> 69457
col l 69456
d ri 69407
स ें 69407
य ता</w> 69400
1 3</w> 69348
बी जेपी</w> 69334
राहु ल</w> 69313
ब ना</w> 69208
s et 69198
ऐ सी</w> 69186
द ृ 69052
j ar 69042
bo ard</w> 69016
ro ss</w> 68951
id enti 68920
त ार 68892
सम र्थ 68781
4 0</w> 68778
3 . 68769
धार ित</w> 68742
m p</w> 68688
ज्ञा न</w> 68601
ज ें 68598
पर ियोज 68564
s ome 68555
सचि व</w> 68521
tr a</w> 68460
g am 68404
lo o 68247
ज ों</w> 68239
l and 68194
b al</w> 68130
र न</w> 68100
ब न</w> 68054
d ate</w> 67969
ra tion</w> 67960
of f</w> 67940
sin ce</w> 67933
m it 67907
‘ ‘ 67888
an other</w> 67844
अनु सार</w> 67832
us h 67699
त ना</w> 67696
per son</w> 67684
ri ght</w> 67588
वि धान 67576
u res</w> 67547
ka po 67547
w rit 67499
ap pe 67495
d ing</w> 67446
म ही 67377
p .</w> 67373
g ur 67302
inform ation</w> 67277
st .</w> 67204
s h</w> 67200
se at 67185
न् द्र</w> 67182
m ust</w> 67175
em plo 67166
अमेरि का</w> 67144
मह ारा 67109
ब ड़ा</w> 67095
1 6</w> 67090
हो ते</w> 67080
diffe rent</w> 66917
prades h</w> 66912
coun tri 66908
fi ve</w> 66882
t old</w> 66834
je ho 66805
bet ter</w> 66753
व ों</w> 66698
t en 66642
त्व पूर्ण</w> 66639
मि ले 66604
spec ial</w> 66588
1 8</w> 66558
रि पोर्ट</w> 66553
व ो</w> 66480
d er</w> 66446
ra il 66392
ता कि</w> 66376
न ्यू 66364
s )</w> 66355
h an 66333
वर् ष 66312
inc id 66285
द् ध 66192
उपलब् ध</w> 66138
g lo 66080
सं गठ 66048
at a</w> 66047
मौजू द</w> 66030
arre sted</w> 66024
शि क्षा</w> 65977
उस का</w> 65975
jeho va 65972
गिरफ् तार</w> 65939
ल ू 65843
ben ef 65793
द क्षि 65717
नि का 65699
r or 65661
च् च</w> 65610
ध ारा</w> 65602
offic i 65499
ci p 65490
म् म 65490
al i</w> 65457
नाग रि 65434
प त्र</w> 65391
भू मि 65322
ec ts</w> 65315
s :</w> 65251
बंध न</w> 65218
भ ु 65206
6 . 65178
र् फ</w> 65149
कर् म 65135
स मि 65111
k .</w> 65104
commit te 65059
जि स</w> 65057
5 . 65024
sen ior</w> 65014
व्यव स्था</w> 64942
spe ak 64932
compl et 64925
ग े 64906
ag es</w> 64871
को वि 64801
त्र ी</w> 64781
tra in 64757
ut e</w> 64749
में ट</w> 64743
offic ial</w> 64702
war ds</w> 64700
जिस के</w> 64679
च ो 64671
j ud 64629
ear li 64554
बा हर</w> 64536
स मु 64487
उप योग</w> 64480
क पू 64459
अ न 64445
ab il 64430
माम लों</w> 64413
क ट</w> 64400
क म 64367
li ght</w> 64234
chang e</w> 64216
प ढ़ 64198
आ र्थ 64196
mo b 64177
day ,</w> 64174
ं कि 64157
सम ू 64147
enc y</w> 64056
cur ren 64020
ex pres 63987
sti t 63973
re n</w> 63936
त् ‍ 63808
निश् चित</w> 63779
पा ंच</w> 63772
जि न् 63753
rah ul</w> 63682
मा ंग</w> 63668
म ता</w> 63657
लग भ 63656
mahar ash 63622
अ र 63600
क्षे त्रों</w> 63599
बं द</w> 63587
ach ed</w> 63498
tor s</w> 63481
क्रि केट</w> 63460
पंजा ब</w> 63457
वि क</w> 63404
wor king</w> 63331
स् ट्रे 63311
call ed</w> 63275
पर मे 63239
a k</w> 63166
च े</w> 63114
लगभ ग</w> 63084
ful l</w> 63061
गु ज 63051
w est</w> 63038
li am 63036
com es</w> 62987
n ess</w> 62985
pr ic 62958
i m</w> 62954
शि का 62947
so ,</w> 62947
दे ते</w> 62917
ट्र ो 62884
in iti 62837
b ar 62833
पश् चि 62829
i red</w> 62816
b har 62782
sup por 62768
techn olog 62766
करी ब</w> 62717
announ c 62696
पु र 62692
प्रदर् शन</w> 62690
fur ther</w> 62633
fe at 62526
h our 62518
sel f</w> 62518
memb ers</w> 62503
b eng 62450
स ित</w> 62400
di tion</w> 62381
ह ों</w> 62318
मुंब ई</w> 62261
प ार 62239
विधान सभा</w> 62228
on s</w> 62216
ment s</w> 62156
ac ross</w> 62154
no v 62154
b al 62149
उम्मी द 62149
लि क</w> 62099
आतं क 62090
mob ile</w> 62081
d er 62074
we e 62054
c e 62041
प्र का 62038
g et 62015
प क्ष 61962
pl eas 61920
gre at</w> 61856
का ब 61841
a j 61786
ई ,</w> 61782
अ ति 61769
पा नी</w> 61756
comp an 61713
201 8</w> 61694
कृ ष 61693
a z 61647
ग ृ 61599
m ul 61590
स ों</w> 61535
वि द 61525
day s</w> 61519
be g 61440
ते माल</w> 61315
jo in 61299
7 0</w> 61266
com ing</w> 61251
आ र</w> 61184
qual ity</w> 61158
ep t</w> 61148
ध र् 61123
tr an 61123
wel l 61093
ad v 61068
ब यान</w> 61055
कै से</w> 61045
भ ो 61036
inju red</w> 61022
a st 60974
p et 60937
s es</w> 60908
त ्या 60878
क्ष ित</w> 60868
अ दा 60860
con sid 60837
जि से</w> 60827
आर्थ िक</w> 60824
f ree</w> 60808
th an 60766
h um 60763
ध्या न</w> 60694
an ti 60655
था .</w> 60643
ख ा</w> 60633
9 9 60626
हु आ 60614
y s</w> 60611
ever y 60591
bus in 60562
assemb ly</w> 60520
elec tion</w> 60485
se as 60367
कर के</w> 60356
ू त</w> 60324
महि ला 60291
द् धि</w> 60271
auth or 60228
gu jar 60122
व रि 60072
b ri 60045
lo k</w> 60029
प्र त्य 59998
तुम्ह ारे</w> 59997
se en</w> 59992
प न</w> 59947
2 5 59945
is m</w> 59902
vie w</w> 59870
ड र</w> 59860
फैस ला</w> 59854
संबंध ित</w> 59821
मह त्वपूर्ण</w> 59762
ब ड़े</w> 59696
रा म</w> 59593
वज ह</w> 59593
k ar</w> 59578
ma in</w> 59532
च ै 59503
in ve 59501
पी एम</w> 59413
w ar</w> 59371
4 . 59362
la w</w> 59294
ग ें 59257
th ir 59233
ना ,</w> 59148
1 7</w> 59128
कार ्र 59109
दि व 59102
रा ज</w> 59100
con duc 59059
secret ary</w> 59059
ले ने</w> 59057
स के 59000
mo di 58999
स ल 58984
ं त्र 58980
b er 58973
l ess</w> 58967
म ध 58966
ish ed</w> 58918
सु न 58905
न गर</w> 58893
an i</w> 58847
जि ले</w> 58834
चु के</w> 58820
n t</w> 58746
सह योग</w> 58717
2 2</w> 58663
महारा ष् 58656
म जब 58647
क् यों</w> 58622
dep end 58598
le t</w> 58499
तर फ</w> 58494
v ol 58488
hosp it 58484
फी सदी</w> 58471
बा द 58450
ण ् 58447
ल ंब 58436
राज्य ों</w> 58423
fr on 58375
d en 58362
n er</w> 58353
क ल 58339
वी डियो</w> 58319
स ार 58281
पर े 58275
th .</w> 58263
se e 58257
real me</w> 58237
गा ,</w> 58175
say s</w> 58170
र ण</w> 58117
दि नों</w> 58110
वा न</w> 58108
टे स्ट</w> 58104
ur al</w> 58098
li on</w> 58098
en ing</w> 58069
m l 58032
विश् व 58019
न्याया लय</w> 57995
do c 57955
वि चार</w> 57908
star ted</w> 57840
प्र शा 57818
शर् मा</w> 57797
भार ी</w> 57774
हो गी।</w> 57733
क प् 57705
pr ice</w> 57686
इस् तेमाल</w> 57655
w on</w> 57606
मा ध्य 57582
as ked</w> 57579
par liam 57576
201 7</w> 57568
रह ने</w> 57553
द बा 57507
का ं 57499
sou th</w> 57492
पा र</w> 57490
re tur 57488
हो ना</w> 57484
child ren</w> 57481
ला ने</w> 57450
et .</w> 57448
न व 57438
r at 57403
ter ror 57390
m er 57385
charg e</w> 57362
वा यर 57354
हू ं।</w> 57302
fe ren 57297
ए .</w> 57271
उ ल् 57193
s at 57167
मे री</w> 57151
he ad</w> 57121
टि ंग</w> 57086
fac e</w> 57077
या ।</w> 57034
p ay 56975
घा यल</w> 56892
पू छ 56887
m a</w> 56829
sc re 56824
ल क्ष 56818
मु ता 56791
1 9</w> 56758
आरो पी</w> 56751
सि र्फ</w> 56737
im pl 56713
ल ना</w> 56712
in de 56677
import ant</w> 56675
कार्र वाई</w> 56664
पे श</w> 56658
6 0</w> 56617
n al</w> 56602
ja b</w> 56583
l y.</w> 56490
ण ों</w> 56484
co vid 56480
उ द्यो 56474
न ियों</w> 56393
sec tion</w> 56372
reg ul 56371
candi dat 56367
सु र 56355
r ang 56317
निय म</w> 56220
b ack 56211
आ योग</w> 56199
स्ट ा 56136
b ol 56088
follow ing</w> 56019
c ame</w> 55976
pos si 55967
ेंग े।</w> 55922
ment .</w> 55920
em s</w> 55899
vide o</w> 55895
su pre 55885
contin u 55781
उ पा 55775
त क 55766
ग ू</w> 55766
व ु 55734
का म 55731
p ati 55701
त ृ 55677
ci ti 55675
ne ed 55673
भ व</w> 55659
से वा 55656
ste m</w> 55617
स ल</w> 55616
सह ित</w> 55609
en ed</w> 55589
हिस् सा</w> 55575
disc us 55563
f ound</w> 55551
गा .</w> 55512
spec i 55511
श ं 55495
go t</w> 55490
ब्र ि 55383
har yan 55376
19 9 55311
h it</w> 55292
ne ver</w> 55259
i .</w> 55232
em p 55217
ला इ 55206
ex c 55186
sha h</w> 55173
s il 55162
व री</w> 55151
al ready</w> 55151
पि ता</w> 55132
पू रे</w> 55108
p ho 55104
a h 55096
ग र् 55050
श्‍ वर</w> 55030
जन ता</w> 55006
n s</w> 54995
res ear 54976
on ,</w> 54957
up on</w> 54940
जिस से</w> 54934
fi el 54919
bec ome</w> 54912
ध ित</w> 54883
ला ई</w> 54869
me ,</w> 54818
अच्छ ा</w> 54818
m u</w> 54811
b ir 54807
गं भी 54806
या त्रा</w> 54782
ल ते</w> 54755
t s.</w> 54727
jus tice</w> 54724
ter .</w> 54717
ट् स</w> 54706
हू ं</w> 54698
poli tical</w> 54678
s mar 54634
m ess 54575
appl ic 54563
depart ment</w> 54535
provid e</w> 54530
th ,</w> 54520
कृष ि</w> 54515
श्र े 54486
memb er</w> 54460
h ist 54457
pun jab</w> 54430
t i</w> 54423
व हां</w> 54417
h al 54392
अ म 54380
ग ए।</w> 54375
त्य ा</w> 54368
की मत</w> 54348
p ed</w> 54307
सं युक्त</w> 54284
कार ों</w> 54277
pri v 54249
ता ,</w> 54221
रख ा</w> 54218
कृ त</w> 54166
sy stem</w> 54133
fe w</w> 54132
क् टर</w> 54122
हासि ल</w> 54116
? ?	 54066
ab l 54054
ख री 54046
n ame</w> 54032
pl y</w> 54009
आरो प 53965
आ देश</w> 53905
cu st 53894
बच्च ों</w> 53894
sp ir 53893
c m</w> 53887
उ च्च</w> 53858
7 . 53841
pe ti 53827
con cer 53824
kill ed</w> 53810
ल् ड</w> 53808
े क</w> 53792
al a</w> 53773
सं स् 53765
ड ो 53764
देश क</w> 53749
sm all</w> 53743
कानू न</w> 53738
आयोज ित</w> 53733
5 00</w> 53709
0 . 53705
इ न् 53705
लोक सभा</w> 53660
t v</w> 53653
l ord</w> 53569
तं त्र</w> 53504
d om 53488
ent ,</w> 53411
कपू र</w> 53399
educ ation</w> 53364
जा ते</w> 53352
कि सा 53342
प्र क्रिया</w> 53290
batter y</w> 53288
भूमि का</w> 53266
ह ,</w> 53262
द ी।</w> 53243
re ad</w> 53240
sa y</w> 53196
conn ect</w> 53177
बल् कि</w> 53135
मं दि 53110
au str 53090
medi a</w> 53060
परमे श्‍वर</w> 53060
jam mu</w> 53034
in e 52987
pos ed</w> 52981
tim es</w> 52955
ट क</w> 52920
न - 52895
समि ति</w> 52860
चाह ते</w> 52851
austr ali 52850
crick et</w> 52833
जरू रत</w> 52801
vi ol 52776
दे ता</w> 52773
gh ts</w> 52763
e ver</w> 52754
arm a</w> 52659
व ार 52631
चर् चा</w> 52582
b er</w> 52570
ए ंग 52518
सा थ 52506
m ic 52478
समर्थ न</w> 52460
aff air 52441
सं र 52438
अ न् 52416
्‍ य 52410
tak ing</w> 52375
to o</w> 52365
k er 52352
s . 52292
posi tion</w> 52283
शा ह</w> 52274
श हर</w> 52262
बो र्ड</w> 52250
ang u 52248
ठ ी 52243
me an 52234
ser i 52208
को शि 52196
fri end 52169
f el 52131
compl ain 52117
सर कारी</w> 52094
ent ly</w> 52087
रुप ए</w> 52070
to ge 52021
t a</w> 51981
ग्रा म</w> 51954
त रि 51952
हर िया 51950
लग ा</w> 51939
स् तु 51931
mak ing</w> 51905
econom ic</w> 51859
वा प 51855
mat er 51853
po pul 51820
रह े 51814
प ट 51813
s es 51790
fac il 51778
hou se</w> 51772
it ,</w> 51770
ए जें 51755
ला गू</w> 51722
de ath</w> 51714
ज य 51707
cha ir 51705
comp any</w> 51631
तु म 51594
ar ly</w> 51533
"" "</w> 51510
वित् त</w> 51505
ट्र ीय</w> 51442
supre me</w> 51427
as soci 51418
grou p</w> 51408
ज र् 51378
w r 51334
ड े</w> 51328
रख ने</w> 51324
lead ers</w> 51320
वी ं</w> 51318
en ,</w> 51265
n av 51228
नी तिक</w> 51218
अदा लत</w> 51218
ला इन</w> 51206
जग ह</w> 51196
जवा ब</w> 51185
m ed</w> 51167
कह ना</w> 51163
fam il 51155
ne w 51128
il d</w> 51106
kashm ir</w> 51054
medic al</w> 51039
d ou 51035
servic es</w> 51020
ी न</w> 51012
h er 51011
ार ो 50993
t our 50982
ं .</w> 50974
s our 50963
	 no 50958
ch all 50956
r ul 50949
प द</w> 50906
ार् थ 50855
it y,</w> 50842
वरि ष्ठ</w> 50819
ic i 50815
प क</w> 50764
mon e 50735
बना या</w> 50708
et y</w> 50707
सा झ 50703
ब स</w> 50700
प्र ौ 50682
खे ल</w> 50659
ह री</w> 50634
en .</w> 50555
b h 50554
him .</w> 50554
no te</w> 50513
ti ll</w> 50511
m ed 50505
पह चा 50489
सी मा</w> 50480
sho w 50469
स् ट्र 50437
cla im 50397
ज़ ा 50383
प द 50351
j un 50330
ज़ ि 50325
मही ने</w> 50323
सम स् 50319
ch o 50301
सहा यता</w> 50230
farm ers</w> 50214
ch ar 50212
पहु ंच</w> 50196
b ur 50173
committe e</w> 50171
ेंग े</w> 50154
वा द 50117
hosp ital</w> 50091
ड ा</w> 50066
दू र</w> 50061
द्यो गि 50046
la w 50011
pr o</w> 50002
म ॉ 49969
m ,</w> 49910
2 4 49896
f re 49887
t ers</w> 49871
इं टर 49836
b ra 49817
n ag 49800
sh arma</w> 49695
id ed</w> 49643
mumba i</w> 49610
chall eng 49594
त् मक</w> 49574
si ve</w> 49563
किसा नों</w> 49535
श क</w> 49496
c y 49487
s co 49393
आ ए</w> 49383
im pro 49355
सं स्था 49354
th re 49328
o wn</w> 49301
ं द 49289
pr is 49283
ric ul 49283
वा य 49275
बेह तर</w> 49263
countr y.</w> 49247
स त</w> 49230
सी बी 49217
m en</w> 49195
जल् द</w> 49145
ef for 49141
ke ep</w> 49132
i ed</w> 49131
s w 49125
p en 49086
c ity</w> 49062
l am 49044
ch es</w> 49035
bu d 49031
प्र णा 49014
ut y</w> 49004
घोष णा</w> 48980
v al</w> 48973
फ र 48967
de d.</w> 48962
ख़ ुदा</w> 48962
op en</w> 48946
laun ched</w> 48927
l ab 48924
श् य</w> 48902
ें स</w> 48844
र िय 48815
झ ा 48787
न र</w> 48743
ड़ ा 48741
दक्षि ण</w> 48724
st ,</w> 48703
t ou 48687
u n</w> 48677
य ही</w> 48673
लगा या</w> 48672
sh e 48607
ब ू 48559
vis it</w> 48546
प्रौ द्योगि 48491
मार् ट 48472
n es 48444
m as 48420
पै दा</w> 48418
न िया 48389
आ त</w> 48388
citi z 48369
kno wn</w> 48361
दूसर ी</w> 48360
ve red</w> 48352
l ad 48282
परी क्षा</w> 48278
माध्य म</w> 48273
offici als</w> 48265
d one</w> 48246
st ren 48198
ट ै 48196
thin k</w> 48154
tion s.</w> 48143
fir e</w> 48126
रा नी</w> 48106
maj or</w> 48101
del i 48072
नि वेश</w> 48070
मार् ग</w> 48070
sing h,</w> 48067
cel e 48065
सदस् य</w> 48044
भा ई</w> 48017
का ल</w> 47998
re port</w> 47994
id e 47989
ला भ</w> 47985
ग ण 47969
se .</w> 47895
sun g</w> 47889
वु ड</w> 47868
र् ष</w> 47867
प क्ष</w> 47865
lo t</w> 47839
ं प</w> 47829
बा जार</w> 47815
stren g 47813
raj as 47800
ac tor</w> 47798
pu bl 47797
ro ad</w> 47786
person s</w> 47786
ें ट</w> 47780
स म</w> 47763
8 . 47761
महाराष् ट्र</w> 47643
प्रया स</w> 47638
आ त् 47631
प्र स्ता 47607
मु काब 47588
l et 47576
pro mo 47566
स ड़ 47563
ro le</w> 47549
आ य 47547
अमेरि की</w> 47547
a way</w> 47534
कह ते</w> 47518
करेंग े।</w> 47511
mo vi 47497
co ver</w> 47484
u ary</w> 47430
oth ers</w> 47411
sti ll</w> 47408
आप के</w> 47408
स ार् 47404
li k 47373
ज ल 47358
occas ion 47315
मी टर</w> 47279
reli gi 47279
st and</w> 47265
s ist 47260
क् ता</w> 47245
भाव ना</w> 47233
उन से</w> 47227
खु द</w> 47227
bi g</w> 47223
indi as</w> 47214
red mi</w> 47203
in ation</w> 47192
पी छ 47182
y s 47179
f er 47152
अ क् 47130
ट ,</w> 47116
ारि श</w> 47103
de ep</w> 47070
अ प्र 47059
lat er</w> 47059
िया न</w> 47039
दु र् 47038
h ic 47021
िया .</w> 47017
जा य 47016
oo l</w> 46954
ha ving</w> 46936
fore ign</w> 46935
can not</w> 46930
कृ ति</w> 46921
त ने</w> 46918
b ang 46894
u tion</w> 46870
ष् य</w> 46847
te am 46836
wo od</w> 46836
वि देश</w> 46831
परि णा 46822
ser vice</w> 46818
det ail 46817
क्ष मता</w> 46805
ad minist 46759
शु रु 46758
v s</w> 46749
sec tor</w> 46723
s ar 46722
को रो 46715
श नल</w> 46685
म ारी</w> 46611
indu str 46574
n a</w> 46515
le vel</w> 46511
lo ok</w> 46508
8 0</w> 46506
वा स्त 46500
t am 46475
शे यर</w> 46461
vi l</w> 46438
w ick 46431
di g 46428
.. . 46374
r ate</w> 46370
are a</w> 46370
तर् गत</w> 46344
बं गा 46323
्‍ य</w> 46299
201 9 46274
fin an 46239
ब ्रा 46211
कै म 46208
ती सर 46195
glo bal</w> 46170
ब र् 46164
ch ec 46148
चु की</w> 46117
pl as 46113
ag ricul 46059
in stitu 46053
ल ब</w> 46041
fo od</w> 46004
fun c 45952
नि ग 45943
n et 45935
n ar 45926
ल ौ 45903
लि त</w> 45896
oper ation</w> 45874
ve hic 45841
on e 45826
ec tive</w> 45825
g y</w> 45810
y ad 45795
announc ed</w> 45791
do wn 45783
def ence</w> 45772
द ल</w> 45768
end ra</w> 45764
g er 45751
le d 45740
di tional</w> 45729
कद म</w> 45712
जि ला</w> 45680
ष्ट ि</w> 45679
ली ,</w> 45671
पु न 45668
पर् या 45652
i an</w> 45644
u r</w> 45634
गंभी र</w> 45619
decis ion</w> 45604
1 ,</w> 45602
o il</w> 45593
मि ली</w> 45583
loc al</w> 45568
m ur 45562
अच्छ ी</w> 45547
j ay</w> 45533
त् ता</w> 45525
z e 45445
शिका यत</w> 45437
र ह</w> 45387
sh or 45387
या द 45382
20 0</w> 45360
ल िया।</w> 45327
उ सी</w> 45297
कोशि श</w> 45296
लि ए,</w> 45295
ट् वी 45275
camer a</w> 45274
प ना</w> 45268
issu e</w> 45267
repor ted</w> 45266
countri es</w> 45252
f ar 45250
श ै 45191
आ म</w> 45178
निर् ण 45169
m ag 45154
candidat es</w> 45124
o t 45120
को ह 45078
म े</w> 45065
ex t 45048
sho w</w> 45017
kapo or</w> 45016
direc tor</w> 44984
ठी क</w> 44937
mat ter</w> 44916
p ,</w> 44912
हम ले</w> 44900
su ff 44871
mis sion</w> 44865
re d.</w> 44810
th er 44799
मंदि र</w> 44789
an a</w> 44755
vis ion 44754
o ,</w> 44732
inc h</w> 44731
bu ild 44706
ति म</w> 44704
cent re</w> 44685
rec ord 44641
t le</w> 44633
म न 44632
includ e</w> 44629
ag re 44624
अति रि 44613
re ached</w> 44582
uni vers 44567
न्या य 44533
वि रोध</w> 44530
वि द्य 44451
पश्चि म</w> 44449
सो शल</w> 44427
च ना</w> 44383
वृ द्धि</w> 44333
covid -19</w> 44302
ser ies</w> 44295
स्ट ि 44264
वर ण</w> 44262
या त</w> 44237
उस से</w> 44204
mat ch</w> 44201
गुज रात</w> 44185
o .</w> 44168
utt ar</w> 44139
ली वुड</w> 44128
pro te 44125
ध ा</w> 44115
pro bl 44079
ty pe</w> 44072
c ou 44069
ड ्र 44066
वा दी</w> 44058
हरिया णा</w> 44045
निय ंत्र 44032
provid ed</w> 44025
गृ ह</w> 44010
d ar 44005
end ing</w> 43968
ऊ र् 43966
ac hi 43959
बि हार</w> 43954
le ar 43946
ac ti 43942
n ath</w> 43940
y et</w> 43929
र िया</w> 43920
larg e</w> 43916
समू ह</w> 43894
y oun 43893
sam sung</w> 43868
re main 43860
li f 43859
b ed</w> 43844
di st 43828
to wards</w> 43826
tre at 43816
l angu 43815
ig n 43801
sy st 43795
20 20 43779
? ?	yes</w> 43776
finan cial</w> 43768
अग ले</w> 43749
महिला ओं</w> 43738
भा ग 43727
don t</w> 43727
contro l</w> 43711
pro tec 43670
क्र म 43633
cas e.</w> 43632
pro f 43587
म् मे 43581
ह मे 43557
ग यी</w> 43537
u k 43527
ंग ा</w> 43488
मं डल</w> 43477
ग ढ़</w> 43465
न ै 43455
in s</w> 43447
hum an</w> 43421
ar my</w> 43386
b an</w> 43377
श ु</w> 43361
स ही</w> 43358
f ut 43341
con struc 43341
di ed</w> 43324
with in</w> 43311
जाए ंग 43303
ण ,</w> 43247
लगा तार</w> 43209
this .</w> 43207
ट ो</w> 43186
ले बा 43186
ment ,</w> 43185
d au 43169
recei ved</w> 43150
fin ance</w> 43143
ह त्या</w> 43141
thou gh</w> 43139
पह ला</w> 43101
बात ची 43098
प ॉ 43067
sion s</w> 43055
जि क</w> 43041
o ol 43031
mon th</w> 43005
द् धा 43003
च ं 42990
य ी 42980
श ब् 42961
spo t</w> 42935
लग ता</w> 42928
thir d</w> 42921
बि ना</w> 42884
curren tly</w> 42880
parti cip 42867
or ,</w> 42845
ए ं 42824
् र</w> 42800
i a 42774
शि व 42769
विशे ष 42752
हमे शा</w> 42732
inc ident</w> 42731
ग ौ 42724
ट्वी ट</w> 42716
l ap 42709
स्कू ल</w> 42676
d ed</w> 42637
respon si 42623
ग ति</w> 42621
y ed</w> 42618
ख ंड</w> 42618
र ं 42604
ha t 42595
m em 42590
ne ws</w> 42571
ha m 42567
c all</w> 42549
sch ool 42549
ग ति 42548
ह जार</w> 42547
2 3</w> 42543
फ ा</w> 42538
जि न</w> 42505
ं चा 42489
re ly</w> 42481
im um</w> 42475
आ धारित</w> 42448
h s</w> 42438
ko h 42420
commis sion</w> 42411
ag e.</w> 42398
िय म</w> 42392
ar t</w> 42376
टे ड</w> 42357
व ारों</w> 42353
मं जू 42346
बातची त</w> 42342
उद्यो ग</w> 42338
राज नीतिक</w> 42262
पत् नी</w> 42258
ri bu 42245
ग ल 42169
ir e</w> 42158
issu ed</w> 42134
हा द 42104
cor on 42099
ke y</w> 42091
so on</w> 42086
मे रा</w> 42064
inve st 42062
रा व 42059
र् जी</w> 42048
ac t 42044
c ab 42010
चा ल 42010
इन में</w> 41986
सु निश्चित</w> 41956
व्य क् 41934
उम्मी द</w> 41926
प्रति नि 41912
ec t 41876
grow th</w> 41868
mit ted</w> 41865
2 8</w> 41864
technolog y</w> 41848
बल् लेबा 41842
st ra 41835
नि देशक</w> 41808
स मान</w> 41801
w al</w> 41790
बना ए</w> 41781
ro l 41777
थ े,</w> 41771
वि रा 41762
wor ks</w> 41760
दे ना</w> 41745
ज न् 41734
शा ं 41726
vis ion</w> 41698
p ap 41689
व न 41674
हो ,</w> 41672
सम ारो 41661
री ज</w> 41650
पहचा न</w> 41636
b or 41624
cap ac 41597
el l 41582
us ,</w> 41578
र सू 41563
indu stri 41552
प्र ि 41545
मजब ूत</w> 41538
sch ool</w> 41521
देख ा</w> 41509
आई सी 41490
elec tr 41475
g al 41462
बि ज 41442
j i 41386
te ach 41386
ta x</w> 41383
al ways</w> 41375
us .</w> 41371
र ॉ 41352
play ed</w> 41316
2 , 41312
अव धि</w> 41304
dat a</w> 41285
ist s</w> 41231
मध ्य</w> 41228
le ad</w> 41215
लॉ न् 41194
ब चा 41181
al low 41176
विद ्यालय</w> 41153
एक् स 41151
off ice</w> 41138
elec tions</w> 41136
n ec 41127
con f 41104
सार् वज 41090
त्र ि 41071
देश ी</w> 41061
अं तिम</w> 41032
तुम् हें</w> 41022
सु धार</w> 41019
पर् य 41009
भ र् 41003
समझ ौ 40999
cont ain 40994
चि कि 40987
me as 40982
अधि कार</w> 40982
for t 40980
ग्र ी</w> 40929
ब न् 40922
si x</w> 40916
em ents</w> 40910
वा ह</w> 40896
स वाल</w> 40874
r up 40856
9 . 40852
रि ए</w> 40827
add res 40821
situ ation</w> 40811
। "</w> 40807
त ः</w> 40795
th ings</w> 40784
commis sion 40780
tur al</w> 40754
ला ल</w> 40749
सं शो 40738
के न् 40694
b es 40691
जाए गा</w> 40687
ध ु 40686
we ight</w> 40673
थ ो 40663
h ya</w> 40644
ले ख 40634
मा ना</w> 40630
g ri 40613
कोरो ना</w> 40597
त् य</w> 40582
क िया,</w> 40576
ह ा</w> 40565
ना एं</w> 40560
स्था नीय</w> 40556
सु प्री 40554
वर्त मान</w> 40551
tim e.</w> 40509
	y es,</w> 40499
ha l</w> 40488
man u 40463
पुर स् 40441
व क</w> 40419
पीछ े</w> 40413
for ce</w> 40396
या द</w> 40393
pleas e</w> 40387
s p</w> 40385
हैं ?</w> 40384
या चि 40369
op port 40369
are as</w> 40356
opport un 40349
ti fic 40338
est abl 40323
resear ch</w> 40323
p il 40306
अ फ 40287
ब िक</w> 40263
ब ा</w> 40262
ने ताओं</w> 40257
चु नौ 40225
ने ट</w> 40222
f und 40216
वि क 40216
न रे 40203
cl ass</w> 40189
ch and 40187
cor por 40123
सार्वज निक</w> 40109
कर ने 40096
ला या</w> 40096
nor m 40094
l i</w> 40092
ण ि 40091
proj ect</w> 40070
le ft</w> 40059
a w 40057
कप् तान</w> 40049
दे ं</w> 40037
डॉ लर</w> 40029
नि शा 40027
स्ट ो 40023
vill age</w> 40022
bol ly 40011
2 6</w> 39981
अप रा 39980
col leg 39951
p ack 39941
busin ess</w> 39923
ver s</w> 39916
आ वे 39893
de v 39882
peri od</w> 39868
ढ ा 39860
निर्ण य</w> 39847
ग्र ह</w> 39842
मु ला 39840
म नो 39830
चु का</w> 39828
con feren 39815
ro ad 39803
वि ज्ञान</w> 39776
3 1</w> 39754
sing le</w> 39744
mo de 39730
राष् ट्र</w> 39715
p t 39700
f ar</w> 39691
नि जी</w> 39666
प्रभा वित</w> 39665
ब रा 39660
भ र 39645
nat ak 39644
h om 39639
च न</w> 39624
201 6</w> 39596
घ ं 39588
maharash tra</w> 39587
सि त 39584
id es</w> 39581
त ला 39570
we b 39568
ल ो</w> 39556
ru n</w> 39546
य ,</w> 39519
संगठ न</w> 39514
रेल वे</w> 39513
kar natak 39492
ए फ</w> 39491
no w 39475
lo ve</w> 39467
h us 39449
ति हा 39449
चाह ता</w> 39438
विधा यक</w> 39438
ट्र ा 39431
त स्वी 39404
on - 39394
ex peri 39359
o u</w> 39353
n 't</w> 39346
प्रौद्योगि की</w> 39337
सं घ</w> 39329
earli er</w> 39312
k g</w> 39311
मू ल् 39308
मे लन</w> 39297
कार ो 39279
ब ार 39269
उन में</w> 39253
a x 39233
र हा 39232
ठ ा</w> 39226
ता ।</w> 39221
mar ri 39221
tr um 39206
fil ed</w> 39187
y es</w> 39179
this ,</w> 39178
बॉ लीवुड</w> 39173
rou ght</w> 39139
l eng 39108
hour s</w> 39101
समारो ह</w> 39082
mil it 39056
कार् ड</w> 39051
पो र् 39047
j our 39042
po st</w> 39039
tion ed</w> 39036
201 8 39022
n er 39011
1 1 39007
st er</w> 39007
at ely</w> 39004
हा थ</w> 38998
un ited</w> 38962
w in</w> 38929
य ू</w> 38891
डॉ .</w> 38868
पे ट्रो 38867
गां व</w> 38840
di es</w> 38835
w as 38834
भर् ती</w> 38809
go v 38799
on d 38792
छा त्रों</w> 38778
ful ly</w> 38767
ब ह 38740
nor th</w> 38740
त न</w> 38725
ऊर् जा</w> 38717
फि ल 38639
का उ 38622
त री</w> 38621
या ,</w> 38613
f ound 38611
अभ ियान</w> 38602
ने ं</w> 38599
अ र्थ 38596
ए श 38588
विष य</w> 38585
स ियों</w> 38570
अ नि 38565
आ या</w> 38559
मि ला</w> 38559
al e</w> 38533
fron t</w> 38520
them ,</w> 38517
कृ तिक</w> 38514
v o</w> 38494
ले क् 38477
ध ो 38473
श ि</w> 38473
प्र शि 38467
ch an 38464
increas e</w> 38456
प्रणा ली</w> 38438
हो गी</w> 38411
न या</w> 38397
priv ate</w> 38396
प्रत्य ेक</w> 38392
स मे 38381
टा इ 38377
बंगा ल</w> 38366
wom an</w> 38353
inv ol 38350
per f 38330
haryan a</w> 38315
c al 38309
फा य 38309
परि वर्त 38271
जाए गी।</w> 38253
br ing</w> 38253
सं बो 38247
j es 38232
said :</w> 38229
वि धान</w> 38224
श री 38219
201 4</w> 38219
sel f 38162
म ि</w> 38161
am it</w> 38150
व ें</w> 38141
चिकि त् 38114
2 3 38112
impl ement 38104
schem e</w> 38100
दी प</w> 38074
क ह</w> 38053
e u 38050
अप्र ै 38000
201 7 37985
er ic 37977
affair s</w> 37924
प्र योग</w> 37923
seat s</w> 37923
t we 37900
व ही</w> 37899
ह ॉ 37888
it ing</w> 37887
फा इन 37880
स्था पित</w> 37878
y e</w> 37850
ग्रा मी 37842
ं क 37834
ग ई 37814
जिस का</w> 37795
belie ve</w> 37786
progra m 37768
ra j</w> 37766
p ha 37757
परि ष 37756
heav y</w> 37739
j ur 37723
wi fe</w> 37709
ind er</w> 37687
know led 37686
अ मित</w> 37671
विश् वास</w> 37670
सामा जिक</w> 37654
मो ह 37653
न ्य 37626
abil ity</w> 37618
वाप स</w> 37616
pl us</w> 37613
investig ation</w> 37596
wat er 37577
in es</w> 37572
ic k</w> 37566
re ally</w> 37550
b ul 37543
sha red</w> 37541
si mil 37524
निर् देश</w> 37524
2 1 37522
kashm ir 37515
ne t</w> 37500
inform ed</w> 37466
प ृ 37462
थ े.</w> 37457
19 8 37457
ल् स</w> 37451
जा न</w> 37440
b ag 37431
minist ers</w> 37424
सामा न्य</w> 37419
ti s 37414
कोवि ड 37398
cab in 37350
si m 37339
कोह ली</w> 37311
ab o 37291
mone y</w> 37284
ं प 37280
ह ् 37274
ब ड़ 37273
( n 37267
2 7</w> 37256
ci l</w> 37252
p al 37245
am oun 37235
ते जी</w> 37231
chin a</w> 37210
cont ribu 37209
s or 37205
ous ly</w> 37153
fin d</w> 37135
wh il 37127
आ ग</w> 37116
ser v 37114
el s</w> 37102
च ार् 37095
s qu 37094
su m 37087
pro per 37084
se ,</w> 37082
dem and 37078
incid ent.</w> 37067
w ent</w> 37059
de ath 37030
परियोज ना</w> 37021
bil ity</w> 37016
whe ther</w> 37015
म ति</w> 37004
वि केट</w> 36997
organ is 36984
b ad 36981
g old</w> 36980
मू ल</w> 36963
फ ु 36956
थ ी,</w> 36953
k es 36951
co tt 36944
dau gh 36940
gir l 36922
it y 36909
b rought</w> 36907
कर् ना 36892
res er 36875
तक नी 36874
c are 36853
सी ट</w> 36850
मी न</w> 36846
क िये</w> 36808
gujar at</w> 36755
stat e.</w> 36745
a i 36730
ar tic 36693
qu ar 36654
4 0 36644
सी टों</w> 36610
o s</w> 36604
स् पे 36567
c bi</w> 36553
आ द 36550
क ला 36508
समा ज</w> 36506
k an 36501
direc ted</w> 36500
w ash 36494
अतिरि क्त</w> 36486
w an 36441
c .</w> 36426
w al 36410
n ess 36409
ने तृ 36403
bl u 36382
ak e</w> 36369
organ iz 36319
univers ity</w> 36316
उन् ‍ 36308
" .</w> 36302
क्‍ त</w> 36298
मिल ने</w> 36285
प क 36230
जो र</w> 36212
उम्मीद वार</w> 36212
मुता बिक</w> 36201
e 	 36197
चि ं 36180
p al</w> 36160
sa f 36157
f ra 36152
m and 36148
वर् ग</w> 36138
h and</w> 36066
pre vi 36054
स्ट्रे लिया</w> 36053
en sure</w> 36038
ab ad</w> 36005
al li 35980
pet ro 35980
दे ख</w> 35976
हुआ ।</w> 35961
प्रदर् श 35915
सुप्री म</w> 35908
in stit 35905
निय ु 35892
mul ti 35889
च रण</w> 35887
proc ess</w> 35873
होंग े।</w> 35869
d ha 35863
साइ ट</w> 35857
li ve</w> 35816
व ॉ 35805
th y</w> 35786
कोविड -19</w> 35783
ई - 35779
l ord 35774
हो ।</w> 35767
ass ist 35754
बच्च े</w> 35749
im medi 35739
am eric 35728
करा या</w> 35722
स्प ष्ट</w> 35686
च र</w> 35671
ड़ ों</w> 35661
en vir 35647
m ay 35640
col our</w> 35625
ब ता</w> 35622
2 6 35617
run s</w> 35588
य हाँ</w> 35582
सम ी 35557
envir on 35529
ख़ ुदा</w> 35515
polic y</w> 35511
कि लो 35496
राष् ‍ 35452
r in 35438
p ing</w> 35425
releas ed</w> 35422
v ar 35413
ne i 35413
fin al</w> 35407
star t</w> 35406
c ir 35384
ख ू 35370
ation s.</w> 35363
ी ल</w> 35339
ने शनल</w> 35328
फिल हाल</w> 35313
exp ected</w> 35309
t an 35299
me et</w> 35299
ट ॉ 35292
for c 35284
उत्पा दन</w> 35282
क मी</w> 35276
rel ated</w> 35268
chec k</w> 35252
साम ना</w> 35232
ul t</w> 35228
भाष ा</w> 35227
सां सद</w> 35225
2 8 35223
in depend 35212
म ना 35193
mil lion</w> 35184
विक सित</w> 35184
देख ते</w> 35183
s s 35161
mark et</w> 35157
र - 35152
हम ारा</w> 35147
m ach 35146
issu es</w> 35125
त नी</w> 35093
contin ue</w> 35090
d am 35087
on ce</w> 35070
दि शा</w> 35068
जि म्मे 35055
शुरु आत</w> 35040
su per 35030
आवश्य कता</w> 35024
के स</w> 35016
s tic 34990
er al</w> 34987
pho to 34960
cle ar</w> 34955
gre at 34952
wat ch</w> 34932
?	 no 34921
वायर स</w> 34920
re port 34914
d r</w> 34913
उद् दे 34898
mus li 34868
w id 34838
resul t</w> 34836
इ ल</w> 34816
d ro 34802
बद ला 34797
त रा 34791
g or 34779
bo x</w> 34776
high er</w> 34775
h old</w> 34770
f y</w> 34768
त ू 34764
ने क</w> 34756
writ ten</w> 34739
आयोज न</w> 34693
tem ple</w> 34679
me ans</w> 34669
manu fac 34663
ए यर 34647
e :</w> 34637
enti re</w> 34636
ain ed</w> 34628
क्ष क</w> 34610
वे ब 34569
do ing</w> 34563
दिव स</w> 34558
fa ther</w> 34539
9 0</w> 34528
कौ न</w> 34525
dec ided</w> 34514
ए ँ</w> 34472
pa red</w> 34472
र ो</w> 34455
भू मि</w> 34452
आई पी 34435
बै ं 34433
दा य 34422
ज म् 34420
vel y</w> 34409
l ist</w> 34403
t on 34391
sit e</w> 34388
का त</w> 34379
co st</w> 34371
रे ल</w> 34371
करेंग े</w> 34371
श व</w> 34359
मि ला 34359
ख तर 34357
vie w 34323
r us 34319
त - 34310
ता ब</w> 34303
offic er</w> 34295
सी सी 34289
द ू</w> 34283
मंजू री</w> 34275
se ar 34266
कर ें।</w> 34252
du ce</w> 34252
ener gy</w> 34244
lik ely</w> 34239
3 5</w> 34232
रा शि</w> 34232
b and</w> 34229
tr ac 34165
ज रिए</w> 34163
संबंध ी</w> 34161
o t</w> 34144
म गर</w> 34130
gh t.</w> 34125
दा वा</w> 34108
धि कार 34106
l ong 34086
bi har</w> 34081
tic ul 34059
delhi ,</w> 34049
सफ ल</w> 34038
राज स्थान</w> 34015
toge ther</w> 33979
pric es</w> 33968
आ दि</w> 33962
आ र् 33951
ex pl 33944
c ar</w> 33942
m un 33940
whil e,</w> 33928
याद व</w> 33926
month s</w> 33918
har d</w> 33905
w ed 33898
st ep 33898
st re 33862
sch ed 33847
सल मान</w> 33841
फ्र ी 33821
mo v 33794
रू प 33792
क्षे त्र 33790
म र 33779
" the</w> 33771
a ut 33748
सूच ी</w> 33745
res ol 33737
प्र बंधन</w> 33734
तु लना</w> 33732
भ वि 33728
produc t 33723
pa ren 33721
bolly wood</w> 33714
सं सद</w> 33701
ga ve</w> 33690
नि त</w> 33684
jud g 33683
inte rest</w> 33666
f our 33644
ध िक</w> 33632
न् तु</w> 33624
b s</w> 33623
थी .</w> 33609
यो गी</w> 33591
india 's</w> 33535
201 5</w> 33524
उ दा 33518
3 2</w> 33507
ब ज 33506
वै श् 33496
सं सा 33489
cust om 33478
कर् ता</w> 33467
. """</w> 33464
स ला 33460
7 5</w> 33458
av ir 33455
ic s</w> 33446
ans w 33444
घोष ित</w> 33438
कि ल</w> 33426
bo w 33417
कि स</w> 33396
enc e.</w> 33395
e g 33361
तरी के</w> 33353
pol l 33348
k ing 33344
आरोप ियों</w> 33302
af ric 33272
कंप नियों</w> 33265
ec ti 33263
ar y,</w> 33256
ब् ल 33245
नेतृ त्व</w> 33245
ब ढ़</w> 33239
h ous 33236
अनु मति</w> 33236
फैस ले</w> 33234
resul ts</w> 33218
्रा ष् 33214
ते ज</w> 33198
पुरस् कार</w> 33187
d a</w> 33184
क्र े 33183
l an 33181
क्ष ता</w> 33180
re present 33172
की ,</w> 33170
comm er 33169
सा त</w> 33167
ad ditional</w> 33160
fo c 33149
cur rent</w> 33142
ा ई</w> 33131
देख ने</w> 33128
छ ह</w> 33124
don 't</w> 33122
ग ़ 33111
अच्छ े</w> 33078
सम् मेलन</w> 33076
le a 33073
coun cil</w> 33053
सदस् यों</w> 33044
आ खि 33012
k h</w> 32999
pres id 32992
सिं ह,</w> 32971
get ting</w> 32971
att ack</w> 32944
त य</w> 32943
नु क 32934
you .</w> 32930
गें दबा 32923
स प् 32921
ma x 32913
ज ता 32900
jehova h</w> 32883
rail way</w> 32863
च ों</w> 32861
mar ch</w> 32859
h ra</w> 32856
ऊ पर</w> 32835
effor ts</w> 32831
industr y</w> 32829
मू र् 32821
p ad 32818
छ ु 32813
फ ़</w> 32802
ग्र ह 32793
wh ol 32787
coron avir 32761
a v</w> 32741
2 9</w> 32740
car d</w> 32724
o di 32709
re comm 32704
ब ारिश</w> 32703
pro mis 32703
री ,</w> 32697
se par 32695
bl ack</w> 32674
g en 32650
ग ये</w> 32643
विश् ‍ 32638
रो क 32629
वि देशी</w> 32625
f ail 32603
res h</w> 32595
2 ,</w> 32587
inte re 32583
ro w</w> 32573
con di 32565
ंकि ,</w> 32543
व क्ता</w> 32541
offic ers</w> 32540
यू नि 32536
श ू 32524
proc ess 32522
f lo 32521
हर ण</w> 32519
ल कर</w> 32499
बे टे</w> 32494
j i</w> 32478
जा ए</w> 32471
दे व 32451
b all 32446
न )</w> 32437
जिन में</w> 32431
पो स्ट 32409
go o 32400
सीबी आई</w> 32386
s em 32382
manag ement</w> 32366
समे त</w> 32363
clo se</w> 32352
पी ड़ 32334
cabin et</w> 32323
स्वी कार</w> 32318
mean while,</w> 32315
tran spor 32307
आं क 32292
समु दा 32292
o bj 32291
टे ल</w> 32291
10 0 32290
se pt 32283
बढ़ा ने</w> 32266
enti al</w> 32265
r o</w> 32253
ne l</w> 32253
वैश् विक</w> 32250
struc ture</w> 32244
par ts</w> 32236
कर ी</w> 32232
ते ल</w> 32195
c k 32191
इ तिहा 32184
ब ने</w> 32163
ं भ</w> 32152
n or</w> 32132
ca use</w> 32127
रह ते</w> 32120
enc e,</w> 32102
stand ing</w> 32089
ne ar</w> 32082
c ra 32068
ed ly</w> 32065
अनु सं 32034
प्रा थ 32019
4 5</w> 31995
सड़ क</w> 31982
विध ा</w> 31955
tel l</w> 31950
अंतर राष्ट्रीय</w> 31935
pr ac 31904
क मा 31903
ति ,</w> 31902
n ad 31896
ब द्ध</w> 31872
इ ंग् 31856
possi ble</w> 31849
द् वि 31848
jes us</w> 31826
stat ement</w> 31824
s elec 31816
k r 31805
et ,</w> 31800
st ar</w> 31794
fi c</w> 31787
koh li</w> 31782
न वा 31775
याचि का</w> 31769
and ,</w> 31754
उन को</w> 31754
capac ity</w> 31740
di sp 31714
लॉन् च</w> 31712
पर् क</w> 31699
2 7 31688
vir at</w> 31686
ati ves</w> 31682
आवे दन</w> 31676
लिख ा</w> 31664
प्रस्ता व</w> 31658
ad ded.</w> 31654
श् वर</w> 31654
j ay 31651
सर् व 31650
म र् 31635
government .</w> 31631
bu y</w> 31628
in .</w> 31617
हु ई।</w> 31614
dec la 31612
हाला ंकि,</w> 31612
रि श् 31600
आ न 31591
मू ल 31585
em er 31584
f li 31546
प ड़ा</w> 31541
c are</w> 31530
succ ess 31520
mad hya</w> 31507
बेह द</w> 31503
वा सी</w> 31496
d ol 31489
tra de</w> 31485
syst em 31482
poin ted</w> 31472
s l 31451
emplo y 31448
e 	yes</w> 31397
inf ra 31397
प सं 31393
ni ght</w> 31390
mode l</w> 31379
अधि नियम</w> 31378
leg is 31376
अ हम 31372
करा ने</w> 31368
r an</w> 31359
ज नों</w> 31356
o - 31355
pro g 31345
मा ण 31339
व क्त</w> 31335
श क्ति</w> 31324
ci vil</w> 31324
क त</w> 31322
wha t 31322
ला ,</w> 31316
आ दि 31311
अंतर ्राष् 31310
tam il</w> 31309
लग े</w> 31301
आवश्य क</w> 31279
ar s</w> 31274
oc to 31272
nec ess 31272
mi ght</w> 31249
कर ें 31246
ट्र ंप</w> 31236
cam pa 31235
ले ं</w> 31227
program me</w> 31227
includ ed</w> 31225
विरा ट</w> 31224
yo g 31213
ad vis 31208
परिष द</w> 31208
res our 31205
प्र ार 31196
f ast</w> 31181
ad ,</w> 31178
for man 31170
diffe ren 31167
मुला कात</w> 31164
( c 31157
क ट 31148
a )</w> 31138
ध र 31137
प् प 31134
or ity</w> 31133
cong res 31130
’ ’</w> 31116
भु ग 31112
e f</w> 31110
रख ते</w> 31106
अ थ 31096
लगा ने</w> 31088
a di 31087
ha ir</w> 31083
जै सी</w> 31078
bec ame</w> 31078
भवि ष्य</w> 31075
रो ज 31065
le vel 31052
play ing</w> 31052
लि मि 31038
ud e</w> 31023
यी शु</w> 31017
str ong</w> 31005
a p</w> 30992
p ay</w> 30989
,   30976
पा लन</w> 30974
gu id 30972
z ed</w> 30969
2 - 30955
शा दी</w> 30948
ध े</w> 30947
ल )</w> 30934
r s.</w> 30911
नी चे</w> 30898
per forman 30887
ई मान</w> 30882
जै सा</w> 30876
pi ec 30876
stor age</w> 30868
स हम 30832
प्रशा सन</w> 30830
लक्ष ्य</w> 30823
hist or 30804
prades h,</w> 30795
ation al</w> 30774
( i 30772
ग्रामी ण</w> 30755
lo st</w> 30750
ए ंड</w> 30744
मौजू दा</w> 30733
s '</w> 30725
नुक सान</w> 30722
anc es</w> 30711
t arg 30704
cap tain</w> 30701
t om 30697
इन कार</w> 30691
ब ह</w> 30685
बदला व</w> 30685
कल् प</w> 30682
ब धा 30679
m id 30668
pl es</w> 30659
वाय ु</w> 30655
su mm 30650
ब े</w> 30639
पहु ँ 30634
परिणा म</w> 30626
ठ ि 30620
r id 30617
नि ष् 30606
कें द्र 30599
वा ह 30588
प्रभा व</w> 30587
सु विधा</w> 30581
smar t 30573
ac tive</w> 30572
8 0 30569
कर्ना टक</w> 30562
re ve 30558
वर्ष ों</w> 30554
स् टी 30548
ड़ ने</w> 30537
st u 30506
हाद से</w> 30470
सी रीज</w> 30467
c up</w> 30451
n c 30444
रा ब</w> 30444
फ़ ि 30438
gir l</w> 30432
स न् 30428
produc tion</w> 30428
अ नेक</w> 30425
ले ख</w> 30410
कर ो</w> 30398
alleg ed</w> 30381
cent ur 30371
प ्या 30348
de st 30342
o l</w> 30341
तार ी 30336
उस में</w> 30335
com b 30330
म सी 30326
le .</w> 30317
scre en</w> 30311
विश्व विद्यालय</w> 30299
plas tic</w> 30295
म् प 30291
क प</w> 30281
you th</w> 30275
मूल् य</w> 30270
as k</w> 30266
ques tion</w> 30266
pp ed</w> 30265
उप स्थित</w> 30261
leg al</w> 30247
fiel d</w> 30237
संबो धित</w> 30196
enc es</w> 30180
व्या पार</w> 30177
ch ris 30176
sc ri 30173
abo ve</w> 30166
अं तर्गत</w> 30161
bu il 30159
par ticul 30157
क्र ा 30156
reg ard 30153
he re.</w> 30143
201 6 30143
v e.</w> 30133
sh are</w> 30131
cele br 30131
al ed</w> 30116
ट र् 30107
ला न</w> 30101
2 9 30074
र ही 30070
क थ 30068
add ed</w> 30057
ch ild</w> 30015
ef ul</w> 30012
" i</w> 30011
that .</w> 30010
न ंबर</w> 30009
chris ti 30008
gra ph 29982
le ast</w> 29981
सं भावना</w> 29978
previ ous</w> 29978
es s.</w> 29962
ri l</w> 29956
go d 29947
गया ,</w> 29943
अ फ्री 29931
कर े</w> 29920
मा ंग 29917
ec tion</w> 29915
g n 29898
charg ing</w> 29892
mo bil 29887
टी वी</w> 29887
जान ते</w> 29878
bo x 29838
ह ार् 29814
स्‍ था 29807
सी )</w> 29806
रि त</w> 29804
need s</w> 29794
th er,</w> 29785
m e.</w> 29779
acti vi 29759
se qu 29742
लिख ित</w> 29737
in au 29729
acc us 29726
h d 29717
requ i 29710
6 0 29701
k ind</w> 29678
शा न 29676
w an</w> 29673
धर् म</w> 29671
st er 29662
्य ों</w> 29660
हो कर</w> 29660
शी र्ष</w> 29657
र् च</w> 29649
जु ड़े</w> 29636
it h</w> 29633
h ur 29627
n on- 29621
to day.</w> 29609
ह रा</w> 29596
happ y</w> 29592
no thing</w> 29589
ब नी</w> 29580
ना इ 29567
train ing</w> 29562
बे टी</w> 29558
je e</w> 29550
व ् 29547
p and 29538
j ab 29537
uni ver 29529
जम् मू 29520
ag ain</w> 29502
त त् 29497
जे ल</w> 29485
accoun t</w> 29485
dep uty</w> 29482
mar k</w> 29480
bang lad 29463
di t</w> 29459
ए ड 29455
pow er 29454
पा या</w> 29443
औ र 29431
मुद् दे</w> 29425
proj ects</w> 29409
e )</w> 29405
रह े।</w> 29400
भा व</w> 29398
19 7 29387
ग्र े 29379
di d 29377
complain t</w> 29373
ex ist 29365
म्म ू</w> 29364
anc e,</w> 29362
on es</w> 29361
प् ले 29355
say ing</w> 29355
कृ ष् 29352
च लते</w> 29346
you ,</w> 29335
r ural</w> 29334
न्याया धी 29333
मो बाइ 29327
ip l</w> 29320
n ation</w> 29312
way .</w> 29309
con fir 29308
movi e</w> 29300
leng th</w> 29299
मु स् 29287
3 5 29280
se ven</w> 29277
श ों</w> 29273
re duc 29263
सं विधान</w> 29259
ज म्मू</w> 29256
त ू</w> 29245
peopl e.</w> 29243
op p 29238
t ro 29229
co ver 29216
norm al</w> 29199
rel ation 29193
spor ts</w> 29188
जिन् होंने</w> 29186
to p 29164
ग्रह ण</w> 29163
प्र वेश</w> 29158
wit ness 29152
m oun 29142
ल - 29127
क हीं</w> 29121
यु वा</w> 29116
दूसर ा</w> 29115
िय र</w> 29112
wh om</w> 29102
अनुसं धान</w> 29099
ch ing</w> 29089
cap ital</w> 29087
कॉ ले 29077
lit tle</w> 29069
नियंत्र ण</w> 29060
वि धि</w> 29057
hal f</w> 29048
भे ज</w> 29047
feat ures</w> 29045
d ail 29039
आ ती</w> 29035
loc k 29033
ar ri 29023
is ,</w> 29022
in fl 29017
vi vo</w> 29004
emplo ye 28992
poin t</w> 28986
trum p</w> 28981
योग दान</w> 28977
इला ज</w> 28976
आ इ 28972
से ,</w> 28960
सम् मान</w> 28959
ex ec 28958
कि सान</w> 28952
कैम रा</w> 28950
ar .</w> 28930
समस् या</w> 28924
3 , 28923
वित् तीय</w> 28922
build ing</w> 28913
कर् ताओं</w> 28900
on line</w> 28898
cour se</w> 28889
t s,</w> 28883
s 	 28877
or .</w> 28876
बिज ली</w> 28872
for ces</w> 28866
अधि क 28848
ni fic 28847
ब च 28843
po se</w> 28832
फ ्रा 28828
s ?</w> 28826
pl an</w> 28818
ठ ी</w> 28808
ro r</w> 28787
व्य क्त</w> 28784
भ ्र 28776
tion s,</w> 28760
rus si 28758
diff ic 28749
ख बर</w> 28747
government s</w> 28728
mater ial</w> 28715
"" "" 28704
म्म द</w> 28683
2 .</w> 28672
खिला ड़ी</w> 28672
तै य 28671
work ers</w> 28651
वेब साइट</w> 28641
व हन</w> 28639
ter ,</w> 28622
ल यों</w> 28591
compan ies</w> 28591
होंग े</w> 28588
ज र 28585
c anc 28581
ब ढ़ 28560
सं भा 28552
il i 28544
sk in</w> 28535
ma ,</w> 28527
en ci 28523
rec ently</w> 28519
अर ब</w> 28506
सं घ 28491
p ac 28489
डा य 28487
in side</w> 28485
क् ट</w> 28484
youn g</w> 28477
उत् ‍ 28461
पु रु 28458
अ ग्र 28447
is ra 28425
b lo 28422
स रा 28411
आ वा 28404
3 00</w> 28401
un to</w> 28387
बढ़ा वा</w> 28373
करे गा</w> 28365
mo ther</w> 28360
gand hi 28358
सं पर्क</w> 28352
amoun t</w> 28347
r ing</w> 28338
j an</w> 28336
प्रका श</w> 28326
मा इ 28323
pass eng 28318
rajas than</w> 28308
ग री 28303
ap ril</w> 28301
l a</w> 28299
नही ं,</w> 28290
स त्र</w> 28280
indi vid 28277
लो क</w> 28275
मान व</w> 28270
do es 28265
शी ल</w> 28248
and hra</w> 28239
केन् द्रीय</w> 28239
म र</w> 28205
नागरि क</w> 28205
gal ax 28205
घ ु 28198
ac tu 28193
र वि 28188
द रा 28169
स् ते</w> 28168
po t 28165
a war 28162
स् मार्ट 28153
मोबाइ ल</w> 28139
tic s</w> 28129
यु द्ध</w> 28107
delhi :</w> 28090
म ध्य 28087
su sp 28080
de fin 28076
s ri</w> 28073
su bj 28071
or i 28069
pro vision 28068
att ack 28066
res id 28060
द् य</w> 28035
or ig 28032
ज़ रू 28027
el ,</w> 28020
hind i</w> 28018
chair man</w> 28018
प्र िय 28014
जिस ने</w> 28000
in come</w> 27996
re main</w> 27986
छो टे</w> 27983
appl y</w> 27979
आ स 27978
ti me,</w> 27977
ज ,</w> 27964
ma h 27955
पु रा 27942
hospit al.</w> 27934
शां ति</w> 27924
करा र</w> 27921
सुन वाई</w> 27921
पाकि स्ता 27913
वै ज्ञा 27912
join t</w> 27910
शु ल् 27906
अ ली</w> 27897
अध्य यन</w> 27893
उद्दे श्य</w> 27888
h or 27886
y al</w> 27884
मार् च</w> 27877
चा लन</w> 27860
blu et 27849
f av 27838
फाइन ल</w> 27830
child ren 27818
भुग तान</w> 27815
st e</w> 27800
स्व य 27800
जम्मू - 27798
boo k 27797
jun e</w> 27790
कर्म चार 27786
in n 27785
सुर क्षित</w> 27783
ari es</w> 27773
au g 27769
ar d.</w> 27768
ट ें</w> 27767
as sa 27767
म् स</w> 27765
claim ed</w> 27735
requ ired</w> 27731
r s. 27714
ac y</w> 27713
सु विधा 27684
larg est</w> 27681
achi ev 27667
पूर् ति</w> 27653
val u 27641
गठ बंधन</w> 27632
australi a</w> 27623
decla red</w> 27622
त् म</w> 27619
be h 27615
b all</w> 27606
speak ing</w> 27599
dec ember</w> 27591
4 , 27590
सा फ</w> 27589
detail s</w> 27584
दो ष 27568
a h</w> 27559
5 - 27553
3 7 27544
मे गा 27539
भे जा</w> 27537
me t</w> 27535
g s</w> 27526
प्र स्तु 27512
शान दार</w> 27512
releas e</w> 27511
जरू री</w> 27487
beng al</w> 27484
त ें</w> 27483
c ate 27468
p ec 27466
ing s.</w> 27458
इतिहा स</w> 27455
ac t,</w> 27442
बा व 27434
k ol 27430
galax y</w> 27428
v i</w> 27423
सं भव</w> 27406
ब जे</w> 27398
li ght 27393
ं का</w> 27391
bo tt 27380
on e.</w> 27348
s 	yes</w> 27346
दि ल</w> 27331
car ri 27327
मिल कर</w> 27322
मुकाब ले</w> 27307
j ap 27305
th ous 27305
b it 27299
g as</w> 27296
दि सं 27285
त्र ियों</w> 27284
कल ्या 27282
ti t 27272
पहु ंचा 27272
सि टी</w> 27270
sci ence</w> 27268
sp ace</w> 27243
acc ep 27243
spo kes 27229
ou ra 27213
र ु</w> 27202
अ क्ष 27198
yad av</w> 27197
के रल</w> 27193
प ौ 27187
anc e.</w> 27176
expres sed</w> 27171
रोज गार</w> 27165
प त्र 27164
cre ated</w> 27152
िया ई</w> 27151
increas ed</w> 27150
cel l 27143
c o</w> 27135
polic e.</w> 27133
कार ा 27129
di seas 27118
ए )</w> 27111
parliam ent</w> 27101
त )</w> 27100
instit ute</w> 27093
सार ,</w> 27089
वि मान</w> 27082
च् ‍ 27082
िया ँ</w> 27074
नी ,</w> 27074
fe br 27073
मृ त्य 27070
उदा हरण</w> 27061
pl an 27060
co operation</w> 27059
comm on</w> 27058
जिन् हें</w> 27031
फ ू 27019
परिवर्त न</w> 27007
t - 27006
f all 27006
टि व</w> 27006
प्रशि क्षण</w> 26990
po int 26963
न त</w> 26949
com peti 26944
identi fied</w> 26915
su st 26893
occasion .</w> 26891
ऑ न 26867
p ain 26849
" we</w> 26849
स्थ ल</w> 26845
( 1 26842
whe re 26830
ल ू</w> 26811
pre v 26808
च ारों</w> 26805
fr id 26786
अभि नेता</w> 26785
t wit 26781
invest ment</w> 26780
s le 26774
mic ro 26765
b and 26762
p ack</w> 26762
fil m 26760
य द</w> 26756
artic le</w> 26755
tu res</w> 26749
em ent.</w> 26744
ट् टी</w> 26744
र म</w> 26739
अं क</w> 26737
दे ंग 26727
sig nific 26716
आ धिकार 26714
laun ch</w> 26704
ल ें 26703
रो हित</w> 26703
अ हम</w> 26685
गया .</w> 26679
फ र् 26662
क् शन</w> 26652
प ारी</w> 26643
" "</w> 26642
त ियां</w> 26640
सु बह</w> 26640
e x</w> 26638
sci enti 26636
वास्त व</w> 26636
साथ - 26632
op position</w> 26630
र ता</w> 26623
f are</w> 26616
eng l 26609
त मिल 26607
पी ठ</w> 26606
बा ंग् 26605
att ended</w> 26598
w on 26593
ना ड 26591
gar h</w> 26584
b ad</w> 26581
in jur 26580
it ation</w> 26579
t es</w> 26577
k ha 26561
च ू 26558
add ress</w> 26558
बज ट</w> 26551
च ला</w> 26542
अप ील</w> 26539
p ast</w> 26532
वि जय</w> 26518
सके ।</w> 26517
par ties</w> 26510
बधा ई</w> 26505
ush ed</w> 26504
int ro 26502
able .</w> 26499
at ,</w> 26495
रो क</w> 26489
nov ember</w> 26483
fi ght</w> 26462
मुस् लि 26445
str ate 26436
applic ation</w> 26430
जी एस 26424
a red</w> 26419
ऑ स्ट्रेलिया</w> 26412
विध े 26406
शो क</w> 26402
star s</w> 26389
pres s</w> 26386
pe ace</w> 26374
k id 26373
pl at 26367
bes ides</w> 26367
मा ं</w> 26362
व ,</w> 26355
inau gur 26353
st ation</w> 26345
द्र ा</w> 26345
गी .</w> 26345
ने ट 26338
nat ural</w> 26337
हि मा 26314
e ast</w> 26305
आधिकार िक</w> 26298
पसं द</w> 26286
des cri 26283
सी एम</w> 26278
बाद ,</w> 26264
ली न</w> 26258
घ रेल 26253
ag ed</w> 26248
इंग् लैंड</w> 26247
मा ने</w> 26242
coronavir us</w> 26239
ch en 26233
सं स्थान</w> 26231
ch .</w> 26229
and ro 26222
अध ीन</w> 26214
ज स्टि 26197
य े 26197
खि ल</w> 26191
ac tiv 26189
wh ite</w> 26175
ra ,</w> 26173
di es 26155
conduc ted</w> 26149
मो हन</w> 26144
इ का 26133
पि क् 26125
बाव जू 26112
स ारे</w> 26106
ch ,</w> 26102
?	y es,</w> 26100
सा क्ष 26097
in nov 26092
go ds</w> 26091
मि शन</w> 26064
d en</w> 26056
hy der 26023
ear ly</w> 26020
	 it</w> 26008
इला के</w> 26005
च ,</w> 25998
fil e</w> 25994
progra mm 25992
सम र् 25990
यू रो 25989
देश ,</w> 25985
g ang 25975
प्र धान</w> 25970
धा नी</w> 25969
cer tain</w> 25962
him ,</w> 25960
रि ली 25957
प्र वक्ता</w> 25941
sel ves</w> 25934
.. .. 25925
क्र िया 25918
ex ter 25911
कर्मचार ियों</w> 25908
wor d</w> 25901
मै न</w> 25886
b ill</w> 25879
re al</w> 25875
ac qu 25875
f esti 25864
4 8</w> 25864
4 .</w> 25860
ev ent</w> 25858
y 's</w> 25853
क ब् 25833
as ,</w> 25833
त्र ता</w> 25824
ट रों</w> 25818
daugh ter</w> 25818
sal man</w> 25817
th er.</w> 25816
ा ओं</w> 25815
भ वन</w> 25815
एन सी 25800
हू ँ</w> 25790
pa id</w> 25782
a i</w> 25770
m r 25761
पत् ति</w> 25750
loc ated</w> 25748
eu ro 25743
in - 25742
st oc 25742
f it 25734
ह ार 25714
घरेल ू</w> 25702
क्रि य</w> 25699
regi on</w> 25686
लि ंग</w> 25683
pun jab 25675
सप् ता 25664
mo del 25663
pl ann 25659
i ve</w> 25658
साथ- साथ</w> 25642
गा ँ 25640
जन रल</w> 25628
श कों</w> 25618
buil t</w> 25612
pro of 25610
को ल 25607
हम ला</w> 25606
उ च्च 25604
ब ारी</w> 25600
some thing</w> 25597
ter m</w> 25592
- -</w> 25546
इस् ला 25542
इ लेक् 25532
ju ly</w> 25524
us h</w> 25513
19 6 25506
direc tor 25504
साझ ा</w> 25493
ro hit</w> 25477
थी ं।</w> 25476
ion s</w> 25462
र ब</w> 25454
श क् 25454
ं दा</w> 25453
घा टन</w> 25446
sept ember</w> 25441
कर वा 25439
छो ड़</w> 25433
लिमि टेड</w> 25423
conferen ce</w> 25412
बाइ बल</w> 25410
नि भा 25409
मत दान</w> 25409
शा सन</w> 25406
ati c</w> 25383
सि क</w> 25383
ज मा</w> 25379
बी र</w> 25373
गु ण 25371
प् ‍ 25370
s ound</w> 25369
loc k</w> 25368
समुदा य</w> 25366
form ed</w> 25363
ur ban</w> 25355
pr as 25344
de ep 25338
ने ,</w> 25316
man i 25314
ag e,</w> 25283
प न्न</w> 25281
हा ई 25270
w ro 25251
उन्‍ होंने</w> 25250
e vid 25248
mo ve</w> 25236
मे ह 25234
दि ग् 25227
c at 25224
connec tion</w> 25219
न् स</w> 25218
al s.</w> 25217
minist er,</w> 25209
per cent</w> 25207
से )</w> 25200
वा ओं</w> 25196
अभि ने 25195
धार ण</w> 25192
ं ट 25189
भ ग 25189
di sa 25187
cer tain 25183
ble m</w> 25181
v e,</w> 25177
am ,</w> 25175
बन ने</w> 25175
resp ect</w> 25170
मे डि 25161
fut ure</w> 25161
govern or</w> 25159
क ड़ी</w> 25158
सूच ित</w> 25157
pro blem</w> 25150
अथ वा</w> 25137
ent s.</w> 25128
lo d 25124
eng ine 25122
ste p</w> 25108
आ ए 25107
bj p 25088
ख ों</w> 25082
सम झ</w> 25074
बांग् ला 25070
m m</w> 25068
आ उ 25066
कार ्या 25059
हिं सा</w> 25058
अंतर्राष् ट्रीय</w> 25057
fe el</w> 25045
ation s,</w> 25038
k at 25003
beh ind</w> 24989
s mo 24983
रि ंग</w> 24983
न न</w> 24979
अनु सार,</w> 24963
re j 24959
s n 24957
ju di 24951
ले ,</w> 24942
whol e</w> 24935
tur n</w> 24931
गति विध 24929
gl ass</w> 24927
तर ण</w> 24919
k il 24913
का ,</w> 24905
रा इ 24893
el i 24891
a ver 24879
डि स् 24879
i ' 24856
is lam 24851
co p 24840
de b 24818
पुन र् 24804
st ated</w> 24803
फ ॉ 24784
ma d</w> 24784
worl d.</w> 24780
agricul ture</w> 24778
ear th</w> 24774
c up 24768
d ers</w> 24765
gi ving</w> 24764
m om 24751
परे शा 24751
octo ber</w> 24750
construc tion</w> 24749
tem per 24748
च य</w> 24744
सं देश</w> 24733
3 6</w> 24714
spe ed</w> 24711
हा लत</w> 24710
un ti 24708
4 ,</w> 24696
de red</w> 24696
commun ity</w> 24695
d har 24694
क्रम ण</w> 24694
ap art</w> 24691
4 00</w> 24689
u ,</w> 24682
jan uary</w> 24682
pl e 24674
le y</w> 24672
जम्मू- कश्मीर</w> 24671
स्मार्ट फोन</w> 24670
gg est</w> 24666
सू स</w> 24658
ं दर</w> 24657
रि कॉ 24654
नरे न्द्र</w> 24654
n ic 24653
प्रे स</w> 24643
pass ed</w> 24643
sh i</w> 24642
मौ सम</w> 24625
er c 24623
m y 24620
है दरा 24619
जस्टि स</w> 24619
हि रा 24615
tr y</w> 24605
pre ci 24602
ग य 24598
ला गत</w> 24596
aut om 24596
झ ू 24587
all y,</w> 24585
includ es</w> 24584
qu e</w> 24583
नि क 24580
सं जय</w> 24575
bas is</w> 24549
ज री 24546
अ त्य 24537
g ame</w> 24527
ग लत</w> 24516
अ लग 24510
निर् धारित</w> 24510
mo han</w> 24508
commun ic 24504
ऑन लाइन</w> 24503
न दी</w> 24502
v ind</w> 24494
म् ‍ 24489
5 ,</w> 24466
जी बी</w> 24464
ग न</w> 24451
बद ल</w> 24444
मोह म्मद</w> 24429
ड ,</w> 24427
झ ु 24420
अप्रै ल</w> 24405
त ियो 24401
म रा 24401
ब ित</w> 24400
्य ता</w> 24399
ad .</w> 24392
ad e</w> 24386
ता प 24381
e ast 24380
p as 24374
इंड ियन</w> 24374
वृ त् 24374
सफ लता</w> 24373
ses sion</w> 24373
su g 24368
खा स</w> 24357
knowled ge</w> 24356
गि राव 24351
m ir 24344
श ो</w> 24322
वि वाद</w> 24319
k al 24315
ग ल</w> 24312
म नी</w> 24303
व ही 24301
ह टा 24300
occas ion</w> 24298
i es.</w> 24297
ंड ी 24293
cre ate</w> 24293
ना य 24285
mon it 24270
ख त्म</w> 24267
हि न् 24264
bi har 24258
inde ed</w> 24255
karnatak a</w> 24247
कथ ित</w> 24247
व ें 24233
t v 24230
छा त्र</w> 24226
p c 24220
इ म 24210
chan di 24205
ं स 24203
करे गा।</w> 24201
जू न</w> 24197
रे ज</w> 24195
फ ॉर् 24188
तमिल नाड 24187
j ag 24176
sion .</w> 24173
cha mp 24170
कार ्यालय</w> 24158
म ारे</w> 24157
दे ह</w> 24157
w w 24126
low er</w> 24125
u re.</w> 24117
i th 24115
उद् घाटन</w> 24114
न्या य</w> 24103
ग ी,</w> 24098
कि ंग</w> 24085
सा य 24084
prin t</w> 24081
poin ts</w> 24077
ml a</w> 24077
comm and 24073
pur cha 24072
ph ys 24067
पा त</w> 24064
हिरा सत</w> 24062
w ill 24032
year .</w> 24028
exter nal</w> 24019
किलो मीटर</w> 24018
पर वर 24017
	y es.</w> 24004
le ag 23998
त् सा 23986
परवर दि 23986
ज ित</w> 23984
म ई</w> 23959
bec om 23958
su rely</w> 23951
, 99 23947
मा नित</w> 23925
in ,</w> 23914
an im 23914
con ven 23913
ad mitted</w> 23905
m r</w> 23903
खा द्य</w> 23892
m it</w> 23890
y - 23885
andro id</w> 23882
be d 23880
उ द्य 23878
वा ,</w> 23877
e ?</w> 23872
भ रो 23866
probl em 23866
maharash tra 23853
ज ॉ 23828
ac hal</w> 23823
person al</w> 23816
राज नीति</w> 23804
गु रु 23796
act ress</w> 23789
det er 23788
worl d 23783
दिखा ई</w> 23779
दी ,</w> 23778
स लाह</w> 23775
r ash 23773
rec ord</w> 23770
ex per 23759
inte gr 23758
ग िक</w> 23755
प्र चार</w> 23754
परवरदि गार</w> 23746
lead ing</w> 23745
form s</w> 23742
अनु भव</w> 23726
cott on</w> 23720
सा द</w> 23719
रा हत</w> 23715
स्ट र</w> 23712
पा न</w> 23707
g ol 23705
e ve</w> 23703
ल ग</w> 23698
ड़ ियों</w> 23694
प िक</w> 23691
निर् वा 23687
प्र थ 23685
मत लब</w> 23662
समी क्षा</w> 23661
1 .</w> 23655
तीसर े</w> 23653
k ul 23643
समा प्त</w> 23641
g ing</w> 23632
k ind 23628
201 3</w> 23626
छो ड़ 23621
ke ep 23620
वि चार 23604
परी क्षण</w> 23602
benef it</w> 23587
कु ल 23581
प ें 23561
क्र ो 23560
ut es</w> 23555
बा ल</w> 23547
sh a</w> 23541
distric ts</w> 23539
मुद् दों</w> 23539
com fort 23531
ध ियों</w> 23529
क्र ी</w> 23529
क् र</w> 23525
ऑ फि 23502
chen na 23502
5 5</w> 23499
ord in 23499
lim ited</w> 23494
सप्ता ह</w> 23494
att ac 23492
ह वाई</w> 23484
गै स</w> 23477
मह सूस</w> 23467
c y</w> 23464
दिल् ली 23462
publ ic 23457
stud y</w> 23455
आ ता</w> 23454
ent er 23453
स् थ</w> 23451
मु श् 23429
ड ब्ल 23428
अप ना 23419
जिस की</w> 23410
dail y</w> 23400
bud get</w> 23399
है :</w> 23398
कर नी</w> 23398
व्या पक</w> 23394
is .</w> 23386
tor y</w> 23384
iz ed</w> 23384
वा ही</w> 23381
प्रका श 23374
li ves</w> 23358
अ प</w> 23356
unti l</w> 23347
आप की</w> 23346
di stri 23344
remo ve</w> 23342
v a</w> 23340
t ex 23328
high est</w> 23326
distri bu 23321
san jay</w> 23320
sour ces</w> 23313
lif e.</w> 23310
न वी 23302
य म</w> 23301
i ally</w> 23281
delhi .</w> 23280
इ च्छ 23276
ri ghts</w> 23241
at ure</w> 23238
आं ध 23238
र दार</w> 23232
exc ept</w> 23231
सि स्ट 23229
win do 23225
a b</w> 23221
मंत्र ि 23216
कल्या ण</w> 23212
रु ख</w> 23210
rec ent</w> 23198
3 ,</w> 23197
जा म</w> 23196
w ash</w> 23194
allow ed</w> 23189
aug ust</w> 23189
ख र</w> 23188
अर्थ व्यवस्था</w> 23186
cour t.</w> 23181
स क्रिय</w> 23165
फो टो</w> 23161
et ed</w> 23155
कि ताब</w> 23150
अ ल</w> 23144
201 2</w> 23140
shi v</w> 23120
छ ि 23115
am end 23098
ड ्रा 23097
अध्य क्षता</w> 23092
fil m.</w> 23087
pri yan 23084
produc ts</w> 23079
उम्मीद वारों</w> 23078
a ward</w> 23073
reco vered</w> 23069
hind u</w> 23062
gr ound</w> 23047
tr ue</w> 23045
bel o 23039
के जरी 23031
well .</w> 23023
loo king</w> 23020
चाह े</w> 23017
ट्र ै 23014
si r</w> 23011
dr in 23007
raj ya</w> 23002
आ यु 23001
val ue</w> 23001
अलग - 22993
दौ र</w> 22985
ब र,</w> 22973
ar ing</w> 22972
as .</w> 22966
या नी</w> 22966
ं ख 22962
acc id 22960
cu t</w> 22953
प्या र</w> 22949
ex tre 22939
retur n</w> 22933
ra ised</w> 22927
ल् ‍ 22922
li g 22918
infra structure</w> 22912
ex erc 22909
contro l 22908
न तम</w> 22900
गिराव ट</w> 22894
भा गी 22888
शब् द</w> 22883
जन वरी</w> 22876
ह थ 22874
आ य</w> 22874
ह स्ता 22873
इस् ती 22866
6 5</w> 22862
ar ds</w> 22856
द ,</w> 22854
at ory</w> 22854
परियोज नाओं</w> 22852
\ \ 22838
es pec 22832
आ एंग 22827
सं दर् 22824
चिकित् सा</w> 22823
lo ad</w> 22821
go og 22818
team s</w> 22818
अ ंग्रे 22816
ru pe 22810
संशो धन</w> 22800
l t 22799
ु क</w> 22795
up coming</w> 22786
th ers</w> 22781
उत् तरा 22777
ta x 22774
व त</w> 22765
समा धान</w> 22756
ker ala</w> 22752
au di 22743
bhar at</w> 22743
ख ंड 22738
j ri 22731
wee k</w> 22722
1 - 22721
ban ks</w> 22721
bre ak 22719
गठ न</w> 22717
ख र्च</w> 22711
il ,</w> 22710
on al</w> 22709
मा ,</w> 22697
posi tive</w> 22696
बावजू द</w> 22694
त ना 22693
रहा ।</w> 22689
मूर् ति</w> 22687
ref er 22686
sched ul 22682
चं द्र 22680
डि ग्री</w> 22677
को ण</w> 22665
is ing</w> 22664
mat ter.</w> 22664
d av 22655
शा यद</w> 22654
eng land</w> 22650
क िया.</w> 22644
en jo 22636
आ ठ</w> 22628
plac es</w> 22627
a wa 22625
simil ar</w> 22621
sec tor 22615
candi date</w> 22600
हर ों</w> 22599
ste el</w> 22588
फ ल</w> 22580
प्रिय ंका</w> 22577
सो म 22569
s we 22564
nam ed</w> 22560
ट री</w> 22554
चाल क</w> 22554
en ou 22553
ap pointed</w> 22552
सेवा ओं</w> 22552
प्रो त्सा 22549
सू त्रों</w> 22548
तु र 22543
petro l</w> 22539
g ets</w> 22527
repor ts</w> 22511
max imum</w> 22506
complet e</w> 22505
अम री 22504
v in 22497
b order</w> 22495
वि स्ता 22495
con c 22488
डि जि 22485
treat ment</w> 22480
े गा।</w> 22478
म स् 22477
su sh 22457
lea ve</w> 22457
sear ch</w> 22437
a head</w> 22429
of ten</w> 22425
pur ,</w> 22422
ke jri 22421
dig ital</w> 22417
po or</w> 22415
d ru 22414
ou l 22414
medi a.</w> 22412
febr uary</w> 22406
en s 22404
milit ary</w> 22404
राज ा</w> 22397
regard ing</w> 22396
चुनौ ती</w> 22393
sup pl 22389
वी र</w> 22379
en h 22375
dies el</w> 22375
con dition</w> 22355
नि कों</w> 22345
t ol 22344
espec ially</w> 22344
th ur 22343
न् व 22343
es :</w> 22334
विस्ता र</w> 22329
n iti 22322
tak es</w> 22321
bi ble</w> 22321
अभिने त्री</w> 22318
oo th</w> 22308
शुल् क</w> 22282
स्था पना</w> 22278
रा य</w> 22275
सा बित</w> 22271
वा हन</w> 22249
पृ थ 22248
फ़ ा 22235
स्वय ं</w> 22229
ट ्यू 22226
छ ू 22220
c )</w> 22219
एजें सी</w> 22206
परि वहन</w> 22203
आतंक वाद</w> 22200
spo t.</w> 22197
प्रा व 22190
k m</w> 22181
इं त 22179
े द</w> 22177
al s,</w> 22175
kr ish 22161
l al</w> 22145
li qu 22135
s ac 22123
इ तना</w> 22119
मृत्य ु</w> 22118
ben ch</w> 22115
जि लों</w> 22106
चे न् 22096
u t</w> 22092
रे ट</w> 22086
र् ष 22067
bluet ooth</w> 22067
ha s 22065
ak h 22062
ंड ा</w> 22062
ti me 22060
न्यायाधी श</w> 22059
er jee</w> 22038
con sul 22038
pra y 22034
""" "</w> 22027
जु लाई</w> 22025
im p 22014
तो ,</w> 22014
necess ary</w> 22013
for ward</w> 22010
आद मी</w> 22005
गी त</w> 21998
en a</w> 21995
hu ge</w> 21988
o wn 21986
प्र ती 21986
lat est</w> 21942
us es</w> 21934
नही ं।</w> 21933
fo ot 21928
मि श्र 21927
follow ed</w> 21921
पिक् सल</w> 21917
ब लों</w> 21913
fe ar</w> 21913
के न्द्र</w> 21909
jud ge</w> 21907
अफ्री का</w> 21906
उप भो 21892
अं तरि 21883
शा ह 21878
च यन</w> 21874
c um 21868
at s</w> 21867
थ ि</w> 21865
er ship</w> 21856
मेडि कल</w> 21849
ह े</w> 21842
3 - 21841
बढ़ कर</w> 21838
n al 21835
ल् म</w> 21833
उ चित</w> 21825
n om 21815
सु झा 21815
exam in 21813
we i 21810
शा ंत</w> 21807
esti c</w> 21798
aff ected</w> 21796
केजरी वाल</w> 21796
ho pe</w> 21795
cor rup 21791
अ ब् 21783
पाकिस्ता नी</w> 21764
step s</w> 21762
वि रो 21758
मै चों</w> 21756
person nel</w> 21750
activi ties</w> 21749
i phone</w> 21746
man o 21736
b om 21731
श हरी</w> 21725
राज्य पाल</w> 21722
hist ory</w> 21720
शु क्र 21715
de ad</w> 21709
tr ying</w> 21709
बि क्री</w> 21702
ारि ज</w> 21691
च ारी</w> 21690
wor th</w> 21684
आ गा 21681
sur ve 21678
ser ved</w> 21673
pati ents</w> 21673
प्र गति</w> 21669
phon es</w> 21663
ि ता</w> 21659
d re 21655
provid ing</w> 21650
कारो बार</w> 21648
बात ें</w> 21645
t able</w> 21637
char ac 21636
भी तर</w> 21635
exec u 21631
पर्य टन</w> 21630
पु ष्टि</w> 21629
न ग 21627
p ut 21619
schedul ed</w> 21618
खु शी</w> 21612
r ushed</w> 21609
व ्‍य 21589
pro pos 21586
हे तु</w> 21579
न ती 21578
पद क</w> 21576
mar y</w> 21574
charg er</w> 21574
g one</w> 21572
नागरि कों</w> 21566
suppor ts</w> 21563
अ रु 21560
de vice</w> 21550
b att 21548
rang e</w> 21548
जा ति</w> 21545
an al 21544
a 's</w> 21543
2 )</w> 21543
रह ता</w> 21534
ce re 21530
do m</w> 21526
ध ार् 21516
ment al</w> 21516
soci ety</w> 21512
हा इ 21510
develop ed</w> 21507
नि ंग</w> 21505
3 3</w> 21504
तै ना 21497
ad em 21496
sig ned</w> 21493
gi ves</w> 21489
ठ ो 21488
मा नों</w> 21485
म नु 21480
स्टा र</w> 21474
f all</w> 21473
मि ले</w> 21473
dri ver</w> 21473
डी जल</w> 21468
अलग- अलग</w> 21467
( p 21457
स् त्र</w> 21453
इ यों</w> 21452
लग ी</w> 21449
priyan ka</w> 21437
rail ways</w> 21435
ड ्यू 21433
wi f 21427
smar t</w> 21427
ार् थ</w> 21426
नेट वर् 21419
pe ac 21411
intro duc 21405
ली टर</w> 21393
h r 21391
राज धानी</w> 21382
एक - 21382
cri min 21377
produc ed</w> 21374
ab or 21369
नि पट 21368
न ॉ 21364
पा ने</w> 21360
टि प्प 21359
perf ect</w> 21350
dem o 21345
प थ</w> 21343
jehova hs</w> 21343
न् त</w> 21336
le ,</w> 21326
संबंध ों</w> 21321
मुस्लि म</w> 21321
दी न</w> 21319
श्री लं 21315
बु निया 21306
reas on</w> 21301
qu ali 21294
mak es</w> 21282
सि ंग</w> 21263
w is 21255
कोल का 21251
orig in 21247
स ारी</w> 21245
7 0 21242
सु ना 21242
he ight</w> 21228
g er</w> 21227
fac e 21227
( ऐ</w> 21212
end s</w> 21207
col our 21205
हु ए।</w> 21198
langu age</w> 21195
प्रथ म</w> 21195
प टेल</w> 21181
ति गत</w> 21181
str ong 21181
ch e 21169
ei ght</w> 21169
c le</w> 21163
performan ce</w> 21156
ज ्य 21151
dis play</w> 21150
19 5 21145
wel fare</w> 21144
प्राथ मि 21137
वा णि 21133
स्व तं 21131
प्रतिनि धि 21130
accus ed.</w> 21130
सा हि 21126
हू ँ 21114
av o 21111
ट्र ॉ 21109
तला श</w> 21109
author ity</w> 21108
घं टे</w> 21106
dem and</w> 21105
अपरा ध</w> 21087
sen a</w> 21081
अधि निय 21073
पा य 21068
him self</w> 21060
दर् शन</w> 21058
ले ते</w> 21049
स् तर 21043
wh ose</w> 21039
ap p</w> 21039
ter rit 21039
रा र</w> 21038
ट ली</w> 21027
fi x 21023
ir y</w> 21007
musli m</w> 21007
क ़</w> 21005
दौ रे</w> 21005
प्रा धि 20986
अनु मान</w> 20984
4 2</w> 20980
मान ना</w> 20979
er y</w> 20974
con sum 20972
बि ल् 20961
सि द्ध</w> 20958
out side</w> 20958
res .</w> 20957
ap p 20957
ग्रा ह 20957
कॉ न् 20946
उ ड़ा 20938
te sting</w> 20935
ट् वि 20929
पूर् वी</w> 20920
s c</w> 20915
दिसं बर</w> 20915
नही ं 20912
religi ous</w> 20912
k ur 20908
ब राम 20907
de al</w> 20891
et h</w> 20889
व ती</w> 20884
all - 20883
क्र मों</w> 20878
dom estic</w> 20878
li ving</w> 20876
ंद गी</w> 20870
शरी र</w> 20870
at or</w> 20864
men tioned</w> 20860
करो ड़</w> 20848
शिव सेना</w> 20846
bu tt 20845
परि जनों</w> 20843
b ach 20841
re ach</w> 20841
anti - 20840
at .</w> 20834
f ru 20831
l u 20830
प ड़ 20830
qu ite</w> 20828
अ स 20813
kum ar,</w> 20813
opp o</w> 20809
र ंग</w> 20800
द ारों</w> 20799
gh t,</w> 20799
अक् टू 20796
प्रस्तु त</w> 20796
k am 20792
transpor t</w> 20785
वही ं,</w> 20782
ch op 20774
अं त</w> 20773
ट ने</w> 20766
work .</w> 20766
थ े 20765
ter ms</w> 20762
( एन 20761
गाँ व</w> 20761
3 .</w> 20754
paren ts</w> 20754
pro of</w> 20752
ब ,</w> 20744
s ati 20738
play ers</w> 20735
c able</w> 20733
पर ,</w> 20731
4 - 20730
hear t</w> 20730
हैदरा बाद</w> 20730
शु भ 20729
ख ारिज</w> 20725
्य ू</w> 20720
sa y,</w> 20718
man ,</w> 20718
बल्लेबा ज</w> 20717
गुण व 20717
b it</w> 20713
अफ गा 20703
fol low</w> 20698
d h 20690
he re 20687
f ing 20686
ृ ंख 20681
mo tor 20680
स ीय</w> 20669
l er</w> 20656
े श</w> 20656
vi a</w> 20654
al so 20650
हु ई 20648
year s.</w> 20646
4 8 20645
direc t</w> 20644
employ ment</w> 20644
बांग्ला देश</w> 20642
t ata</w> 20636
जान ता</w> 20629
? "</w> 20628
y our 20620
cle an</w> 20618
नि धन</w> 20617
ंक न</w> 20616
राज ्‍य</w> 20615
व की 20607
web site</w> 20606
द ार 20604
por ts</w> 20601
धर ती</w> 20598
स च्च 20592
चा ई</w> 20592
कॉले ज</w> 20592
l uc 20587
su per</w> 20577
? ?	no</w> 20573
we st 20567
नव ंबर</w> 20566
मै दान</w> 20563
वि शि 20561
नि वे 20552
ष् ठ 20545
en tion</w> 20544
n it 20542
as su 20536
colleg e</w> 20535
lo g 20534
मॉ डल</w> 20522
ए यर</w> 20504
ला ना</w> 20495
ज हा 20482
t ed.</w> 20481
शा सित</w> 20481
enci es</w> 20474
ra in</w> 20473
से ल् 20471
स ब् 20464
आंध ्र</w> 20457
बराम द</w> 20456
ण् ड</w> 20451
an 's</w> 20447
tra in</w> 20443
shor t</w> 20439
cong rat 20438
lo ss</w> 20430
पेट्रो ल</w> 20425
seri ous</w> 20422
5 .</w> 20420
च ले</w> 20414
4 7</w> 20413
tra ff 20411
chin ese</w> 20405
fic ation</w> 20399
त े।</w> 20391
ad d</w> 20386
dou ble</w> 20386
न ो</w> 20383
s - 20376
b )</w> 20368
sp read</w> 20363
ra p 20351
9 9</w> 20350
beg an</w> 20349
सहा यक</w> 20342
पहुंच ी</w> 20336
j har 20329
citiz en 20323
d hon 20322
च ी</w> 20320
com pared</w> 20316
under stand</w> 20316
pun ish 20315
घा य 20311
रसू ल</w> 20305
संर क्षण</w> 20300
समस् या 20300
6 - 20295
dr .</w> 20290
har d 20266
ac adem 20264
me g 20259
w ide</w> 20255
we ar</w> 20255
associ ation</w> 20246
e m</w> 20245
part ner 20242
पक्ष ीय</w> 20240
ष् ‍ 20239
anc ed</w> 20234
plac ed</w> 20231
si x 20225
des p 20225
i - 20224
enc oura 20222
जाए ।</w> 20213
fre ed 20213
u g 20208
congrat ul 20202
आतं की</w> 20197
constitu tion</w> 20197
sto p</w> 20197
administ ration</w> 20196
f ab 20190
टि स</w> 20190
विधे यक</w> 20189
gam es</w> 20187
1 50</w> 20182
ती स 20170
निय र</w> 20169
झ ार 20166
th us</w> 20154
ह रे</w> 20152
set t 20151
पा ठ 20144
तुर ंत</w> 20143
ad it 20141
स त 20134
नि म् 20133
u re 20127
सं के 20124
उस को</w> 20119
ques tions</w> 20118
ent er</w> 20117
t end 20113
म ती</w> 20113
रा व</w> 20105
inst all 20104
सि फ 20094
cul tural</w> 20084
let ter</w> 20081
आ पूर्ति</w> 20079
smart phone</w> 20075
च ंडी 20072
st af 20071
fun d</w> 20070
j a</w> 20067
to day,</w> 20064
आ ते</w> 20061
probl ems</w> 20059
commission er</w> 20058
भरो सा</w> 20057
de dic 20055
	y es 20052
saf ety</w> 20047
mess age</w> 20044
लि खा 20043
crick et 20035
goog le</w> 20027
so f 20025
tu es 20025
स )</w> 20022
प्र श् 20022
att emp 20014
सी टें</w> 20013
every one</w> 20010
3 4</w> 20008
peopl e,</w> 20003
स ॉ 19997
ष् टि 19993
scri p 19991
l ay 19988
गौ र 19982
क )</w> 19974
फर वरी</w> 19972
" ,</w> 19971
संदर् भ</w> 19970
sat ur 19967
रिली ज</w> 19962
pro be</w> 19952
sup ply</w> 19940
li st 19939
corpor ation</w> 19938
ze al 19933
t on</w> 19927
al most</w> 19924
wan ted</w> 19922
एस पी</w> 19917
( m 19914
b ill 19906
जिन के</w> 19906
ex am</w> 19904
mem or 19902
b b 19894
ar ch 19894
year - 19892
श्रे ष्ठ</w> 19892
min imum</w> 19890
al ity</w> 19889
न ारा 19886
डिजि टल</w> 19882
6 4</w> 19879
मुता बि 19878
respon se</w> 19871
द् वी 19865
s anc 19863
ए ंड 19860
वो ट</w> 19852
म ियों</w> 19846
mater i 19845
द्धा ं 19845
year ,</w> 19841
cl ass 19839
स्वा गत</w> 19838
5 , 19835
हा ई</w> 19831
prof es 19830
फ र</w> 19829
प्र साद</w> 19829
institu tions</w> 19828
आत् म 19822
spe ec 19818
ra d 19816
v es.</w> 19815
टे न</w> 19807
क्षेत्र ीय</w> 19806
3 70</w> 19803
स के</w> 19799
commit ted</w> 19797
any thing</w> 19797
मा त्र</w> 19785
shar ma,</w> 19784
sa w</w> 19780
शि प</w> 19777
राज नाथ</w> 19776
तुम्ह ारी</w> 19775
st y 19765
th i 19757
a im 19755
दे कर</w> 19755
अ सर</w> 19752
मे ल</w> 19744
संसा धन</w> 19730
आ धु 19729
gh an 19722
अग स्त</w> 19722
ci ties</w> 19720
में )</w> 19719
foc us</w> 19714
cere mon 19712
pakist ani</w> 19709
ei ther</w> 19705
co - 19704
st ay</w> 19703
प्र तियो 19703
क्ष र</w> 19695
ri ver</w> 19692
द स्ता 19685
le av 19684
प्रभा वी</w> 19683
ag ency</w> 19680
अं दर</w> 19673
nor th 19673
fi f 19671
ed s</w> 19654
्र ो 19653
रिकॉ र्ड</w> 19653
b .</w> 19647
ची नी</w> 19640
कौ शल</w> 19639
वि कल्प</w> 19631
कर ,</w> 19630
स क्ष 19629
इला कों</w> 19627
ू ं 19621
consid ered</w> 19621
day s.</w> 19614
ra k 19605
ड़ ी</w> 19600
appro ved</w> 19598
pre mi 19596
ज़ ा 19594
k ap 19581
म तों</w> 19580
हि र</w> 19576
च्छ ेद</w> 19576
pic ture</w> 19569
us b</w> 19562
sil ver</w> 19562
बा की</w> 19540
निग म</w> 19538
म ज 19531
निश् चय</w> 19520
de vic 19511
cre dit</w> 19504
एश िया</w> 19503
तमिलनाड ु</w> 19501
w ise</w> 19498
निर् यात</w> 19495
thur s 19492
con st 19490
?	 it</w> 19486
स् वर् 19483
sho wn</w> 19480
that ,</w> 19479
घ न</w> 19477
न ि</w> 19476
se x 19471
हाला त</w> 19469
दे व</w> 19461
hus band</w> 19460
mur der</w> 19456
6 ,</w> 19453
sol di 19450
ट्र ि 19443
bi g 19442
pap er</w> 19439
प्र देश,</w> 19429
फिल् मों</w> 19418
mess eng 19414
ती नों</w> 19405
at ed.</w> 19389
c lim 19387
reg ard</w> 19386
चाहि ए.</w> 19381
modi ,</w> 19375
8 ,</w> 19367
g st</w> 19365
स क</w> 19360
हा न</w> 19359
ची ज़</w> 19357
bri ti 19355
vic tim 19352
ने वाले</w> 19349
स जा</w> 19347
d a 19344
प्रया सों</w> 19344
es s,</w> 19343
join ed</w> 19343
मा त्रा</w> 19333
ad ha 19329
fo re,</w> 19320
विधा य 19319
कानू नी</w> 19315
reg ard.</w> 19312
et c.</w> 19307
record ed</w> 19305
raj nath</w> 19301
या त्रियों</w> 19298
प्रा कृतिक</w> 19291
f ir</w> 19287
wed nes 19285
ing s,</w> 19284
col or</w> 19281
छ त् 19270
comp ati 19269
in sur 19263
tran sp 19261
tra vel 19260
जाएंग े।</w> 19260
सं वे 19254
the re.</w> 19253
chang es</w> 19245
citiz ens</w> 19245
का लीन</w> 19239
present ed</w> 19226
कु मार 19224
to o.</w> 19219
parliam ent 19216
ser ve</w> 19205
n ir 19180
धार् मिक</w> 19178
रह ती</w> 19172
inst ag 19165
in ste 19160
3 7</w> 19156
acc ess</w> 19149
ement ,</w> 19146
hear ing</w> 19145
श िय 19144
tu re,</w> 19134
ne arly</w> 19133
व ्य</w> 19127
ला ए</w> 19125
that s</w> 19124
u su 19123
दू री</w> 19123
et er 19117
industri al</w> 19116
in a</w> 19113
9 .</w> 19112
contain s</w> 19111
लो ड</w> 19110
lap top</w> 19108
निग रानी</w> 19106
दा ताओं</w> 19105
को र</w> 19104
श न 19101
प्रे म</w> 19098
as p 19097
vehic les</w> 19097
रि ए 19096
bro ther</w> 19095
4 4</w> 19094
पं चा 19094
p es</w> 19087
सं चार</w> 19086
v il 19083
वा सियों</w> 19073
nation s</w> 19068
सक्ष म</w> 19068
jhar kh 19066
th ou</w> 19064
protec tion</w> 19064
सित ंबर</w> 19057
ए न</w> 19054
स्था नों</w> 19049
योग ्य</w> 19047
desp ite</w> 19046
m ig 19045
pha se</w> 19040
ar rang 19039
जिम्मे दारी</w> 19036
ब ्रे 19028
पर्या वरण</w> 19028
demo cr 19024
al o 19023
ब ल 19021
चिं ता</w> 19017
de fe 19012
employe es</w> 19009
आ का 19008
to wn</w> 19005
doc um 19002
addres sing</w> 18992
lod ged</w> 18988
di v 18981
श हरों</w> 18979
मार्ट म</w> 18979
ताप मान</w> 18978
off er</w> 18976
meas ures</w> 18976
आ सान</w> 18975
रि क</w> 18972
ना ।</w> 18968
sho o 18959
ham mad</w> 18958
जीएस टी</w> 18956
घाय लों</w> 18949
10 . 18948
रिय र</w> 18942
at eral</w> 18938
( आई 18937
shi v 18925
ई मान 18921
mar ks</w> 18916
हाई कोर्ट</w> 18916
त् तर</w> 18915
बि ल</w> 18915
m l</w> 18910
बना ई</w> 18910
बा तों</w> 18909
ध्य क्ष</w> 18909
भा र</w> 18907
इं जी 18906
कह ने</w> 18905
20 21</w> 18904
गतिविध ियों</w> 18899
se at</w> 18896
econom y</w> 18893
cl u 18885
पूछ ता 18880
mu kh 18870
जन् म</w> 18870
द य</w> 18865
प् ला 18865
स्टे शन</w> 18864
experi ence</w> 18858
निय मों</w> 18857
meet ing.</w> 18857
रोक ने</w> 18856
रू स</w> 18854
दस्ता वे 18854
201 1</w> 18850
b ar</w> 18844
आप का</w> 18840
staf f</w> 18837
अर् थ</w> 18836
gre en</w> 18834
engl ish</w> 18833
स्वतं त्रता</w> 18829
school s</w> 18824
g up 18817
छा त्र 18817
vi jay</w> 18813
car ry</w> 18807
सर् वो 18807
न क</w> 18803
खरी द</w> 18803
वि जे 18790
su ic 18785
ex cell 18775
ri c</w> 18771
ch em 18770
उप चार</w> 18770
भार त- 18767
hu man 18749
तकनी की</w> 18746
घ रों</w> 18740
मेगा पिक्सल</w> 18740
w ing</w> 18737
immedi ately</w> 18736
7 ,</w> 18723
वि स्त 18717
mus ic</w> 18713
व ं 18709
ष ित</w> 18706
स पा</w> 18704
बैं कों</w> 18701
invol ved</w> 18700
k ept</w> 18692
ent ed</w> 18688
gir ls</w> 18686
हिं दू</w> 18685
ार्थ ियों</w> 18682
ap preci 18680
( सी 18678
दौ रा</w> 18670
ंग ,</w> 18668
	no ,</w> 18668
हो नी</w> 18662
के शन</w> 18662
l ic 18644
ad op 18630
द गी</w> 18629
ह ौ 18618
bo dies</w> 18616
छत् तीस 18616
पो स्ट</w> 18613
4 3</w> 18606
ख राब</w> 18604
on ic</w> 18594
f u 18577
wor ked</w> 18576
रख ी</w> 18576
आं दो 18576
happ ened</w> 18569
न ये</w> 18568
मौ का</w> 18566
o p</w> 18565
sou ght</w> 18563
तस्वी र</w> 18561
fi gh 18559
महा न</w> 18558
क ियों</w> 18557
प वि 18553
पह ल</w> 18553
prog ress</w> 18546
ti l 18543
answ er</w> 18535
eff ect</w> 18531
ban k 18527
प ण</w> 18524
prades h.</w> 18520
com pu 18513
ज़ ्यादा</w> 18510
पूछता छ</w> 18500
स ृ 18499
ऋ ण</w> 18499
लै ंड 18499
न क 18493
ष् टा 18490
जन क</w> 18484
4 9</w> 18482
सोम वार</w> 18482
जवा न</w> 18478
pan cha 18476
क् वा 18475
ठ हरा 18473
द म</w> 18466
टे ली 18464
ann ual</w> 18463
अनु च्छेद</w> 18462
ृंख ला</w> 18462
electr ic 18453
americ an</w> 18453
दू र 18450
वायर ल</w> 18448
nei gh 18445
व हाँ</w> 18439
समझौ ता</w> 18437
campa ign</w> 18437
ar i</w> 18431
re view</w> 18427
त ह 18424
मु कद 18421
पै से</w> 18415
आई )</w> 18414
opportun ity</w> 18414
क ठि 18413
nag ar</w> 18411
ख ्या 18399
इं जन</w> 18397
ल िय 18388
ne y</w> 18388
pl e,</w> 18382
अनु रोध</w> 18381
ख् त</w> 18375
बरा बर</w> 18375
min d</w> 18374
a j</w> 18372
आ श् 18372
स् ता</w> 18368
in qu 18362
o s 18349
क् स 18348
' .</w> 18340
व स्तु 18338
wor ds</w> 18337
बुनिया दी</w> 18335
पोस्ट मार्टम</w> 18334
responsi bility</w> 18330
sub - 18329
मंत्र ियों</w> 18322
द्यो गिक</w> 18322
es h 18316
ढा ंच 18314
3 8</w> 18312
न यी</w> 18306
प्र शं 18305
l ate</w> 18303
banglad esh</w> 18297
का न</w> 18283
इन के</w> 18279
h und 18277
स्वा मी</w> 18274
चुना वों</w> 18272
संस् कृति</w> 18269
र द् 18261
ver sion</w> 18261
ज र्स</w> 18258
ग ो</w> 18258
सां स् 18255
bel ong 18252
viol ence</w> 18252
inter nal</w> 18248
de plo 18240
a - 18239
government ,</w> 18234
दा ता</w> 18231
b ir</w> 18226
g ni 18223
so ft</w> 18216
अ सम</w> 18212
us eful</w> 18212
व ि</w> 18211
am az 18211
gr an 18211
ch r 18209
पा ई</w> 18209
t ar 18208
ण न</w> 18202
र ख</w> 18199
reli ef</w> 18198
पर्या प्त</w> 18192
am a</w> 18189
साझ े 18184
घट ना 18182
पा क</w> 18181
doc tors</w> 18168
सहम ति</w> 18167
re ment</w> 18163
प्रे रित</w> 18161
अप े 18158
e . 18152
enou gh</w> 18150
सं देह</w> 18139
प ल</w> 18138
sh op 18129
ig ned</w> 18126
पु र,</w> 18122
popul ation</w> 18121
गा ना</w> 18117
af ghan 18110
सै न्य</w> 18104
au ti 18103
ती श</w> 18100
not 	 18096
east ern</w> 18095
ब जा 18094
कार्य ों</w> 18093
खु ला 18093
ex change</w> 18087
an il</w> 18079
नियु क्त</w> 18074
transp a 18074
मं गल 18071
प्रति क्रिया</w> 18071
तुम्ह ारा</w> 18071
3 8 18055
sa ve</w> 18051
बा न</w> 18048
मुकाब ला</w> 18047
ड ु 18042
कि रदार</w> 18042
दे ती</w> 18040
न ज़ 18037
found ation</w> 18037
indi c 18036
conn ected</w> 18034
ड ू</w> 18032
श र 18022
ा ,</w> 18021
दा यर</w> 18021
implement ation</w> 18015
निय मित</w> 18010
utt ar 18008
लंब े</w> 18008
के न्‍ 18005
हु ए,</w> 18002
भे ज 17999
9 0 17992
tiv ity</w> 17989
मुताबि क,</w> 17982
ic c</w> 17979
suppor ted</w> 17972
tur ing</w> 17971
दि ख 17967
sen s 17963
eff ective</w> 17961
न ता</w> 17960
) :</w> 17957
hand ,</w> 17957
regi onal</w> 17956
समझौ ते</w> 17946
' '</w> 17939
मिल ियन</w> 17938
सरा ह 17938
पा ंड 17937
resp ecti 17936
अनि ल</w> 17932
mun ic 17930
op ening</w> 17925
विद ्या 17915
ज ारों</w> 17911
शु रू 17909
comfort able</w> 17904
सा ह 17903
बा ं 17899
- 20</w> 17895
sa fe</w> 17893
1 st</w> 17889
agre ement</w> 17889
आई टी</w> 17887
oth er 17874
reve aled</w> 17872
fa ith</w> 17869
popul ar</w> 17866
h en 17861
we red</w> 17861
सं क्रमण</w> 17859
स न 17854
,0 00 17853
cust od 17848
l en 17843
औ द्योगिक</w> 17841
olog ical</w> 17839
ma h</w> 17838
n ers</w> 17834
rel ations</w> 17834
y mp 17823
आ जा 17822
के श</w> 17819
ble .</w> 17819
आतंक वादी</w> 17816
( r 17814
prin cip 17809
res ,</w> 17808
ी ज</w> 17807
ak sha 17796
tal k</w> 17792
wh o 17786
carri ed</w> 17784
ro om</w> 17783
hand s</w> 17766
मृ त 17762
pro posed</w> 17760
pre par 17756
राष्‍ ट्रीय</w> 17750
ति हासि 17749
four th</w> 17749
tic es</w> 17748
डे टा</w> 17748
ऑ परे 17744
e dition</w> 17743
f al 17742
cont ain</w> 17740
वैज्ञा निक</w> 17740
bas e</w> 17738
environ ment</w> 17735
हो गा.</w> 17731
ंकि ंग</w> 17730
afghan ist 17716
खु श</w> 17715
k en</w> 17713
n d</w> 17712
श्रीलं का</w> 17712
countr y,</w> 17710
क - 17707
ध ् 17707
जा ग 17705
बता या,</w> 17704
पर न्तु</w> 17702
ज म 17700
elec tri 17696
वन डे</w> 17693
tur ned</w> 17692
संस्था नों</w> 17690
lit er 17683
ब ों</w> 17677
हिमा चल</w> 17670
exam ination</w> 17669
वे स्ट 17667
उम् र</w> 17662
करे गी।</w> 17656
wr ong 17650
रसू ल)</w> 17647
क ने 17646
v an</w> 17644
cr is 17640
regul ar</w> 17640
ch hat 17639
great er</w> 17633
साम ग्री</w> 17629
प्रतियो गि 17627
आ कर् 17624
p in 17622
र ंग 17619
मिल ता</w> 17619
author ities</w> 17618
कोलका ता</w> 17615
spir it 17609
fe et</w> 17604
e ed 17602
( पी 17602
od i</w> 17600
अ ड् 17595
ख़ ि 17595
o k 17592
pro t 17589
201 0</w> 17587
bro ad 17583
सि द्ध 17582
w all 17580
प्र ार्थ 17574
टा टा</w> 17568
समा चार</w> 17566
भग वान</w> 17560
or ing</w> 17558
स् पी 17558
legis l 17551
sh an 17548
बढ़ ा</w> 17542
st ory</w> 17537
कर ा</w> 17527
ज़ ा</w> 17527
tru th</w> 17524
व्यक् तियों</w> 17524
उल् लं 17522
bu s</w> 17519
n e</w> 17518
प ड़</w> 17514
ho t</w> 17514
al d</w> 17513
आन ंद</w> 17512
फ रार</w> 17511
महा मारी</w> 17502
see king</w> 17502
sec ond 17499
e e</w> 17496
निर् भर</w> 17478
शा ली</w> 17471
शा म</w> 17470
pol ls</w> 17468
m ec 17462
administ ra 17445
को ,</w> 17443
लगा ए</w> 17443
मा ल 17437
रख ना</w> 17434
म् ब 17433
कारा त्मक</w> 17433
अक्ष य</w> 17432
पहुंच े</w> 17431
कहा नी</w> 17428
h u</w> 17420
sup port 17413
फ् ट</w> 17411
वा ई 17409
au ght</w> 17403
मुश् किल</w> 17400
6 4 17395
iti es.</w> 17395
kh an,</w> 17389
नेटवर् क</w> 17387
्य ु 17385
से ट</w> 17384
लि का</w> 17374
alli ance</w> 17370
6 , 17369
run ning</w> 17366
aver age</w> 17364
ou t.</w> 17361
investig ating</w> 17361
briti sh</w> 17360
ter ror</w> 17358
9 ,</w> 17354
द स</w> 17353
bil ateral</w> 17353
b a</w> 17347
th s</w> 17347
वि शा 17345
un it</w> 17342
boo ks</w> 17342
न म</w> 17339
relation ship</w> 17339
b our 17336
प्रि य</w> 17334
bl ue</w> 17326
wick ets</w> 17326
pancha y 17326
tri b 17323
bir th</w> 17323
tel ang 17319
c ,</w> 17308
ml as</w> 17306
blo od</w> 17303
तिहासि क</w> 17302
f er</w> 17292
ko re 17289
pro test</w> 17288
f le 17285
डि ंग</w> 17284
dest ro 17284
म )</w> 17283
lit re</w> 17281
सांस् कृतिक</w> 17279
tour ism</w> 17272
fil ms</w> 17271
kejri wal</w> 17269
की .</w> 17262
gra du 17261
air cra 17260
स् क्र 17257
ब ्या 17255
con cl 17254
तरि त</w> 17248
कू ल</w> 17247
पूर् वो 17240
सं पत्ति</w> 17238
ब्रि टेन</w> 17236
सं कट</w> 17234
ट्वि टर</w> 17232
di vid 17230
in ed</w> 17227
eas y</w> 17227
them selves</w> 17219
वि ंद</w> 17218
p rec 17214
शुभ काम 17212
अफगा नि 17205
pras ad</w> 17204
म शी 17201
अध ्या 17198
x i 17183
judi cial</w> 17179
वाद ियों</w> 17173
diffic ult</w> 17171
वा इ 17164
si m</w> 17151
speak er</w> 17150
te st 17139
indi ans</w> 17128
c b 17121
mark et 17120
el .</w> 17118
राज्य सभा</w> 17112
डाय रे 17107
उ प</w> 17104
स् पर् 17098
बा नी</w> 17098
मु क्त</w> 17095
्या दा 17094
व नी</w> 17085
पृथ ् 17081
ग ढ़ 17080
chhat tis 17072
श ही 17067
स्व तंत्र</w> 17067
को च</w> 17064
आ शा</w> 17063
secret ary,</w> 17062
मजब ू 17059
उच्च तम</w> 17059
sc en 17055
recei ve</w> 17052
w all</w> 17049
re pl 17047
गु प् 17043
डि जा 17043
मंत्रि मंडल</w> 17043
year- old</w> 17039
हिं दी</w> 17034
मुख र्जी</w> 17027
ग ,</w> 17026
exist ing</w> 17025
स त्ता</w> 17024
प् ति</w> 17021
ent s,</w> 17019
say :</w> 17017
शुक्र वार</w> 17013
me h 17011
al low</w> 17010
st ers</w> 17008
organ ised</w> 17001
ed :</w> 16996
hou se 16981
प्रकाश ित</w> 16980
य ं 16964
दे वी</w> 16962
ट्रे स</w> 16959
श्र म</w> 16957
sho t</w> 16952
कर्म चारी</w> 16951
mov ement</w> 16950
r ise</w> 16949
medi um</w> 16945
र् ना 16936
f em 16933
बे शक</w> 16933
आगा मी</w> 16928
s ir 16926
सं सद 16926
जा पान</w> 16920
fac ing</w> 16918
े गा</w> 16916
tal ks</w> 16911
पं जी 16910
now ,</w> 16910
sco red</w> 16909
jo b</w> 16906
compati ble</w> 16903
भा गों</w> 16901
famil ies</w> 16899
any one</w> 16897
आ लो 16890
संवे द 16886
यु वाओं</w> 16871
चेन् नई</w> 16863
स्टो रेज</w> 16859
दि ल 16858
बी एस 16852
op en 16851
year s,</w> 16848
ल ी।</w> 16847
re ven 16847
फाय दा</w> 16847
ह फ् 16833
re duce</w> 16833
धो नी</w> 16832
cri tic 16826
up .</w> 16824
bil lion</w> 16822
रो ल</w> 16821
द िया.</w> 16815
खा ते</w> 16815
dec eas 16814
there fore,</w> 16813
म री 16812
पू ं 16810
पार् ट 16801
an - 16796
ध ू 16792
क़ ा 16792
पुरु ष</w> 16792
जाए गी</w> 16791
assist ance</w> 16789
त् कार</w> 16788
ं गा 16783
minist er 16781
de e 16780
डब्ल ्यू 16778
func tion</w> 16775
दोष ी</w> 16774
m ac 16773
काउ ंट</w> 16771
profes sion 16771
9 5</w> 16770
tific ation</w> 16766
उत्पा द</w> 16764
( d 16762
तैना त</w> 16752
f ,</w> 16747
रद् द</w> 16745
d y</w> 16742
deter min 16741
थ ि 16739
shi ps</w> 16739
सो च 16738
्‍ या 16738
stoc k</w> 16728
वि ल</w> 16720
ट ु 16718
re ti 16718
it a</w> 16718
यूनि वर् 16717
पर ं 16714
द ियों</w> 16713
पर माण 16713
nei ther</w> 16710
मि न 16709
g ro 16707
मिले गा।</w> 16703
उ र् 16696
th ak 16686
जा कर</w> 16683
द लों</w> 16678
8 gb</w> 16677
ma ha 16675
स िय 16660
दबा व</w> 16656
कह ता</w> 16650
stat us</w> 16650
net work</w> 16641
स्था यी</w> 16635
स् पि 16634
दृ ष्टि 16634
de vo 16633
hous es</w> 16629
र ें</w> 16624
tr ust</w> 16621
ऐ तिहासिक</w> 16620
u gg 16618
th ar 16614
wha te 16609
इ रा 16607
qu o 16607
संगठ नों</w> 16605
क ला</w> 16599
enc ed</w> 16597
bab y</w> 16589
b cc 16587
दि क</w> 16587
फो टो 16585
w ad 16581
जु र् 16575
ण े</w> 16574
' ' 16572
po co</w> 16571
सर कारों</w> 16568
beng al 16566
ach ing</w> 16565
sen d</w> 16563
p m 16555
b ac 16550
m ou 16548
हो गा,</w> 16548
th ing.</w> 16547
spokes person</w> 16547
v ent 16545
ज त</w> 16535
i )</w> 16534
ज हाँ</w> 16530
ह स्त 16530
ें ,</w> 16528
l ess 16524
खा ने</w> 16524
tu re 16524
inter net</w> 16524
provision s</w> 16524
hand ed</w> 16518
भाष ण</w> 16517
ह ल</w> 16509
f ed 16508
el l</w> 16505
gi c</w> 16501
पूर् वक</w> 16499
योज नाओं</w> 16499
bu ild</w> 16497
infl u 16496
g ard 16490
on e,</w> 16487
ते लं 16483
ba g</w> 16480
म ण</w> 16479
खु दा</w> 16479
न्यू जी 16473
y et.</w> 16467
अ ना 16467
स च</w> 16464
s ent 16461
ra di 16461
i ka</w> 16457
आ वास</w> 16456
provid es</w> 16456
tour nam 16455
' re</w> 16450
3 9</w> 16449
establ ish 16447
m ut 16445
चौ ध 16445
आ ग्रह</w> 16428
ri ght 16425
x el</w> 16424
pri mary</w> 16422
दे र</w> 16421
ज मीन</w> 16420
जर् मनी</w> 16416
ख ी</w> 16411
th en,</w> 16411
प्र सार 16411
issu e.</w> 16402
कार ,</w> 16400
त ्</w> 16399
ful .</w> 16398
festi val</w> 16398
प ल 16388
go od 16387
an ci 16378
sho ws</w> 16373
earli er,</w> 16373
( b 16369
ne g 16369
whate ver</w> 16368
w il 16366
ल ियों</w> 16366
ृ त</w> 16365
वार् ष 16363
tri ed</w> 16357
पश् चा 16355
br id 16352
off ered</w> 16350
acc ident</w> 16350
w ants</w> 16346
गै र- 16343
त ारी</w> 16341
म ला</w> 16341
नि कल</w> 16339
confir med</w> 16339
5 1</w> 16333
k g 16329
अधिनिय म,</w> 16327
टे क् 16321
independ ent</w> 16319
प ों</w> 16318
फ ार् 16305
निपट ने</w> 16298
te l</w> 16297
r ound</w> 16296
सं चालन</w> 16292
आखि री</w> 16291
c e.</w> 16288
बचा व</w> 16288
impro ve</w> 16286
prot ect</w> 16280
phon e 16278
ट्र ी</w> 16269
cate gor 16269
so on.</w> 16267
charg es</w> 16266
ट्रे न</w> 16265
ol ymp 16259
राज ी 16257
ag ar</w> 16256
आउ ट</w> 16255
वकी ल</w> 16255
te ,</w> 16254
complet ed</w> 16253
क िया 16250
इस्ती फा</w> 16245
k i 16242
4 1</w> 16242
ha ir 16242
त् त</w> 16236
जु न</w> 16236
uttar ak 16229
ो ं,</w> 16227
ज्ञा त</w> 16227
separ ate</w> 16225
temper ature</w> 16225
( ए 16219
सो निया</w> 16217
श्र ृंखला</w> 16209
गई .</w> 16207
सं तु 16201
श ख् 16198
?? ?	 16196
काउ ं 16193
l ,</w> 16185
ट्र िक</w> 16181
techn ical</w> 16179
s a</w> 16173
) ।</w> 16172
mid d 16170
cle an 16169
गें द</w> 16168
ent al</w> 16165
न्‍ य</w> 16164
ध ों</w> 16163
er ation</w> 16157
crimin al</w> 16157
ज ्य</w> 16154
cas t</w> 16153
सला ह 16149
freed om</w> 16149
al - 16147
ें ज</w> 16147
soci et 16146
प ड़े</w> 16140
ब ेंग 16136
i es,</w> 16128
j as 16128
in struc 16125
ची फ</w> 16123
r ates</w> 16119
w ish</w> 16115
consid er</w> 16111
ज्ञा पन</w> 16110
and s</w> 16097
at i</w> 16091
ियो ं,</w> 16091
reco gni 16091
an ni 16089
co de</w> 16086
jour nal 16085
तारी ख</w> 16082
स् ती</w> 16080
tic k 16072
स ्रो 16071
ou ght</w> 16071
फ्र ें 16071
him achal</w> 16070
उल्लं घन</w> 16066
ext ended</w> 16060
चाह ती</w> 16056
सर्व श्रेष्ठ</w> 16052
पा द 16049
डा ल</w> 16048
आस पास</w> 16048
डा उन</w> 16047
सुझा व</w> 16046
विधाय कों</w> 16046
vehic le</w> 16045
बी सीसी 16043
bi ggest</w> 16043
de al 16042
succ ess</w> 16041
j it</w> 16039
न्‍ न</w> 16037
n .</w> 16036
अधि कां 16035
द्वि पक्षीय</w> 16021
अधिक तम</w> 16020
पश्चि मी</w> 16016
परमाण ु</w> 16015
bir th 16012
ke y 16008
ज्ञ ा</w> 16008
tw o- 16006
w ish 16001
pat el</w> 15997
सी धे</w> 15995
i a,</w> 15991
seas on</w> 15989
dis ci 15988
shi p 15986
fel t</w> 15982
ठ े</w> 15974
उत् तर 15972
ग ू 15971
दा खिल</w> 15966
लड़ ाई</w> 15965
pur pose</w> 15963
dou b 15960
प हा 15959
सिस्ट म</w> 15956
promo te</w> 15955
विशि ष्ट</w> 15955
pand em 15954
टि कट</w> 15952
imp act</w> 15950
व्यव हार</w> 15946
बु ध 15942
टू र्ना 15942
ar vind</w> 15941
टिप्प णी</w> 15940
लॉ क 15938
हस्ता क्षर</w> 15933
200 9</w> 15931
रे शन</w> 15930
con sist 15927
?? ?	yes</w> 15927
ha z 15924
na id 15919
pay ment</w> 15919
आंदो लन</w> 15917
वर् ती</w> 15916
establ ished</w> 15909
वर्ष ीय</w> 15908
भागी दारी</w> 15901
v an 15900
न्याय मूर्ति</w> 15895
ड्रा इ 15890
grou ps</w> 15887
ड् स</w> 15882
श नि 15879
r ound 15877
्यादा तर</w> 15875
इ जा 15869
fin e</w> 15866
g un 15861
d ry</w> 15859
पा ए</w> 15846
कप् ता 15844
ने स</w> 15839
fer red</w> 15839
continu ed</w> 15838
m c 15837
i' m</w> 15836
facil ities</w> 15835
tal king</w> 15828
actu ally</w> 15825
ca used</w> 15823
li fe 15819
go d.</w> 15818
lat er,</w> 15818
y u 15815
रु द्ध</w> 15812
श्रे णी</w> 15812
del eg 15809
c . 15807
parliament ary</w> 15807
son ia</w> 15804
sec tions</w> 15793
every thing</w> 15789
वर् धन</w> 15786
ं )</w> 15785
ल य,</w> 15782
ओ डि 15782
चा लित</w> 15777
h un 15776
thou ght</w> 15774
stud ent</w> 15769
स्व रूप</w> 15767
publ ished</w> 15765
आईपी एल</w> 15765
n an 15763
ओ वर</w> 15760
कर्म ियों</w> 15758
cap tain 15756
ड न</w> 15754
west ern</w> 15745
fac t</w> 15740
tra vel</w> 15737
gh te 15733
बी आई</w> 15733
than k</w> 15731
गुणव त्ता</w> 15722
अक् सर</w> 15716
co oper 15715
was ha 15715
es )</w> 15713
co v 15712
रह ना</w> 15706
स्टे ट</w> 15699
sour ce</w> 15699
yad av 15698
अन् तर्गत</w> 15695
ध र</w> 15694
इन् हें</w> 15692
streng th 15690
up to</w> 15684
sec u 15681
pres sure</w> 15680
s wit 15678
ले ना</w> 15678
कि न्तु</w> 15677
jo in</w> 15675
ल ख 15674
ब हा 15672
सम् मानित</w> 15671
belo w</w> 15670
pub g</w> 15666
मंगल वार</w> 15665
ज़ ी</w> 15658
थ ों</w> 15657
ab d 15651
ah med 15649
concer ned</w> 15647
s rin 15634
सौ ं 15628
al ay 15626
अ का 15625
h is 15624
proj ec 15620
च ढ़ 15619
a vi 15618
ल ती</w> 15617
al is 15615
न्यू नतम</w> 15615
ic ally</w> 15613
स वार</w> 15607
y ?</w> 15606
no tice</w> 15605
राजी व</w> 15605
( एस 15603
vol u 15603
es tim 15600
as ho 15599
ई रान</w> 15597
go es</w> 15597
li gh 15593
ता .</w> 15591
ग्र ु 15586
wat ch 15582
alleg edly</w> 15582
2019 :</w> 15582
t ation</w> 15578
passeng ers</w> 15578
दुर् घटना</w> 15577
ab sol 15574
at or 15571
सी ,</w> 15567
go d,</w> 15562
है या</w> 15561
चे यर 15554
set ting</w> 15554
pres ence</w> 15547
tr uc 15543
demand ed</w> 15543
mo ved</w> 15540
un its</w> 15539
ध न 15538
f low 15532
throu gh 15520
th r 15518
ord ers</w> 15512
traff ic</w> 15510
cul ture</w> 15509
बा दी</w> 15507
mod ern</w> 15506
ं टन</w> 15504
afric a</w> 15503
विरो धी</w> 15501
दर् शा 15499
de pos 15496
o d.</w> 15495
ब री</w> 15493
bcc i</w> 15487
कै ं 15485
princip al</w> 15483
friend s</w> 15482
signific ant</w> 15480
euro pe 15478
सराह ना</w> 15475
ह द</w> 15470
टी ,</w> 15469
5 2</w> 15465
म क 15460
te sted</w> 15458
lord ,</w> 15458
डॉ क् 15455
िया र</w> 15449
pho to</w> 15443
बि नेट</w> 15442
ion .</w> 15442
मं च</w> 15440
lin es</w> 15435
एन डी 15434
bo y 15430
success ful</w> 15428
ता - 15426
poli tic 15425
don ald</w> 15423
jan ata</w> 15422
प ि</w> 15419
रिए ंट</w> 15410
रही ।</w> 15407
श पथ</w> 15406
as ian</w> 15406
ला स</w> 15406
बं दी</w> 15406
sk ill 15402
shi p.</w> 15400
oth ers.</w> 15399
execu tive</w> 15399
i i</w> 15395
eng ine</w> 15393
मह त्व</w> 15391
pa ir</w> 15389
संस् करण</w> 15388
con ver 15387
sal e</w> 15381
यु वक</w> 15379
oper ations</w> 15378
ici ent</w> 15377
स ारा</w> 15376
र जि 15376
आरोप ों</w> 15376
elec ted</w> 15375
rajas th 15374
आधु निक</w> 15374
death s</w> 15372
st op 15365
तैय ारी</w> 15363
रा य 15362
pic tures</w> 15362
प् ले</w> 15357
रख ता</w> 15349
ति न</w> 15344
खिला ड़ियों</w> 15343
चे ता 15342
vis ited</w> 15341
p ure</w> 15336
छू ट</w> 15335
अधिकां श</w> 15334
बी मा</w> 15328
grow ing</w> 15328
ar rest</w> 15324
avo id</w> 15321
ट र्स</w> 15319
मू सा</w> 15319
जा नी</w> 15318
evid ence</w> 15318
conf id 15317
ज् ञ</w> 15314
ठा कु 15314
d ang 15313
अक्टू बर</w> 15313
b id 15312
हिस् से</w> 15306
की मतों</w> 15305
सी मा 15298
ट िक</w> 15297
sati s 15297
de g 15295
4 6</w> 15291
वाह नों</w> 15291
did nt</w> 15291
इस लिए,</w> 15290
प्र दू 15287
fund s</w> 15286
op tion</w> 15281
re st 15276
sion ,</w> 15272
chang ed</w> 15272
सम ृ 15271
we al 15266
main tain 15265
feat ure</w> 15265
कब् जे</w> 15265
rul es</w> 15264
न ही</w> 15259
s ach 15257
appro pri 15252
वा णी</w> 15250
नी ल</w> 15240
अ ंड 15236
re - 15236
ज मान 15232
भ ंड 15229
भ ौ 15225
वार्ष िक</w> 15224
v ac 15221
munic ip 15213
स्‍ व 15211
च ला 15209
spir it</w> 15206
पे श 15201
संसद ीय</w> 15200
ji o</w> 15199
ए ँ 15197
lo t 15195
मान व 15195
bor n</w> 15195
twe et 15195
सी मित</w> 15194
ल ियम</w> 15190
2 50</w> 15189
अ जय</w> 15189
ap i 15189
expres s</w> 15187
h our</w> 15181
does n't</w> 15181
पृथ् वी</w> 15181
दा स</w> 15180
बुध वार</w> 15178
3 6 15177
को य 15177
pro p 15172
सु धार 15170
bas ic</w> 15168
ो तरी</w> 15167
tou ch</w> 15166
refer red</w> 15166
am an</w> 15156
व रों</w> 15153
ro g 15153
con su 15141
i v</w> 15139
y es,</w> 15137
ter s.</w> 15130
देख ें</w> 15128
keep ing</w> 15126
स श 15125
स् त्र 15125
a il</w> 15124
r as 15121
लोक तंत्र</w> 15114
ने - 15109
su d 15108
proc ed 15106
vir al</w> 15105
m am 15101
sug ge 15100
p har 15094
संके त</w> 15090
ou d</w> 15088
ल् ला</w> 15088
ड् डी</w> 15084
टूर्ना मेंट</w> 15084
ra pe</w> 15079
jo h 15076
क ट् 15074
call s</w> 15073
tu re.</w> 15071
int en 15067
all ,</w> 15056
far .</w> 15053
3 2 15049
ti es.</w> 15049
नाय डू</w> 15049
cor rec 15048
pl ant</w> 15047
एक् ट्रेस</w> 15035
वि स् 15031
remain ed</w> 15026
certain ly</w> 15024
famil y.</w> 15023
fail ed</w> 15023
re public</w> 15021
200 8</w> 15016
cro re.</w> 15015
ha ,</w> 15013
प्रा इ 15011
p s 15010
ent ly,</w> 15008
9 , 15004
ना क</w> 15004
pl ans</w> 14996
con vic 14996
कि ,</w> 14994
इम रान</w> 14993
extre m 14993
' ,</w> 14990
(1 )</w> 14990
conduc t</w> 14989
ar ab 14988
need ed</w> 14988
कै बिनेट</w> 14985
clo sed</w> 14985
all .</w> 14980
ex ten 14978
y an</w> 14974
stat e,</w> 14970
s la 14968
alla h,</w> 14964
f resh</w> 14961
pr an 14960
अ के 14958
att end</w> 14958
भ्र ष्टा 14958
u ally</w> 14954
twit ter</w> 14953
st one</w> 14952
st - 14948
le d.</w> 14948
re pe 14944
तना व</w> 14943
अ शोक</w> 14939
k ash</w> 14938
नौ सेना</w> 14936
am i</w> 14934
ol o 14933
a :</w> 14929
univer sit 14928
फा ई</w> 14925
increas ing</w> 14924
ac tions</w> 14921
n on</w> 14920
सेवा एं</w> 14919
ac ting</w> 14918
bo ss</w> 14914
heal th 14909
यूरो प 14906
जु ड़ी</w> 14904
अला वा,</w> 14904
( the</w> 14903
नि र 14900
marri ed</w> 14900
मि ता 14898
अर विंद</w> 14894
अ तः</w> 14893
air port</w> 14893
ध नों</w> 14891
मा ता</w> 14891
su it</w> 14891
भ ट् 14890
सम क्ष</w> 14888
targ et</w> 14887
see k</w> 14885
d al 14882
सि विल</w> 14881
ध ्या</w> 14877
क न् 14876
spe ak</w> 14875
pa k</w> 14874
deg ree</w> 14871
br an 14867
सो च</w> 14858
ार ी 14856
ja it 14854
emer g 14853
centur y</w> 14852
प्रार्थ ना</w> 14851
ड र 14850
inste ad</w> 14844
उत् पन्न</w> 14843
mi x 14841
anni vers 14839
दृ ष्टि</w> 14834
ने पाल</w> 14830
pot ential</w> 14830
k ings</w> 14827
wom en 14824
happ en 14824
he ard</w> 14822
द ंड</w> 14821
7 , 14818
s war 14814
उ ंड 14810
शू टिंग</w> 14808
इंटर नेट</w> 14806
अर् था 14805
ड़ े</w> 14803
विद्य ु 14803
d s.</w> 14802
i ra 14800
ve er</w> 14800
कार्य क्रमों</w> 14797
al though</w> 14791
प्र ण 14789
con tr 14789
g ad 14782
ag ar 14781
b ho 14777
vo ice</w> 14777
cas h</w> 14772
den ied</w> 14772
re ar</w> 14766
नि रा 14766
ti m</w> 14765
प्र त्या 14764
पी )</w> 14763
prin ci 14756
ब ्यू 14755
न ौ</w> 14754
रै म</w> 14754
gov t</w> 14754
वा ं</w> 14752
निर्वा चन</w> 14750
म ल् 14744
जी तने</w> 14737
त :</w> 14736
with dra 14736
insur ance</w> 14734
न ज 14733
ad e 14728
p )</w> 14722
दा म</w> 14722
न्याय िक</w> 14722
us ion</w> 14721
बना ना</w> 14716
cour ts</w> 14707
terror ists</w> 14707
प्रति बंध</w> 14706
उल् लेख</w> 14700
thre e- 14699
sou th 14698
dav id</w> 14694
aksha y</w> 14693
in sp 14692
बद ला</w> 14690
leag ue</w> 14690
लंब ित</w> 14687
f ish 14685
ru kh</w> 14685
सि न् 14683
या त्री</w> 14681
coll abor 14676
hyder abad</w> 14676
ब त</w> 14675
पा स 14673
शि खर</w> 14673
ru le</w> 14672
d s,</w> 14671
झार खंड</w> 14665
aj ay</w> 14664
हिं दु 14662
इं स्टा 14661
पि का</w> 14659
रवि वार</w> 14655
co vered</w> 14652
v ed 14647
सो ने</w> 14646
12 . 14642
d in 14641
lear n</w> 14636
की )</w> 14629
wro te</w> 14628
न्यूजी लैंड</w> 14625
opportun ities</w> 14623
plann ing</w> 14623
शै क्ष 14621
कर् म</w> 14618
गो वा</w> 14614
आ म 14612
पू जा</w> 14609
सुर क्षा 14608
अफगानि स्तान</w> 14608
discus sed</w> 14601
polic e,</w> 14598
?	y es.</w> 14598
se d.</w> 14597
me th 14595
कार्य कर्ताओं</w> 14595
electri c</w> 14593
ार् ड</w> 14590
8 5</w> 14586
play er</w> 14585
अध ी 14584
hol ds</w> 14584
or dered</w> 14581
ध म 14579
स् त्री</w> 14578
mr .</w> 14578
उठा ए</w> 14569
शख् स</w> 14568
द िया,</w> 14566
व चन</w> 14565
des ign</w> 14565
संर चना</w> 14564
इंजी निय 14564
way ,</w> 14561
रै ली</w> 14555
जर िये</w> 14554
re d,</w> 14551
उ ठा</w> 14549
condi tions</w> 14549
n ,</w> 14547
वि तरण</w> 14546
sol ar</w> 14541
i :</w> 14532
ए शन</w> 14531
फ ंड</w> 14527
sto od</w> 14527
व्यक् तिगत</w> 14527
म ण् 14523
ex plo 14523
कार णों</w> 14520
f f</w> 14518
ड़ ा</w> 14512
nam es</w> 14510
com pris 14509
s ad 14506
mo ha 14506
manufac turing</w> 14499
ati c 14498
r ich</w> 14497
जी ,</w> 14492
ou s.</w> 14491
u re,</w> 14488
मिल ती</w> 14488
च् छ</w> 14484
शे ष</w> 14484
in spec 14472
lead ership</w> 14471
au l</w> 14467
he ar</w> 14459
schem es</w> 14458
नो टिस</w> 14457
वा यु 14453
al so,</w> 14452
	no .</w> 14450
ar un</w> 14445
एम एस 14442
subj ect</w> 14440
a ther</w> 14439
म स 14438
me an</w> 14431
ju n</w> 14427
पक्ष ी</w> 14424
विद्य ार्थियों</w> 14419
v acc 14416
मिल ते</w> 14415
हू ं.</w> 14409
ac ted</w> 14408
wee k 14396
संघ र्ष</w> 14391
उप राष्ट्रपति</w> 14390
goo ds</w> 14390
coun ter</w> 14389
निर्मा ता</w> 14387
are a.</w> 14382
वास्त विक</w> 14382
o x 14380
बी मारी</w> 14379
सम ्‍ 14377
बता ते</w> 14376
त ौ 14375
तुम से</w> 14374
sy m 14371
nad u</w> 14368
शं कर</w> 14367
direc tly</w> 14364
be auti 14362
छो टी</w> 14362
फॉर् म</w> 14362
t y.</w> 14361
gu ar 14360
belie ved</w> 14356
बा ढ़</w> 14355
आप ने</w> 14346
d uty</w> 14342
सा व 14338
j d 14337
ब्या ज</w> 14335
teach ers</w> 14334
al u 14333
india - 14330
टि ल</w> 14328
it ab 14327
अंतरि क्ष</w> 14315
शनि वार</w> 14311
p age</w> 14309
all y.</w> 14308
post - 14308
there fore</w> 14307
n uc 14306
end er</w> 14301
reas on 14301
big g</w> 14301
remain s</w> 14298
de d 14295
क न</w> 14293
अव ै 14288
पा ंच 14283
ली ग</w> 14283
क्रि के 14281
ते ,</w> 14279
सु ल 14277
avail able 14272
import ance</w> 14271
त ी।</w> 14270
op ened</w> 14269
स व</w> 14265
मे श</w> 14256
se ized</w> 14255
commer ce</w> 14255
ला य 14254
लड़ की</w> 14251
dar k</w> 14250
responsi ble</w> 14244
phys ical</w> 14242
ir s</w> 14239
ं भ 14233
win ning</w> 14233
जन् म 14233
सर् वि 14232
निशा ना</w> 14232
stand ard</w> 14231
to m</w> 14223
d p</w> 14221
त थ 14221
क ीय</w> 14220
जा या</w> 14219
वार् ता</w> 14218
राष्‍ ट्र 14208
रि जल् 14205
व ारी</w> 14204
नि रं 14200
ए - 14199
am .</w> 14199
एस ो 14189
ur ged</w> 14188
स् य</w> 14183
r ying</w> 14182
अब् दु 14182
shi f 14180
.. ..</w> 14176
सा गर</w> 14174
anc ing</w> 14174
am ar 14172
भार ती 14171
खरी द 14170
जल ि</w> 14169
बु री</w> 14168
sub sequ 14166
बल्लेबा जी</w> 14165
निर् दे 14163
पवि त्र</w> 14163
उठा ने</w> 14161
chenna i</w> 14159
complet ely</w> 14158
य ौ 14156
परि वारों</w> 14155
organis ation</w> 14154
8 - 14151
mec han 14150
as ia</w> 14148
not 	yes</w> 14146
पड़ ता</w> 14145
भो जन</w> 14145
kno ws</w> 14143
कार्य कारी</w> 14141
benef its</w> 14140
तत् काल</w> 14138
sust ain 14136
ban k,</w> 14128
e th 14126
ur g 14122
प्र बंध 14109
ri ghte 14107
c li 14104
r bi</w> 14096
जाए ँ 14094
k k 14087
पु स् 14085
gu ard</w> 14082
ह ल् 14079
दी पिका</w> 14079
सं गीत</w> 14077
pre pared</w> 14074
तस्वी रें</w> 14072
speci fic</w> 14070
fort un 14070
मिले गी।</w> 14069
पुरा ने</w> 14063
p c</w> 14060
क् यू 14059
exerc ise</w> 14059
वार् य</w> 14057
महा सचिव</w> 14053
भा ल</w> 14049
ud d 14049
equ al</w> 14049
qu anti 14047
व री,</w> 14035
यू पी</w> 14034
रा ह</w> 14032
la ws</w> 14029
शर् मा,</w> 14029
cent .</w> 14028
maj ority</w> 14028
v es,</w> 14027
उत्पा दों</w> 14027
oc ra 14025
z er 14022
ब ारा</w> 14019
श ौ 14019
सं क्र 14019
thous and</w> 14016
n ine</w> 14015
बि ल 14015
जे टली</w> 14014
१ ९ 14012
hel ps</w> 14005
de gre 13999
शी घ 13998
ध व</w> 13996
u .</w> 13994
celebr ated</w> 13991
न् द</w> 13987
अनि वार्य</w> 13987
डे ट</w> 13986
5 6</w> 13984
respon ding</w> 13984
जो ड़ 13983
दिव सीय</w> 13983
ब ू</w> 13973
individ u 13972
मनु ष्य</w> 13972
लंब ी</w> 13970
6 00</w> 13969
स् क</w> 13967
लॉक डाउन</w> 13962
j n 13958
नो ट</w> 13957
अभि न 13955
se a</w> 13952
हा उस</w> 13949
sp er 13948
b ,</w> 13946
e 's</w> 13944
अ श् 13944
po sted</w> 13944
an k 13942
रहे गा।</w> 13933
particul ar</w> 13932
श िया</w> 13927
सा नी</w> 13925
इंस्टा ग्राम</w> 13924
exam ple</w> 13921
दो स्त</w> 13920
फ्रा ंस</w> 13920
c ore</w> 13918
च लता</w> 13917
स् व</w> 13915
मो र् 13915
से ल</w> 13914
occasion ,</w> 13913
tion ing</w> 13912
mach ine</w> 13907
v ed.</w> 13902
sid es</w> 13900
agricul tural</w> 13900
b sp</w> 13897
म् बर</w> 13897
o w 13893
घट नाओं</w> 13892
at ors</w> 13891
int el 13890
do or</w> 13889
5 4</w> 13888
यूनिवर् सिटी</w> 13888
इ तनी</w> 13883
20 00</w> 13883
भ्रष्टा चार</w> 13882
son s</w> 13878
ग ंगा</w> 13874
ल वा 13872
ra in 13871
वि पक्ष</w> 13870
tri bu 13868
कर ण 13864
आ बादी</w> 13863
bre ak</w> 13863
चाहि ए 13857
selec ted</w> 13856
resour ces</w> 13856
ant ly</w> 13852
तेलं गाना</w> 13846
गिरफ् तारी</w> 13845
2017 -1 13843
डॉ क्टर</w> 13842
st age</w> 13841
vic tory</w> 13837
7 2</w> 13835
खू ब</w> 13835
x a 13832
us ers</w> 13830
bengal ur 13827
सं ग</w> 13826
सद न</w> 13823
ब हन</w> 13821
द या 13820
समर् पित</w> 13813
nat ure</w> 13812
at el 13810
फ्र ंट</w> 13810
ja il</w> 13809
m el 13808
द्वी प</w> 13807
मं ड 13806
( s 13802
करा ई</w> 13781
स्व स्थ</w> 13777
el ines</w> 13776
गेंदबा ज</w> 13772
पा दन</w> 13766
म ल 13755
उत्पा द 13750
r ac 13747
ओ लं 13744
a wards</w> 13739
ति थि</w> 13728
gra m</w> 13728
industri es</w> 13728
n one</w> 13726
ra y</w> 13724
पढ़ ें</w> 13724
commer cial</w> 13719
पार ित</w> 13717
partner ship</w> 13715
, """"</w> 13714
bj p.</w> 13712
अं तर</w> 13711
के )</w> 13709
de ar</w> 13708
dhon i</w> 13708
खो ज</w> 13706
th es 13705
down load</w> 13705
bab y 13703
का ओं</w> 13700
. 	 13698
particip ated</w> 13698
गै र</w> 13696
खुला सा</w> 13696
re fl 13688
extrem ely</w> 13688
clim ate</w> 13685
औ सत</w> 13683
meg api 13677
झ ट 13675
e ach 13673
र )</w> 13672
1 1. 13669
peti tion</w> 13669
olo gi 13664
remo te</w> 13663
sh oc 13662
सी जन</w> 13662
re stric 13659
परि क</w> 13659
sen si 13659
गृ ह 13658
nuc le 13656
h d</w> 13654
streng then</w> 13654
ज़ ि 13653
विस्त ृत</w> 13653
christi an</w> 13652
जमान त</w> 13652
co al</w> 13651
is ion</w> 13650
asho k</w> 13645
inju red.</w> 13643
proc eed 13641
- वि 13638
त मा 13638
spo ke</w> 13638
vi k 13635
cha p 13632
( 3 13631
ia h</w> 13630
बड़ ी</w> 13629
cent res</w> 13628
proper ty</w> 13626
w a</w> 13625
train s</w> 13625
du al</w> 13620
facil it 13619
मा ह</w> 13613
ear th 13612
king dom</w> 13612
टि श</w> 13610
law y 13610
il .</w> 13607
स्ट ॉ 13607
oun ds</w> 13604
फा इल</w> 13604
pres ent.</w> 13603
pa th 13601
deep ika</w> 13600
नागरि कता</w> 13596
समस्या ओं</w> 13596
प्राव धान</w> 13595
an t.</w> 13594
स्‍ थ 13590
श्री मती</w> 13590
र् य</w> 13589
जि ंग</w> 13586
जाए गा.</w> 13586
ब ौ 13584
आ यात</w> 13581
streng th</w> 13579
read :</w> 13577
चंडी गढ़</w> 13575
चो ट</w> 13572
cont est</w> 13571
fri end</w> 13570
सलाह कार</w> 13570
द् धि 13569
क् कर</w> 13567
फा इ 13566
अर् जुन</w> 13565
sur vi 13563
रि जर् 13561
र िया 13559
re ply</w> 13557
wick et 13555
5 00 13552
legis lat 13552
d ut 13549
oc cur 13549
घ े 13548
चौध री</w> 13545
इका ई</w> 13544
main tain</w> 13539
fo rest</w> 13538
ग्रु प</w> 13536
त लब</w> 13535
ad ap 13535
ल म</w> 13533
है )</w> 13530
क मे 13529
ch ou 13527
मह त् 13518
7 - 13516
ver .</w> 13515
ष ों</w> 13513
recei ving</w> 13513
शब् दों</w> 13513
आ कार</w> 13510
ना त्मक</w> 13506
बा जी</w> 13498
assa m</w> 13498
y )</w> 13497
wr ong</w> 13497
लि न</w> 13496
hol ding</w> 13495
mor ning</w> 13495
सी ख 13494
दि शा 13491
ar a</w> 13490
च लने</w> 13489
‍ या 13487
स ौ</w> 13487
वि रुद्ध</w> 13487
m ish 13480
फे सब 13479
fi gu 13477
प्रा चीन</w> 13472
स ख्त</w> 13471
ग ज</w> 13468
intel lig 13468
ex tra</w> 13464
मार् ग 13464
attack .</w> 13464
स्थि तियों</w> 13463
न्व यन</w> 13463
mon day</w> 13461
ma x</w> 13458
जल् दी</w> 13454
खे ला</w> 13453
श ,</w> 13446
अग ली</w> 13445
ti li 13443
एफ आई 13443
gener ation</w> 13438
पहुंच ने</w> 13437
adv oc 13436
cas e,</w> 13435
चेयर मैन</w> 13430
सै निक</w> 13424
क्षा ओं</w> 13423
terror ism</w> 13423
हफ् ते</w> 13420
ver se</w> 13417
सं वाद 13415
cer tific 13414
children .</w> 13413
bha t 13410
eas ily</w> 13407
individ ual</w> 13406
दा बाद</w> 13401
f c</w> 13397
बीसीसी आई</w> 13397
हू ं,</w> 13396
ra o</w> 13393
ल ें।</w> 13391
sing h.</w> 13391
ou red</w> 13390
अहम द</w> 13388
वर् ल्ड</w> 13380
elec tions.</w> 13380
g en</w> 13378
be y 13378
p ass</w> 13376
er s 13373
सचि न</w> 13373
cy cl 13366
cou ple</w> 13363
k are 13359
ac ts</w> 13356
mem ory</w> 13349
4 g</w> 13347
डे वि 13346
अवै ध</w> 13339
ते रे</w> 13338
य हू 13337
pakist an.</w> 13325
न्या स</w> 13318
प्र सिद्ध</w> 13312
दूसर ों</w> 13311
call ing</w> 13305
ar y.</w> 13304
sh el 13303
बना कर</w> 13300
it er 13299
नौ करी</w> 13294
kar ,</w> 13292
है ।"</w> 13291
बच्च न</w> 13291
se x</w> 13289
के .</w> 13288
ye ster 13288
b on 13287
लि स्ट</w> 13287
पड़ ा 13282
अ मिता 13277
5 7</w> 13275
हिस् सों</w> 13275
suic ide</w> 13272
हि क</w> 13269
cap it 13261
श तक</w> 13258
sk in 13256
च ली</w> 13254
son ,</w> 13252
10 00</w> 13249
ul ar</w> 13248
प्रश् न</w> 13246
-1 7</w> 13245
ख़ ा 13244
st ay 13240
इस ्रा 13240
ess ential</w> 13240
स्कू लों</w> 13240
ur ,</w> 13239
सें टर</w> 13239
c ant</w> 13237
ए ं।</w> 13237
um ,</w> 13230
ती ,</w> 13229
shar ing</w> 13229
am itab 13227
शाह रुख</w> 13224
सै निकों</w> 13218
ple a</w> 13218
ध न्य 13217
fe el 13213
बिल् कुल</w> 13213
शा ला</w> 13209
sig n 13208
stat es.</w> 13204
vill ag 13204
e ?	 13196
multi ple</w> 13196
pro per</w> 13194
प्रो फे 13193
इंत जार</w> 13193
res ist 13191
0 .</w> 13190
वाप सी</w> 13190
विश्‍ वास</w> 13190
आ ग 13189
विस् फो 13189
नि कट</w> 13182
ic .</w> 13179
मरी जों</w> 13177
l al 13174
f ans</w> 13170
vie ws</w> 13170
सी ई 13166
k ata</w> 13163
सें सर</w> 13163
au to</w> 13162
प्रतियोगि ता</w> 13162
il ed</w> 13161
वि वाह</w> 13161
विश् ले 13159
cri tical</w> 13154
सं हि 13151
पड़ ो 13150
champ ion 13149
r y,</w> 13147
प्रशा स 13147
दिल् ‍ 13146
sol u 13143
लू म</w> 13141
f ill</w> 13138
स्तर ीय</w> 13135
ali a</w> 13134
ris k</w> 13134
शिय ल</w> 13133
accoun ts</w> 13132
off ers</w> 13126
de v</w> 13122
arm ed</w> 13119
dedic ated</w> 13116
2 2 13112
y or 13109
play s</w> 13108
mu k 13106
devel op</w> 13099
ब्रि टिश</w> 13095
	y ou</w> 13093
सि स</w> 13091
क् त 13086
sp ac 13085
थी ं</w> 13085
what sa 13082
ach es</w> 13080
self - 13078
head ed</w> 13076
i ous</w> 13075
क्‍ ति</w> 13075
सी न</w> 13072
स्‍ वा 13070
मही नों</w> 13069
नि वासी</w> 13063
को रिया</w> 13063
ho od</w> 13063
ro om 13059
ख ड़े</w> 13053
j av 13051
naid u</w> 13049
purcha se</w> 13048
contribu tion</w> 13046
neigh bour 13046
\\ xa 13042
8 00</w> 13037
pro vision</w> 13037
e vil</w> 13034
agre ed</w> 13031
shoo ting</w> 13030
hi d</w> 13029
रिजर् व</w> 13028
bat s 13027
एक् टर</w> 13025
प्र बंध</w> 13021
stand s</w> 13017
उ तर 13016
तरी न</w> 13016
mil li 13014
अमिता भ</w> 13011
olog y</w> 13006
fa ir</w> 13005
खतर ा</w> 13005
joh n</w> 13003
शुरू आत</w> 13002
क ना 13000
frid ay</w> 12994
we ather</w> 12993
द्र ा 12992
पूर् व 12986
t ab 12985
क मि 12984
k y</w> 12983
क ब</w> 12981
ट्र ो</w> 12979
ap ple</w> 12976
वि वा 12975
countri es.</w> 12975
पे ट</w> 12971
il s</w> 12968
t 20 12966
कुमार ,</w> 12965
nc p</w> 12964
बी ते</w> 12962
terror ist</w> 12961
dol l 12959
ru b 12954
मा नी</w> 12952
distric t.</w> 12951
v as 12950
st ak 12948
है । 12944
इच्छ ा</w> 12942
ब द्ध 12938
आई एस 12938
हौ ल</w> 12937
man mohan</w> 12932
सर ों</w> 12930
re member</w> 12927
क्ष कों</w> 12926
im ran</w> 12925
cha n</w> 12924
ass ess 12922
musli ms</w> 12912
alla h 12910
corrup tion</w> 12909
dom in 12906
po wered</w> 12902
साझे दारी</w> 12901
ir an</w> 12897
न लिखित</w> 12896
an and</w> 12896
8 , 12892
aw are</w> 12892
अरु ण</w> 12888
कॉ र् 12886
im ag 12885
?	no ,</w> 12885
बेंग लु 12883
ide a</w> 12881
मन मोहन</w> 12881
स्ट ै 12875
कार ियों</w> 12872
न्य ू</w> 12871
ro yal</w> 12867
5 3</w> 12864
rej ected</w> 12863
िय ु 12862
गा ह</w> 12862
pp ing</w> 12859
yog i</w> 12856
becom es</w> 12853
bhar ati 12852
ओ ं,</w> 12850
ker al 12847
kol kata</w> 12847
ंग् स</w> 12844
can 't</w> 12840
some one</w> 12838
मा ँ 12837
amitab h</w> 12837
का न 12836
it self</w> 12834
goo d.</w> 12834
mor tem 12833
दिखा या</w> 12833
fix ed</w> 12832
बढ़ ती</w> 12827
w .</w> 12822
ap point 12820
aircra ft</w> 12817
वा ना</w> 12814
hou se.</w> 12811
201 5 12809
gra p 12809
cov id</w> 12809
pro duce</w> 12806
लग ने</w> 12806
जल वायु</w> 12805
rol es.</w> 12805
an s,</w> 12803
wor ship</w> 12802
जी व</w> 12802
उत् तरी</w> 12801
g ain 12800
एसो सि 12800
lap top 12798
परि सर</w> 12797
yog a</w> 12796
a post 12795
कि ए।</w> 12795
जवा नों</w> 12795
e di 12791
month .</w> 12790
thre at 12789
शही द</w> 12784
त् मा</w> 12782
छत्तीस गढ़</w> 12782
dem ocra 12771
sk ill</w> 12771
तुम ने</w> 12771
lo an</w> 12770
u k</w> 12766
gri ev 12763
बेह तरीन</w> 12761
ad ju 12757
म मता</w> 12755
ad a</w> 12752
या .</w> 12751
educ ational</w> 12749
ec ting</w> 12744
fa ith 12743
pra kash</w> 12741
ग वर् 12740
चाहि ए,</w> 12738
क पि 12736
जो खि 12732
b s 12731
लोक प्रिय</w> 12730
lin k</w> 12728
श ॉ 12726
लिखा ,</w> 12725
क् लिक</w> 12724
तु र् 12724
witness es</w> 12722
be at</w> 12721
appro ach</w> 12720
शीघ ्र</w> 12716
op in 12715
ic ,</w> 12710
sh ir 12710
सि वा</w> 12708
सू रत</w> 12705
बड़ ा</w> 12705
n ice</w> 12704
ip per</w> 12703
e at</w> 12700
खे लों</w> 12700
मु हैया</w> 12699
न ार 12696
7 .</w> 12692
डा उन 12691
cla im</w> 12687
था ना</w> 12684
एस .</w> 12683
क ू</w> 12681
oth er.</w> 12680
gar h,</w> 12680
म ल</w> 12679
a c</w> 12676
poli tics</w> 12674
र खा 12673
सि द्धा 12673
a ap</w> 12672
p ages</w> 12672
heav ens</w> 12672
प्र माण 12667
निर् मित</w> 12667
डो ना 12666
s li 12664
bo y</w> 12659
shor t 12658
घं टों</w> 12658
क् वि 12657
सि क् 12651
धर् म 12647
ch ur 12646
स भा 12642
पूछ ा</w> 12642
ओलं पिक</w> 12639
मर् श</w> 12638
सम् बन् 12637
प्राथमि कता</w> 12637
सु नील</w> 12635
मा हौल</w> 12633
विजे ता</w> 12632
चेता वनी</w> 12632
े गी।</w> 12628
fli p 12627
सा थी</w> 12624
initi ative</w> 12624
t ally</w> 12619
फा न</w> 12618
ौ ती</w> 12617
रह ेंगे।</w> 12614
स - 12612
introduc ed</w> 12611
f an</w> 12608
z ation</w> 12605
5 8</w> 12603
emb er,</w> 12603
respecti vel 12603
सा ब</w> 12602
प्र भ 12600
we ap 12599
शक् ति 12599
कर णों</w> 12594
मा ही</w> 12594
d i</w> 12591
ज ्यादातर</w> 12590
ra inf 12588
t y,</w> 12586
द िये</w> 12584
ut i</w> 12584
mar g 12584
self .</w> 12580
soldi ers</w> 12580
कम जोर</w> 12579
des ign 12577
recomm end 12575
bom b 12575
zeal and</w> 12574
वि वरण</w> 12573
mm ed</w> 12572
नि ंदा</w> 12571
प े</w> 12570
st ret 12568
k har 12566
t elec 12562
prog res 12561
facil ity</w> 12560
ay ,</w> 12559
co ach</w> 12555
spirit ual</w> 12554
plas tic 12552
5 9</w> 12548
अनु ष् 12547
रो ग</w> 12542
पूर्वो त्तर</w> 12542
s election</w> 12541
reli ance</w> 12541
ab s 12540
acc ept</w> 12540
लं दन</w> 12540
programm es</w> 12536
प्राधि करण</w> 12525
incid ent,</w> 12524
ल ट</w> 12523
कर ू 12519
an s.</w> 12517
m c</w> 12515
de ,</w> 12515
ti fied</w> 12513
dri ve</w> 12511
ch ri 12510
er - 12509
समु द्र</w> 12508
v it 12502
one plus</w> 12501
दृष्टि कोण</w> 12499
sha res</w> 12496
डि ट</w> 12496
0 ,</w> 12495
associ ated</w> 12494
ph il 12490
b at</w> 12489
क ही</w> 12489
met al</w> 12489
web sit 12485
vi jay 12484
y a 12483
फ ें 12483
in duc 12481
प्रे र 12480
d han</w> 12476
ेंग े,</w> 12476
प दों</w> 12475
krish na</w> 12475
mukh erjee</w> 12475
गो ली</w> 12473
ॉर् क</w> 12473
deceas ed</w> 12473
राष्‍ट्र पति</w> 12473
develop ing</w> 12472
सर् वे 12471
6 .</w> 12464
ड ू 12464
sig n</w> 12464
achi eve</w> 12464
no .</w> 12463
megapi xel</w> 12460
प्रदर्श न 12453
particul arly</w> 12452
सह योगी</w> 12446
nucle ar</w> 12443
re r</w> 12440
p t</w> 12438
आ दर् 12438
i tion</w> 12435
फ ं 12435
hel ped</w> 12429
modi .</w> 12429
गेंदबा जी</w> 12429
ड ें 12425
ab ad,</w> 12425
मान ते</w> 12424
स्ट्रे ल 12421
उठा या</w> 12420
under standing</w> 12418
challeng e</w> 12418
stri ke</w> 12410
मुकद मा</w> 12410
ट्रा ं 12408
नियु क्ति</w> 12407
te sts</w> 12405
लेख नीय</w> 12405
r d</w> 12404
कहा ं</w> 12404
r ally</w> 12402
आर एस 12401
im age</w> 12400
वि भाज 12399
उपा ध्यक्ष</w> 12398
al ter 12397
रं जन</w> 12397
ल क</w> 12395
wit ness</w> 12392
खे लने</w> 12390
1. 5</w> 12390
विशा ल</w> 12389
प्र कट</w> 12387
sac ri 12386
o d,</w> 12385
c in 12385
ud ed</w> 12382
टी मों</w> 12382
आ धार 12381
vi g 12380
गा ?</w> 12377
ले ट</w> 12377
fil led</w> 12377
vo te</w> 12377
y :</w> 12376
च र्स</w> 12375
beg in 12370
estim ated</w> 12368
fel l</w> 12366
municip al</w> 12361
ऐ लान</w> 12360
trans fer</w> 12358
deplo yed</w> 12358
या तना</w> 12357
सक र् 12354
ud i</w> 12353
रो ड</w> 12351
गठ ित</w> 12347
1 ,000</w> 12346
land ,</w> 12343
challeng es</w> 12343
खा स 12342
मान ्यता</w> 12342
पु त्र</w> 12338
f ind 12337
worl d,</w> 12336
उप करण</w> 12334
मिन ट</w> 12334
l .</w> 12333
वि वे 12333
sun il</w> 12332
छोड़ कर</w> 12331
d al</w> 12329
कै प् 12327
u ra 12323
sn ap 12318
गु ना</w> 12317
लख न 12310
equ ip 12306
cri me</w> 12302
शो ध</w> 12300
पा वर</w> 12298
बा यो 12297
read ing</w> 12292
treat ment.</w> 12292
coun c 12291
प्रो से 12286
यूरोप ीय</w> 12285
ex - 12283
म णि 12282
p p</w> 12281
al ty</w> 12279
प्री त</w> 12276
t )</w> 12275
6 7</w> 12274
fac ed</w> 12274
charg ed</w> 12274
जाग रू 12274
दो बारा</w> 12273
mil k</w> 12272
5 ,000</w> 12269
सा धारण</w> 12268
bro thers</w> 12265
f la 12264
origin al</w> 12264
vic e- 12262
रूप ये</w> 12262
reven ue</w> 12262
and a</w> 12257
10 ,000</w> 12257
त ें 12253
उ ठ 12253
h in 12252
part y.</w> 12252
मुद् दा</w> 12250
प्रदू षण</w> 12249
वित् ‍ 12245
raj iv</w> 12242
चै ंप 12238
ड ियम</w> 12237
ज ू</w> 12234
जम कर</w> 12230
beg in</w> 12228
awa ren 12228
सु पर 12225
सु शांत</w> 12224
dec lin 12223
( डी 12218
sub st 12211
p aul</w> 12209
सि ल 12207
वे रिएंट</w> 12204
टी )</w> 12204
कमा ंड 12202
surve y</w> 12199
ज मा 12197
w . 12196
ए ह 12196
ऐ प</w> 12193
exp and 12192
equ i 12192
show ing</w> 12192
tom or 12192
गरी ब</w> 12192
स्थि र</w> 12191
through out</w> 12191
रख े</w> 12187
गण ना</w> 12187
b la 12186
सु रे 12186
पे ज</w> 12186
dis mis 12186
her it 12182
an ush 12180
sach in</w> 12180
n r 12177
h ang 12177
bharati ya</w> 12177
हा थों</w> 12173
मना या</w> 12172
res c 12170
instag ram</w> 12169
electric ity</w> 12169
om et 12168
ex cl 12167
लाइ ट</w> 12167
न ियां</w> 12166
cha ired</w> 12166
z z 12165
s ang 12164
प रा 12161
एन एस 12159
inde x</w> 12156
फेसब ुक</w> 12156
बॉ क्स</w> 12155
mod e</w> 12154
sub mitted</w> 12154
coun ter 12148
adit yan 12148
la id</w> 12145
at e.</w> 12143
syst ems</w> 12141
अल् प 12139
- 19 12137
मा लूम</w> 12135
बु रा</w> 12135
numb ers</w> 12135
ent re 12134
मृ त</w> 12133
सक ों</w> 12131
सि र</w> 12128
resol ution</w> 12128
loo ks</w> 12127
पहुंच ा</w> 12124
differen ce</w> 12124
काम या 12123
ja i 12121
सु पर</w> 12120
कोवि ड</w> 12120
पेट्रो लियम</w> 12115
marri age</w> 12114
per man 12106
pol ling</w> 12100
जी त 12098
lan ka</w> 12098
gu e</w> 12097
बन र्जी</w> 12097
- based</w> 12096
आ युक्त</w> 12095
a uc 12093
ad dition</w> 12093
कृष् ण</w> 12092
ver dic 12091
bha g 12091
om i</w> 12090
road s</w> 12090
f ear 12086
गु र 12085
tri al</w> 12085
ग म</w> 12083
दि ला 12083
हु क् 12079
di sch 12076
7 1</w> 12068
pre ne 12068
ग्र ी 12066
hol y</w> 12064
disch arg 12064
he re,</w> 12053
d )</w> 12052
मण् डल</w> 12050
ज ला 12046
अभ ्या 12046
ल ीय</w> 12043
gl ass 12043
रि पोर् 12042
आलो चना</w> 12042
न् ना</w> 12040
sk ipper</w> 12040
नि स् 12039
col d</w> 12037
स्‍ ता 12033
he at</w> 12031
ra ther</w> 12030
राज पू 12029
resp ective</w> 12027
खा ना</w> 12024
ढ ंग</w> 12022
सुविधा ओं</w> 12022
अ क 12021
न् वित</w> 12020
समु द्र 12018
त्र ु 12017
कह ती</w> 12017
तो ड़</w> 12009
cro res</w> 12007
,99 9</w> 12003
सक ता।</w> 12002
pat i</w> 12002
pris on 12002
मान ता</w> 12001
विशेष ज्ञ 12001
midd le</w> 11993
appe ared</w> 11991
j ack 11989
आर पी 11987
mortem .</w> 11986
निय ो 11985
प्रभ ु</w> 11983
ma hat 11981
धि कार</w> 11981
राज स्व</w> 11980
प टा 11979
hel p 11979
पुलि सकर् 11971
प ब् 11966
जता ई</w> 11965
wat er.</w> 11964
सर् वा 11964
investig ation.</w> 11963
भू त</w> 11961
निका ल</w> 11961
इंड ीज</w> 11959
ं ती</w> 11957
propos al</w> 11955
इ ंच</w> 11954
स च् 11951
cl ick</w> 11951
6 8</w> 11947
ब ने 11947
सा मान</w> 11947
cont act</w> 11947
el led</w> 11946
भ व 11944
केंद्र ित</w> 11940
ac t.</w> 11939
tu red</w> 11939
प्रत्य क्ष</w> 11935
appropri ate</w> 11935
दिल् ली,</w> 11932
ve get 11930
cl as 11929
f ad 11923
er ous</w> 11922
oun d.</w> 11922
dec l 11921
car rying</w> 11917
व्या व 11916
मु सल 11914
speci fic 11914
defin it 11910
ज ह 11909
जिम्मे दार</w> 11905
piec e</w> 11902
जि ए</w> 11901
चो पड़ा</w> 11900
well ,</w> 11900
ना मा 11899
काब ू</w> 11898
स ो</w> 11896
ch ann 11896
appe al</w> 11892
ौ म</w> 11890
गो यल</w> 11884
lab our</w> 11884
plat form</w> 11882
कॉ ल</w> 11880
z o</w> 11879
म हो 11879
inaugur ated</w> 11879
annivers ary</w> 11877
स कारात्मक</w> 11874
retur ned</w> 11871
ट - 11866
वा दा</w> 11858
तकनी क</w> 11858
करे गी</w> 11856
mal ay 11856
reser ve</w> 11855
6 2</w> 11854
आ सानी</w> 11853
st adi 11853
4 9 11852
रिजल् ट</w> 11851
प राम 11850
ख ड़ा</w> 11849
bach chan</w> 11846
था ने</w> 11845
ap r 11843
re view 11842
ता कत</w> 11842
iti es,</w> 11835
ठाकु र</w> 11834
पीड़ ित</w> 11833
pran ab</w> 11831
minist er.</w> 11827
on going</w> 11825
tel ev 11825
मु फ् 11823
ca st 11823
organiz ed</w> 11822
compu ter</w> 11821
क क्षा</w> 11820
k er</w> 11819
सा लों</w> 11818
po ck 11818
flip kar 11817
8 .</w> 11815
सिफ ारिश</w> 11815
केन् द्र 11814
sex ual</w> 11814
फ़ि ल्म</w> 11811
ra v 11809
6 gb</w> 11808
ra il</w> 11808
si ze 11808
au r</w> 11807
पराम र् 11806
6 3</w> 11800
to wn 11796
gran ted</w> 11795
वे ट</w> 11794
over all</w> 11792
स्व च्छ 11789
vir tu 11786
na wa 11785
ि ंग</w> 11784
ने वाला</w> 11784
petro le 11784
dem on 11782
प ,</w> 11781
initi atives</w> 11779
ton n 11779
vo tes</w> 11778
no tification</w> 11777
आ मंत्र 11775
आ क 11773
भ ी,</w> 11770
ई डी</w> 11769
अंग्रे जी</w> 11768
ग्राह कों</w> 11766
rele v 11764
कठि न</w> 11761
f .</w> 11756
प ारि 11756
requ e 11756
हि साब</w> 11751
exam ple,</w> 11750
अभि ष 11749
अ ंग 11748
नि री 11746
प्‍ त</w> 11745
gu il 11742
bl ack 11740
यु व 11739
des k 11738
entre prene 11738
सर् च</w> 11737
?	y es 11737
अ सल</w> 11735
जा ,</w> 11734
appro val</w> 11725
कि तना</w> 11724
pan el</w> 11724
दे गा</w> 11722
कपि ल</w> 11722
राज मार्ग</w> 11718
att ention</w> 11718
accid ent.</w> 11714
मा य 11711
wash ing 11711
plac e.</w> 11707
ग ए.</w> 11706
रा स्ते</w> 11706
strate gic</w> 11704
c row 11695
cel l</w> 11695
stic k</w> 11695
पो षण</w> 11692
cir cum 11691
con dem 11690
chop ra</w> 11690
sig ns</w> 11685
फु ट 11685
ba il</w> 11684
g .</w> 11683
बद ले</w> 11675
kashmir .</w> 11675
बै टरी</w> 11674
disci pl 11670
o th</w> 11668
प्रदर्श ित</w> 11668
ग ई,</w> 11666
ven tion</w> 11666
democra tic</w> 11665
regist ration</w> 11659
चे क</w> 11658
absol ut 11657
शुभकाम नाएं</w> 11656
ev ent.</w> 11655
गुप् ता</w> 11655
up gra 11653
star ting</w> 11652
घो टा 11652
मर ने</w> 11652
s ong</w> 11650
भू षण</w> 11646
s en</w> 11642
ar jun</w> 11641
a ar 11640
तर् क</w> 11637
thous ands</w> 11629
डोना ल्ड</w> 11628
loc ation</w> 11623
kare ena</w> 11623
summ it</w> 11622
चु ना</w> 11620
anush ka</w> 11620
क च्च 11619
punjab ,</w> 11619
नी तीश</w> 11617
al )</w> 11616
ad di 11615
-1 6</w> 11614
कमे टी</w> 11611
f )</w> 11609
ना थ 11609
सा उ 11607
bi o 11607
accep ted</w> 11607
का ंक</w> 11606
रण वीर</w> 11606
स्ट्र ी 11606
str ugg 11605
ण िक</w> 11604
hol ders</w> 11603
12 5</w> 11599
तरि क</w> 11599
niti sh</w> 11598
h indu 11592
आर ंभ</w> 11586
ग ड 11585
cy cle</w> 11585
स्ट ार् 11584
bott le</w> 11584
maharashtra ,</w> 11584
tr i</w> 11583
sm all 11579
प्रोत्सा हित</w> 11579
head quar 11578
resc ue</w> 11578
en su 11576
in ches</w> 11569
hous ing</w> 11569
ज ंग 11568
निर् दि 11564
diffic ul 11564
मार् ट</w> 11563
वि चारों</w> 11562
clo th 11560
परेशा न</w> 11560
जिन का</w> 11559
ल ेंगे।</w> 11555
rul ing</w> 11550
jharkh and</w> 11550
ी .</w> 11549
? ?</w> 11548
ac compan 11544
id s</w> 11544
सूच कांक</w> 11543
7 4</w> 11542
busin ess 11542
उपा य</w> 11542
बजा य</w> 11541
tr ou 11539
आप दा</w> 11538
tues day</w> 11538
नि ए</w> 11532
europe an</w> 11529
u le</w> 11525
b hu 11522
g ,</w> 11521
ं / 11519
भी ड़</w> 11518
ing :</w> 11516
belie vers</w> 11516
x i</w> 11513
kap il</w> 11513
sy n 11512
prev ent</w> 11512
ंभ िक</w> 11512
vill ages</w> 11511
sit ting</w> 11509
दू त</w> 11508
identi al</w> 11506
pre hen 11501
s ),</w> 11497
k ab 11496
vic tim</w> 11496
म श 11492
र नों</w> 11491
वि पक्षी</w> 11491
mahat ma</w> 11488
चि द 11487
kapo or,</w> 11487
बढ़ ने</w> 11486
वै धा 11484
sc ore</w> 11481
ह वा</w> 11479
लि टी</w> 11478
श न,</w> 11473
suff ered</w> 11472
कहा -</w> 11471
द् दीन</w> 11470
चुना वी</w> 11467
u 200 11466
connec tivity</w> 11466
के ट 11465
स्ट ू 11463
n ur 11462
महा निदेशक</w> 11459
appro x 11458
med al</w> 11455
सर्वो च्च</w> 11455
m ist 11454
बी न</w> 11453
अ न्‍य</w> 11452
डी पी</w> 11452
जु ट</w> 11451
kar an</w> 11451
अ त्या 11449
confid ence</w> 11449
1 20</w> 11448
बना म</w> 11447
मस् जि 11447
k es</w> 11444
सं तो 11442
we ak 11440
आ ध्या 11439
ब् ‍ 11439
she et</w> 11439
f ren 11438
मा ण</w> 11438
आखि र</w> 11435
बढ़ ोतरी</w> 11434
f at 11433
एक- दूसरे</w> 11433
citizen ship</w> 11433
c e,</w> 11427
जी ता</w> 11427
stor s</w> 11427
. 0 11423
rec ru 11423
us er</w> 11420
मि ट</w> 11419
mo hammad</w> 11418
म नी 11414
immedi ate</w> 11410
दृ श्य</w> 11409
speec h</w> 11409
देख भाल</w> 11408
uni que</w> 11408
depend s</w> 11407
ch id 11406
दु ख</w> 11405
ran veer</w> 11404
अ य 11403
से क्टर</w> 11399
d ated</w> 11397
च क्र 11395
प ढ़ 11394
c ut 11390
अ गु 11390
न र् 11389
हिस् से 11389
ही ,</w> 11386
that 's</w> 11386
isra el</w> 11386
ल ड़ 11384
discus s</w> 11383
bu re 11382
दाय ि 11381
nes s.</w> 11376
ag encies</w> 11370
b y 11369
हथ ियार</w> 11369
कार्य वाही</w> 11368
इन की</w> 11368
मु ना 11366
ला भ 11362
s 	no</w> 11360
दिल्‍ ली</w> 11358
ँ च</w> 11357
feren ce</w> 11356
ं दी</w> 11353
ग्र स्त</w> 11353
st ore</w> 11351
n as 11350
घ ु</w> 11346
डिजा इन</w> 11344
भे जे</w> 11340
op pos 11339
fa st 11339
अस्प ता 11339
cro s 11338
ओडि शा</w> 11336
थ ियों</w> 11333
pre - 11332
ार् थी</w> 11330
ट्र क</w> 11324
ar ti 11323
awar ded</w> 11321
lo ad 11319
अधिकार ों</w> 11319
( 4 11316
c k</w> 11315
r y.</w> 11313
वा स्ते</w> 11313
di vision</w> 11311
continu es</w> 11311
religi on</w> 11310
लगा ई</w> 11309
ceremon y</w> 11307
is es</w> 11305
ज़रू रत</w> 11305
ट कर</w> 11302
ing ing</w> 11298
ज़ ो 11298
चि न् 11294
cour t,</w> 11294
खु श 11292
पत् थ 11292
engine ering</w> 11292
wednes day</w> 11292
ar ly,</w> 11289
डा ला</w> 11288
मु द्रा</w> 11286
मसी ही</w> 11286
कि स् 11285
ed ing</w> 11285
करी ना</w> 11285
do .</w> 11284
पक्ष ों</w> 11283
sof tw 11283
एश ियाई</w> 11277
n ab 11270
प्र देशों</w> 11266
लेख क</w> 11266
e en</w> 11265
ब् लै 11265
li es</w> 11264
भाष ा 11264
दिल्ली :</w> 11263
2017-1 8</w> 11262
i . 11260
मा लिक</w> 11260
से ज</w> 11259
व ्‍या 11255
af ter 11251
कॉ म</w> 11248
आई ए 11246
मु ठ 11245
n ut 11241
en able</w> 11239
उत् सा 11237
आध्या त् 11235
m ing</w> 11234
am bar 11234
वे तन</w> 11233
क श</w> 11231
इं सान</w> 11231
ख़ ु 11230
मिला ।</w> 11227
anal y 11225
petrole um</w> 11222
sever e</w> 11220
anci ent</w> 11220
mat ches</w> 11219
gr and</w> 11219
गा ने</w> 11218
go a</w> 11218
7 7</w> 11217
k i</w> 11214
अ काउंट</w> 11214
च ने</w> 11211
मनो हर</w> 11207
इ मार 11205
high - 11205
कश् मी 11204
diseas e</w> 11203
tra ditional</w> 11199
sel y</w> 11199
gandhi ,</w> 11199
अमरी की</w> 11199
oc cup 11196
ज ें</w> 11194
पुस् तक</w> 11194
प्रतिनि धि</w> 11191
आतंक वादियों</w> 11190
च रण 11188
br and</w> 11186
f led</w> 11184
महिला एं</w> 11182
सि ने 11179
जोखि म</w> 11179
मुठ भे 11177
d y 11176
li ber 11176
or ies</w> 11174
remain ing</w> 11174
आत् मा</w> 11172
तीसर ा</w> 11172
स्वर् ण</w> 11171
अनुष् का</w> 11170
य - 11168
con dol 11166
lo s 11166
हार् दिक</w> 11165
संहि ता</w> 11164
ग ें</w> 11162
st ations</w> 11162
sush ant</w> 11161
weal th</w> 11160
निरं तर</w> 11160
ser ving</w> 11158
ल स</w> 11157
claim s</w> 11157
on e- 11156
इलेक् ट्रॉ 11156
nom in 11156
सु ख 11154
lear ning</w> 11153
प्री म 11152
fil m,</w> 11150
v oc 11149
kashmir ,</w> 11147
j ail 11146
अध ्‍य 11143
फ्र ेंस</w> 11140
म द् 11136
क्षे प</w> 11136
कर् ज</w> 11132
sch ol 11131
पि ंग</w> 11130
एक् स</w> 11130
मेह नत</w> 11128
ger man</w> 11127
ch il 11126
प्रण ब</w> 11126
डाउन लोड</w> 11123
mod er 11118
देख ी</w> 11117
तमा म</w> 11115
मे ट्रो</w> 11113
ne ar 11111
ma hind 11111
कार्य कर्ता</w> 11111
g ory</w> 11110
in ess</w> 11110
alleg ations</w> 11108
victim s</w> 11108
inde ed,</w> 11107
re new 11106
attac ks</w> 11106
tit ude</w> 11102
tend ul 11101
ब ला 11098
arri ved</w> 11095
communic ation</w> 11095
6 6</w> 11092
bats man</w> 11092
चार् ज</w> 11087
mo tor</w> 11086
प्रशास निक</w> 11084
lock down</w> 11083
निम् नलिखित</w> 11083
punish ment</w> 11082
प्रतिनिधि त्व</w> 11080
moha mmed</w> 11078
cong reg 11070
ं सी</w> 11067
स्व च्छ</w> 11064
अधिक तर</w> 11064
constitu ency</w> 11062
15 0 11060
वस्तु ओं</w> 11060
p ath</w> 11056
pro cu 11054
dra g 11052
cre ating</w> 11050
व स्त 11049
mark ets</w> 11049
वा सन</w> 11045
का ने</w> 11044
b ass 11042
s it</w> 11036
निर्दे शन</w> 11036
पाठ ्य 11035
o be 11034
चार िक</w> 11034
mor n 11033
\ "" 11032
mat ters</w> 11031
bey ond</w> 11029
fir m</w> 11022
200 7</w> 11020
प्र योग 11019
amend ment</w> 11018
y am 11015
आईसी सी</w> 11015
bo t 11014
आदि त्य 11013
st res 11010
क्रम श 11007
हुक् म</w> 11006
बढ़ त</w> 11004
eli gi 11004
जि ंदगी</w> 11003
समू हों</w> 11003
कर ियर</w> 11000
thurs day</w> 11000
ए च</w> 10999
manag ed</w> 10994
त भी</w> 10990
ढांच े</w> 10989
ap ex</w> 10988
cate gory</w> 10987
आं तरिक</w> 10985
wa ste</w> 10984
ए की 10983
al co 10983
ह ड़ 10981
स् वि 10981
श्र द्धां 10981
stat es,</w> 10980
mumba i.</w> 10980
awaren ess</w> 10980
्यू टर</w> 10978
प वार</w> 10977
व स्‍ 10977
न ारे</w> 10975
विद्यु त</w> 10975
recomm ended</w> 10973
ँ ,</w> 10972
ha th</w> 10971
fi x</w> 10971
ंब र,</w> 10971
ag g 10970
represent atives</w> 10969
नी ति 10968
म य</w> 10967
न ),</w> 10966
2 nd</w> 10965
द शक</w> 10962
गु ना 10962
वि न 10961
v ement</w> 10960
seat s.</w> 10960
comm and</w> 10952
ed ?</w> 10951
a u</w> 10950
fam ous</w> 10949
वै से</w> 10947
न्‍ द्र</w> 10947
व ल 10945
sal es</w> 10945
7 8</w> 10943
g ul 10943
पार् क</w> 10943
दिल च 10942
pl om 10939
beauti ful</w> 10939
प ंच 10934
en em 10932
bo ard 10929
some times</w> 10928
बद लने</w> 10924
जा नें</w> 10920
निर् देश 10916
adv ant 10915
man .</w> 10913
second ary</w> 10912
2020 :</w> 10911
pakist an,</w> 10910
e y 10909
f light</w> 10908
heal thy</w> 10908
दे न</w> 10906
pre dic 10902
पु रा</w> 10901
corpor ate</w> 10901
रा स्ता</w> 10900
face book</w> 10900
तीसर ी</w> 10899
नै तिक</w> 10899
5 %</w> 10897
addres sed</w> 10894
sha h 10893
prof ess 10893
लाय ंस</w> 10890
bo at</w> 10889
कु ं 10888
बा हरी</w> 10885
sim ple</w> 10883
trib un 10881
तुम को</w> 10874
f as 10869
सं स्था</w> 10864
ul la 10862
ऊ ंच 10858
di plom 10858
p on 10856
chid ambar 10856
requ est</w> 10851
यौ न</w> 10851
महा त्मा</w> 10849
k har</w> 10848
सि ंग 10848
नि धि</w> 10846
इ तने</w> 10845
करें .</w> 10845
al er 10843
वस्त ु</w> 10838
ad mit</w> 10835
the at 10834
p f</w> 10833
म ना</w> 10832
ref used</w> 10832
telang ana</w> 10832
su spec 10831
legisl ative</w> 10830
assist ant</w> 10827
e 	no</w> 10824
ent ry</w> 10824
कि तनी</w> 10824
initi ated</w> 10824
mano har</w> 10824
comp ens 10823
than ks</w> 10821
h er.</w> 10820
stit ched</w> 10819
हैं :</w> 10817
s pl 10816
201 4 10816
ev en 10814
scienti fic</w> 10814
a adha 10810
pric ed</w> 10810
हाला ँ 10809
butt on</w> 10809
tol l</w> 10807
inqu iry</w> 10801
पी .</w> 10797
truc k</w> 10789
develop ment,</w> 10785
form ing</w> 10783
jait ley</w> 10779
3 :</w> 10777
उल् लेखनीय</w> 10775
का यम</w> 10773
pol l</w> 10771
es ?</w> 10770
सहम त</w> 10770
नज़ र</w> 10769
ack er 10767
cam p 10762
l ers</w> 10761
संख ्य 10759
ल म् 10757
दो पह 10757
pro ph 10756
tri bal</w> 10755
3 9 10753
independ ence</w> 10752
t un 10751
s old</w> 10750
20 22</w> 10750
po sts</w> 10749
ra v</w> 10748
us i 10746
yo jan 10746
fing er 10742
वैधा निक</w> 10740
b ing</w> 10739
पढ़ ें 10739
dec ad 10737
प्राथ मिक</w> 10737
पी एम 10735
क्ष ी</w> 10734
प्रति स्पर् 10734
सिन् हा</w> 10734
tra ding</w> 10733
फि र 10729
ant s.</w> 10728
चौ हान</w> 10727
wr ite</w> 10727
entreprene ur 10725
ab les</w> 10724
par am 10723
लु स</w> 10723
si z 10721
dr . 10721
figh ting</w> 10721
arre st 10720
n y</w> 10718
% ),</w> 10718
hi r</w> 10718
जय ंती</w> 10718
निर् देशक</w> 10716
ा र</w> 10713
आत् मह 10713
कं प</w> 10712
monit oring</w> 10712
be ha 10711
j it 10709
गौर तलब</w> 10704
एफ सी</w> 10700
तैय ार 10698
बाइ क</w> 10697
प्रो जे 10692
dam age</w> 10690
techn ologi 10689
ti n</w> 10688
per cent 10688
i ght 10687
ट क्कर</w> 10687
t ar</w> 10686
le d,</w> 10685
vis i 10684
manag ing</w> 10677
gu n</w> 10674
बि ग</w> 10672
form ation</w> 10672
ra f 10670
f ying</w> 10669
sens or</w> 10667
min utes</w> 10662
राजपू त</w> 10660
पु री</w> 10659
ve - 10657
disa p 10657
च लाने</w> 10656
si thar 10656
fi re.</w> 10654
प्रसार ण</w> 10653
चि त्र 10650
discus sion</w> 10650
पी एस 10648
पूं जी</w> 10644
स्क्र ीन</w> 10639
ल घु</w> 10638
presid ent,</w> 10638
दे शा 10636
l on 10635
कि म</w> 10635
स्रो त</w> 10635
ति माही</w> 10633
घा टी</w> 10633
छो टा</w> 10633
sun day</w> 10633
हटा ने</w> 10621
सा ई</w> 10620
वे यर</w> 10619
आंक ड़ों</w> 10618
t our</w> 10616
g row</w> 10616
शु द्ध</w> 10615
जिन की</w> 10614
di alo 10613
susp ended</w> 10612
in ner</w> 10607
ing ly</w> 10607
ऑफि स</w> 10606
आ या 10601
सफ र</w> 10601
direc tion</w> 10597
gov . 10597
आ समान</w> 10596
प्र कृति</w> 10596
pad uk 10596
( u 10595
ढ़ ी</w> 10595
स त्य</w> 10593
prac tice</w> 10593
d il 10591
ई )</w> 10591
7 3</w> 10589
inv ited</w> 10589
tr ack</w> 10587
बद्ध ता</w> 10587
देख कर</w> 10584
ऊ ँ 10582
udd in</w> 10582
ना मक</w> 10581
शिका य 10581
transpa ren 10581
न मू 10576
s d</w> 10575
िय न 10572
mas sive</w> 10569
st ly</w> 10566
सं भाव 10566
tra pati</w> 10565
कल् पना</w> 10564
reduc ed</w> 10564
गय े।</w> 10563
संक्र मित</w> 10563
ने हर 10559
assu red</w> 10559
ev ents</w> 10555
c p 10553
पौ लुस</w> 10552
for t</w> 10550
se g 10548
व्यव सा 10546
ay od 10545
शै तान</w> 10545
वृत् ति</w> 10545
y a,</w> 10541
p um 10541
टै क्स</w> 10541
चुनौ तियों</w> 10541
liqu id</w> 10541
पै सा</w> 10539
डिस् प्ले</w> 10539
सच् चाई</w> 10539
सि ल</w> 10538
सर्वे क्षण</w> 10538
वेस्ट इंडीज</w> 10533
जा निए</w> 10531
mumba i,</w> 10528
coll ec 10524
guid elines</w> 10523
th acker 10522
कि शो 10521
अभ्या स</w> 10519
ent ered</w> 10518
appe ar</w> 10516
s ind 10513
selec t</w> 10513
r ss</w> 10509
islam ic</w> 10509
ब म</w> 10507
अ ट 10505
no body</w> 10504
nes s,</w> 10504
ह टा</w> 10501
2 :</w> 10500
सं चालित</w> 10496
pur su 10496
distribu tion</w> 10496
the res</w> 10495
स् ना 10494
hom e.</w> 10492
s / 10491
fab ric</w> 10490
ष क</w> 10486
p ti 10485
reas ons</w> 10485
ro se</w> 10484
बैं क,</w> 10483
en se</w> 10482
de but</w> 10477
टे क</w> 10477
fem ale</w> 10473
met ro</w> 10472
प्रार ंभ</w> 10472
ay .</w> 10471
e yes</w> 10470
ता एं</w> 10469
ख े</w> 10468
मा ं 10468
w at</w> 10467
russi a</w> 10464
land s</w> 10463
वि जन</w> 10462
आप रा 10460
in ch 10459
you tu 10454
हि त 10450
विष यों</w> 10450
shif ted</w> 10449
फ े</w> 10447
ले श</w> 10447
mar uti</w> 10447
toge ther.</w> 10445
द स्त</w> 10444
in do 10444
की न</w> 10444
satur day</w> 10444
व्या पार 10442
g y 10441
का )</w> 10441
प्रस्ता वित</w> 10439
क् की</w> 10438
s ?	yes</w> 10437
स का</w> 10431
स् मृ 10429
pan de 10428
6 1</w> 10426
ख ी 10423
सिल सि 10420
र ज</w> 10419
कट ौती</w> 10418
cas es,</w> 10416
- - 10415
up dat 10414
t able 10411
ra ise</w> 10411
श ारी 10408
piec es</w> 10408
मद् दे 10408
gr ant</w> 10406
स त् 10404
ing ?</w> 10404
दिलच स् 10403
ध वन</w> 10402
मु ं 10402
सौ ंप</w> 10402
ए गा</w> 10401
no ted</w> 10401
कैं सर</w> 10399
खतर े</w> 10398
level s</w> 10398
का ंत</w> 10397
wei ght 10396
द त्त</w> 10394
injur ies</w> 10393
enc y.</w> 10392
becom ing</w> 10392
द् दा 10389
ेंग े.</w> 10389
exp end 10388
bod y.</w> 10388
v eter 10386
स्ट िक</w> 10384
शुरु आती</w> 10384
water proof 10382
land .</w> 10380
howe ver</w> 10377
रिश् ते</w> 10376
im posed</w> 10373
stat ement.</w> 10372
rainf all</w> 10372
ad equ 10371
definit ely</w> 10371
7 00</w> 10370
ड ों</w> 10369
उ द 10367
ए कता</w> 10365
ग् र</w> 10364
स् मि 10362
meet ings</w> 10362
innov ation</w> 10360
( नि 10357
ram .</w> 10357
system .</w> 10357
हिस्से दारी</w> 10356
clo th</w> 10352
धार कों</w> 10351
v .</w> 10350
ई ं 10350
m s.</w> 10349
एजें सियों</w> 10347
w oo 10346
charg e 10346
n um 10345
a id</w> 10345
belie ver 10342
तरी का</w> 10341
u es</w> 10340
for gi 10338
प् लान</w> 10337
चिद ंब 10337
7 6</w> 10334
खू ब 10334
मै ने 10332
लु ओं</w> 10324
हे ल् 10321
requi re 10320
सुरे श</w> 10318
नारा य 10317
आ ह् 10315
gujar at,</w> 10315
- year-old</w> 10312
लौ ट</w> 10312
अनु रूप</w> 10311
रिय ल</w> 10311
ंड ों</w> 10310
1 :</w> 10308
k is 10306
ac tors</w> 10302
कार्य काल</w> 10302
univer si 10302
मिश्र ा</w> 10300
x ia 10297
सर्वा धिक</w> 10297
coll ection</w> 10294
commit ment</w> 10293
बचा ने</w> 10293
prote sts</w> 10292
मि र</w> 10291
ment s.</w> 10290
संभा वित</w> 10288
ब चा</w> 10287
promis e</w> 10287
सिं ध 10284
mut ual</w> 10275
( g 10274
कि ता 10274
gre et 10274
माइ क्रो 10274
गुरु वार</w> 10271
क्रिके टर</w> 10266
अं दा 10265
concer n</w> 10263
ex port</w> 10261
consum er</w> 10260
g es</w> 10258
id ,</w> 10258
j er 10257
आपरा धिक</w> 10253
ty pes</w> 10251
us ive</w> 10250
em o 10250
sc ale</w> 10249
ess ed</w> 10249
v inc 10244
rel ating</w> 10244
d ress</w> 10233
pro min 10230
आध्यात् मिक</w> 10230
6 9</w> 10229
in e.</w> 10227
is ol 10226
भ रा</w> 10225
ध ता</w> 10222
जी वित</w> 10222
resid ents</w> 10220
भारती यों</w> 10220
premi er</w> 10218
त रह 10217
कि तने</w> 10216
vari ant</w> 10216
हुआ ,</w> 10214
fu el</w> 10214
श्रद्धां जलि</w> 10214
धन्य वाद</w> 10210
tex t</w> 10208
ला खों</w> 10206
इंटर नेशनल</w> 10206
त ट 10204
एफआई आर</w> 10204
दर् शकों</w> 10203
ठा करे</w> 10203
u200 d 10203
गा य 10201
शे य 10201
सड़ कों</w> 10201
प त</w> 10198
कि मी</w> 10197
रे ड्डी</w> 10197
ex hi 10194
ha m</w> 10192
बहु मत</w> 10191
एंग े।</w> 10190
अ यो 10188
al ong 10188
min or</w> 10187
ना ं 10186
एच डी 10186
गां वों</w> 10185
या ता 10183
सं यं 10182
नियंत्र ित</w> 10182
देख ना</w> 10180
रा ई</w> 10179
गृह मंत्री</w> 10179
t a,</w> 10178
sist er</w> 10172
डॉक् टरों</w> 10168
sen se</w> 10164
भ विष 10162
sh oul 10162
क म्प 10160
s ?	 10159
ल ्यू 10157
म ज़ 10156
विद्या लयों</w> 10156
ट् स 10153
al one</w> 10152
loo ked</w> 10150
effor t</w> 10149
con ve 10147
प्र माण</w> 10146
sha m 10144
sel fi 10142
आ ज 10141
is m,</w> 10141
la x 10140
war ,</w> 10139
fl ag 10138
देश भर</w> 10136
अका द 10136
ho st</w> 10135
jus tic 10134
inform ation,</w> 10132
ड् डा</w> 10127
भविष ्य 10126
camer a.</w> 10124
benef ici 10123
as i 10118
अनु कूल</w> 10116
झु ठ 10114
समुद्र ी</w> 10114
आई टी 10113
relev ant</w> 10110
de .</w> 10107
es 	 10102
parti ci 10102
wash ing</w> 10100
e ?	yes</w> 10099
oper ating</w> 10098
50 ,000</w> 10097
त ल</w> 10096
फ सल</w> 10096
co ol 10093
ह ृ 10092
लॉ जी</w> 10089
मृ तक</w> 10089
o ts</w> 10086
th a</w> 10083
expend it 10083
mal a</w> 10081
पु णे</w> 10078
क्रे डिट</w> 10076
m ol 10074
कोवि ंद</w> 10070
custod y</w> 10070
sa r</w> 10067
disa ster</w> 10067
अ ज्ञात</w> 10065
मान क</w> 10063
बैठ े</w> 10062
implement ed</w> 10062
उप - 10061
रे खा</w> 10060
चै नल</w> 10059
कैम रे</w> 10059
sc al 10058
ash ed</w> 10058
पै माने</w> 10058
happ en</w> 10058
प्ले ट 10058
sh et 10056
खा न,</w> 10056
बह स</w> 10054
से क्स</w> 10052
it es</w> 10049
te red</w> 10049
power ful</w> 10049
आ शी 10047
लि ंक</w> 10045
द ै 10043
jap an</w> 10043
did n't</w> 10042
distric t,</w> 10041
na i 10040
wad i</w> 10037
त त्व 10036
दी पक</w> 10036
शि क्षा 10034
an i 10033
ce o</w> 10033
sol ution</w> 10032
आदित्य नाथ</w> 10031
pra dhan</w> 10030
इस ने</w> 10027
niti n</w> 10026
lo se</w> 10024
खा ली</w> 10024
att ached</w> 10024
1 -1 10023
c ity.</w> 10020
इस को</w> 10020
h indi 10019
um .</w> 10018
देंग े।</w> 10018
आत्मह त्या</w> 10017
आय ु</w> 10016
j on 10015
ला इस 10014
ति त्व</w> 10014
regi on.</w> 10013
ar d,</w> 10012
पा ल 10010
मान सिक</w> 10010
गु ला 10003
दौ रा 10003
for th</w> 10000
के ं</w> 10000
पें शन</w> 10000
enter tain 10000
mo ving</w> 9999
inst all</w> 9998
वायु सेना</w> 9998
am ir</w> 9994
show ed</w> 9994
cr ude</w> 9992
promo tion</w> 9992
bu y 9991
अन ं 9990
ad ver 9987
उत्तरा खंड</w> 9987
b loc 9986
enjo y</w> 9986
जाए गा,</w> 9985
निर्दि ष्ट</w> 9985
dru g</w> 9984
तें दु 9981
es cap 9979
एक मात्र</w> 9978
ing 	yes</w> 9977
खे ले</w> 9977
does nt</w> 9974
sp ent</w> 9967
आमंत्र ित</w> 9967
whatsa pp</w> 9964
आ लिया</w> 9962
drag on</w> 9962
9 1</w> 9957
शि कार</w> 9957
audi o</w> 9957
accompan ied</w> 9957
स्पी ड</w> 9956
emerg ency</w> 9955
श राब</w> 9954
it ems</w> 9954
8 4</w> 9953
वा नी</w> 9953
down .</w> 9953
परेशा नी</w> 9947
b rah 9946
d - 9945
it 	 9945
birth day</w> 9943
con fl 9941
afghanist an</w> 9941
ट र,</w> 9939
are as.</w> 9937
te m</w> 9935
descri bed</w> 9931
perf ec 9930
usu ally</w> 9930
boo st</w> 9926
ज गत</w> 9925
mo re 9925
ण ु 9920
दाय िक</w> 9919
dist ance</w> 9918
क् का</w> 9917
नि तिन</w> 9916
integr ated</w> 9913
स्वच्छ ता</w> 9913
स पोर्ट</w> 9911
absolut ely</w> 9907
ड़ े 9905
is tic</w> 9904
odi sha</w> 9904
wi rel 9903
ne p 9902
8 3</w> 9901
al ised</w> 9901
खु ले</w> 9899
reco very</w> 9899
circum st 9898
install ed</w> 9897
mam ata</w> 9897
kill ing</w> 9895
चौ थे</w> 9893
gang a</w> 9893
be .</w> 9891
गय ी।</w> 9891
kid s</w> 9887
साक्ष ी</w> 9887
सी सी</w> 9884
ha .</w> 9881
es / 9881
f ran 9880
in e,</w> 9879
ter min 9879
जरू र 9877
docum ents</w> 9876
ho t 9875
टर् न</w> 9875
indi es</w> 9873
केन्‍ द्रीय</w> 9873
धा नों</w> 9872
( एम 9871
peopl es</w> 9871
आ शं 9870
ali zed</w> 9868
सब ूत</w> 9867
गर् व</w> 9866
par k</w> 9865
pol y 9864
द म 9863
con sequ 9862
स िया 9861
?	no .</w> 9861
fra me 9860
lif e,</w> 9857
t ap 9849
ri es</w> 9847
सी एस 9847
वि न</w> 9846
ले कि 9846
di vision 9845
श् त</w> 9845
cor responding</w> 9844
am bi 9843
ह र्ष 9840
per ha 9840
it s.</w> 9839
मा फी</w> 9838
सं दिग् 9838
ंत्र िक</w> 9838
mo squ 9833
सी ल</w> 9831
रि लायंस</w> 9830
su resh</w> 9829
it ?</w> 9828
poll ution</w> 9827
( अ 9824
दो हरा 9824
v ard 9823
सी तार 9822
ग ियों</w> 9821
सं कल्प</w> 9821
ci vil 9819
cr u 9819
सिद्धा ंत</w> 9819
at mo 9818
8 1</w> 9816
z ing</w> 9816
ef ul 9815
निर् देशों</w> 9814
fren ch</w> 9814
प्र क्रिया 9812
se l</w> 9812
are ,</w> 9812
इंड स्ट्र 9811
ob serv 9811
नेहर ू</w> 9811
वर् मा</w> 9810
war m</w> 9810
मनो ज</w> 9810
particip ation</w> 9809
विभि न्‍न</w> 9808
batt le</w> 9808
ज़ ी 9805
आह् वान</w> 9802
ter s,</w> 9801
l un 9800
br inging</w> 9800
respectivel y.</w> 9795
am rit 9793
pro sper 9793
श ता 9792
des er 9792
begin ning</w> 9792
l d 9791
ver ily</w> 9791
al ist</w> 9790
stak e 9790
mat ch 9789
मि त्र</w> 9788
नो ं,</w> 9788
vir us</w> 9786
( in</w> 9783
हो टल</w> 9783
द्र ो 9781
लि ए 9780
cricket er</w> 9780
tim es.</w> 9778
pro bab 9777
res ident</w> 9777
उन पर</w> 9773
पत्र कार</w> 9771
wh it 9769
form ul 9769
एल )</w> 9769
आदर् श</w> 9769
shi p,</w> 9765
कर ना,</w> 9762
k ill</w> 9760
मसी ह</w> 9760
ढ े 9757
d ha</w> 9754
टी 20</w> 9753
ची ज</w> 9751
लक्ष ् 9751
degre es</w> 9747
hon our</w> 9744
प्रोफे सर</w> 9743
ir on</w> 9739
chand ra</w> 9739
m ali 9738
l ets</w> 9733
w al,</w> 9732
ग ार 9732
डेवि ड</w> 9731
ab ly</w> 9729
20 21 9727
चो री</w> 9726
याता यात</w> 9726
administra tive</w> 9725
जा हिर</w> 9723
उपभो क्ता</w> 9723
on es 9722
haryan a,</w> 9722
शारी रिक</w> 9720
शरी फ</w> 9719
adv anced</w> 9718
ब सपा</w> 9717
ro man 9717
w ind 9715
s low 9709
man ner</w> 9709
चिदंब रम</w> 9707
औ प 9706
comp et 9705
chandi garh</w> 9705
nav y</w> 9704
i p</w> 9702
gr and 9702
boo ked</w> 9702
reque sted</w> 9702
छ े 9694
वा ता 9694
अनु सूचित</w> 9694
वि भागों</w> 9693
at e,</w> 9692
part ner</w> 9692
mak er</w> 9691
promo ting</w> 9690
श नों</w> 9689
v ad 9688
to - 9688
up ,</w> 9685
pil low</w> 9684
f s</w> 9682
का नों</w> 9682
ख ण्ड</w> 9681
कॉ र 9681
ion ,</w> 9681
tonn es</w> 9680
fif th</w> 9679
su gg 9676
चि त्र</w> 9676
ro b 9674
एसोसि एशन</w> 9674
ग ए,</w> 9673
र च 9672
नती जे</w> 9672
क स</w> 9671
झ ग 9671
स्टे डियम</w> 9668
ंड ी</w> 9666
बै क</w> 9666
prac tic 9666
आ मिर</w> 9663
प्रशं सा</w> 9663
di men 9662
ब् लॉ 9658
ज़ा र</w> 9658
pur po 9657
ban king</w> 9654
उ त 9652
आका श</w> 9652
ख )</w> 9650
ch er 9650
hon da</w> 9650
p a</w> 9645
म ो</w> 9642
प्र भारी</w> 9642
कि रा 9642
टॉ प</w> 9641
fi re 9640
bo ys</w> 9639
जो ड़ी</w> 9639
chand ra 9633
wish es</w> 9633
cc tv</w> 9632
suppor ting</w> 9632
जि क्र</w> 9626
alter n 9625
वाणि ज्य</w> 9624
स् कोर</w> 9623
l ack</w> 9619
यु क्‍त</w> 9619
के ,</w> 9618
शि वि 9617
cho ose</w> 9616
des igned</w> 9615
rajasth an,</w> 9614
vide os</w> 9613
attemp t</w> 9611
ag ing</w> 9609
सी ए 9606
windo ws</w> 9605
polic em 9604
tro op 9604
0 - 9602
ज ौ 9601
g ha 9600
p it 9600
re sur 9596
qu ick 9596
दिग् गज</w> 9594
ver si 9589
यूरो प</w> 9589
आ कर</w> 9588
sugg es 9588
खा ता</w> 9585
hol d 9585
situ ation.</w> 9581
sustain able</w> 9580
कै द</w> 9576
जा तियों</w> 9573
reco gn 9573
il a</w> 9572
पा लिका</w> 9570
ob served</w> 9570
गुज रा 9570
eff ici 9568
rupe e</w> 9568
भाष ाओं</w> 9566
op tions</w> 9564
sec tors</w> 9562
id es,</w> 9560
" it</w> 9559
con serv 9559
वी र 9555
what 's</w> 9554
ज़ मीन</w> 9552
fall s</w> 9552
ल ेंस</w> 9550
ग ह 9547
banglad es 9546
pur .</w> 9545
विचार -वि 9545
suff icient</w> 9544
cre ation</w> 9543
congres s,</w> 9541
har sh</w> 9540
develop ment.</w> 9539
स्मृ ति</w> 9539
ड ियो 9537
अड् डे</w> 9537
परं तु</w> 9537
ban erjee</w> 9536
s and 9534
प्र भार 9534
ल् ट</w> 9534
hear ts</w> 9534
ne pal</w> 9533
em a</w> 9532
drin king</w> 9532
प्रोत्सा हन</w> 9532
अल्प संख्य 9531
फ् लै 9529
ol d 9528
ni f 9528
ar un 9527
o ds</w> 9523
ti es,</w> 9521
एन आर 9521
रि स</w> 9520
ठो स</w> 9520
australi an</w> 9516
धि कारी</w> 9515
g el</w> 9513
inn ings</w> 9509
bu t,</w> 9508
ra ins</w> 9505
इ कट् 9504
in str 9504
कार ा</w> 9502
st able</w> 9500
अं त 9500
ट्रो ल</w> 9499
	 it's</w> 9497
sin ha</w> 9497
क वि 9496
पंचा यत</w> 9496
spo t 9493
cre am</w> 9492
अमरी का</w> 9491
particip ate</w> 9489
म ण 9486
िय े।</w> 9486
दि रा</w> 9485
राज ्‍ 9485
करें ,</w> 9483
लि हा 9482
सं ग्र 9479
शै ली</w> 9479
मा ता- 9478
पु स्त 9478
त्‍ य 9477
हि तों</w> 9476
इंड िया 9476
m ic</w> 9472
\ ""</w> 9467
pr oud</w> 9467
उड़ा न</w> 9466
disp ute</w> 9464
	 this</w> 9463
sa in 9463
चु ने</w> 9463
hospit als</w> 9462
परामर् श</w> 9462
मि साल</w> 9458
आप स</w> 9458
फे ल</w> 9458
साथ ,</w> 9458
मूल ्या 9458
ब्र ह् 9457
is m.</w> 9456
ext end</w> 9456
approx im 9456
: -</w> 9454
घ ू 9454
प्र भु 9454
ई .</w> 9453
obj ective</w> 9452
आ ख़ि 9451
र मेश</w> 9450
परि चालन</w> 9448
ran bir</w> 9447
दृ ढ़</w> 9447
lan k 9447
ियन शिप</w> 9447
थो ड़ा</w> 9444
sugge sted</w> 9444
पर ा</w> 9443
ह ता 9441
ओ पन</w> 9441
ंग ी</w> 9441
photo s</w> 9441
रा ग</w> 9440
tre ated</w> 9440
gup ta</w> 9439
गड करी</w> 9437
सं सार</w> 9435
संशो धित</w> 9435
m ar</w> 9434
त ट</w> 9434
re p 9434
again .</w> 9433
w ,</w> 9430
ना यक</w> 9430
रो मा 9430
e an</w> 9429
su z 9429
बो ल</w> 9429
ऋ ष 9427
ह रि 9426
af for 9426
उपलब् ‍ 9426
प द् 9425
ann a</w> 9425
advis ed</w> 9423
ट्यू ट</w> 9423
बं दर 9422
भार ती</w> 9420
worl ds</w> 9420
2018 -19</w> 9420
i ze</w> 9418
f requ 9418
दू ध</w> 9416
nut ri 9416
मं द</w> 9414
pri ority</w> 9414
countr ys</w> 9411
custom ers</w> 9411
8 2</w> 9408
histor ic</w> 9408
u d</w> 9406
हि द</w> 9404
com ment</w> 9399
वर्ष ा</w> 9399
व्य ू</w> 9395
re vel 9394
en forc 9394
समझ ने</w> 9394
wee k.</w> 9393
प ंड 9392
कि त</w> 9392
fe e</w> 9392
writ ing</w> 9392
ख ब 9391
high ly</w> 9390
केंद्र ों</w> 9390
t ask</w> 9389
2 ,000</w> 9389
panchay at</w> 9389
ऑ क् 9387
अं कों</w> 9387
रण बीर</w> 9387
sing h 9386
अयो ध्या</w> 9386
ev ol 9385
decis ions</w> 9385
s om 9384
शु भार 9384
रु प</w> 9382
मह त्‍ 9382
ev ent 9381
12 8gb</w> 9380
se ems</w> 9376
ग् लो 9374
resour ce</w> 9374
ris ing</w> 9373
dis play 9372
north ern</w> 9371
snap dragon</w> 9366
योज न</w> 9365
christi ans</w> 9365
competi tion</w> 9364
c es,</w> 9363
p in</w> 9363
at trac 9363
या ं</w> 9362
ब ें 9361
sur ing</w> 9361
ते ज 9359
साय िक</w> 9358
र व</w> 9357
wo od 9357
मुसल मानों</w> 9357
beha vi 9357
remo ved</w> 9356
दु ष् 9352
russi an</w> 9352
भ ड़ 9351
( 2 9349
दोपह र</w> 9348
एक्स प्रेस</w> 9347
il ing</w> 9346
intellig ence</w> 9346
म ्र 9345
परि स्थितियों</w> 9345
ac tor 9341
sha n</w> 9340
p ending</w> 9337
लिख े</w> 9337
कॉर पो 9336
डा टा</w> 9335
e k 9334
s i</w> 9329
progra m</w> 9328
back .</w> 9327
ali ,</w> 9325
पक ड़</w> 9325
रण नीति</w> 9323
फ़ा इल</w> 9323
wif i</w> 9321
फी चर्स</w> 9320
से मी 9316
d res 9315
स ौर</w> 9315
शि ल् 9315
sid e.</w> 9315
vic tor 9313
detail ed</w> 9309
सर दार</w> 9308
सीसी टीवी</w> 9302
sa udi</w> 9301
को ट</w> 9300
झू ठ</w> 9298
त्र ा 9296
yadav ,</w> 9295
कुल दीप</w> 9294
p s.</w> 9292
h rs</w> 9290
mi x</w> 9289
mor tem</w> 9289
का ।</w> 9287
mumba i:</w> 9287
profession al</w> 9287
- 21</w> 9286
electr onic</w> 9286
निस् संदेह</w> 9286
as king</w> 9285
b ound 9284
पा दु 9283
be ar</w> 9282
c m 9279
- e- 9278
सं स्‍था 9277
cha in</w> 9276
ं ति</w> 9274
as ser 9274
ऑ टो 9272
i e</w> 9270
सच्च े</w> 9270
जॉ न</w> 9269
डि ़ 9267
i o</w> 9265
d han 9265
वाणि ज्य 9264
प्रत्या शी</w> 9264
र वाना</w> 9263
eas e</w> 9262
कारो बारी</w> 9262
bj p,</w> 9261
attac ked</w> 9261
id .</w> 9256
wel come</w> 9256
bro ke</w> 9254
ent r 9253
स ना</w> 9252
perman ent</w> 9250
wom en.</w> 9249
sp end</w> 9248
wed ding</w> 9248
aj it</w> 9247
अस्पता लों</w> 9246
कला कार</w> 9243
confl ic 9243
नि कल 9241
स ला</w> 9240
il legal</w> 9240
add ing</w> 9240
धम की</w> 9240
cott on 9239
mano j</w> 9239
b lock</w> 9238
बॉ ल</w> 9238
ab ra 9237
टा ने</w> 9232
friend ly</w> 9232
आएंग े।</w> 9231
aadha ar</w> 9231
प थ 9230
pol iti 9230
ली ल</w> 9227
8 6</w> 9226
win ter</w> 9224
इं स्टी 9222
सदस् य 9222
v ation</w> 9221
म ले 9221
करने ,</w> 9221
ram esh</w> 9220
को ष</w> 9215
उपा यों</w> 9212
ए टी 9210
kar i</w> 9209
cir cul 9206
cre d 9205
d up 9204
-1 5</w> 9203
सां सद 9203
depart ments</w> 9203
4 :</w> 9201
la ,</w> 9200
आ स्ट्रेलिया</w> 9199
उत् कृ 9199
cele bra 9196
. 	yes</w> 9195
मुख ्यालय</w> 9194
judg es</w> 9193
संसा धनों</w> 9191
kol kat 9183
उ ंड</w> 9181
stand ards</w> 9178
adityan ath</w> 9178
exp ect 9177
एयर पोर्ट</w> 9177
सीई ओ</w> 9177
यू जर्स</w> 9176
rash trapati</w> 9176
4 gb</w> 9174
technolog y,</w> 9174
हालाँ कि</w> 9174
po ver 9173
गू गल</w> 9173
chhattis garh</w> 9170
म त् 9169
simil arly,</w> 9166
telev ision</w> 9164
चाल ू</w> 9163
मांग ी</w> 9161
ला ।</w> 9160
k ia</w> 9159
deleg ation</w> 9159
wick et</w> 9156
ह वाले</w> 9154
cle arly</w> 9154
अहम दाबाद</w> 9151
म - 9150
मी ,</w> 9147
applic ations</w> 9147
है !</w> 9144
stre am 9144
पूर् ण 9143
sty le</w> 9143
को ं,</w> 9142
r j 9140
च य 9140
ख ो</w> 9140
हा नि</w> 9140
समझ ा 9140
co o 9139
पिछ ली</w> 9136
pass ing</w> 9135
समझ ते</w> 9134
बढ़ ते</w> 9132
3 rd</w> 9131
sha k 9130
धी रे</w> 9130
क् ल 9124
long er</w> 9123
arch it 9123
भट् ट</w> 9119
विचार-वि मर्श</w> 9118
ic ic 9117
कहा , 9117
im pres 9116
महि ं 9116
f low</w> 9114
बाद ल</w> 9113
प्र ता 9110
8 9</w> 9108
hand le</w> 9108
र कम</w> 9105
बड़ े</w> 9104
ह ारी</w> 9103
ची जें</w> 9102
es sing 9101
र ौ 9100
is c 9099
m ass 9098
ह जारों</w> 9097
म रीज</w> 9095
cha ud 9095
de d,</w> 9094
पड़ा ।</w> 9094
us e.</w> 9092
जो शी</w> 9089
प त्रि 9085
ऑ र् 9083
lt d</w> 9083
ang el 9082
our s</w> 9080
vo ting</w> 9080
मरा ह</w> 9080
nation .</w> 9079
ob vi 9079
incid ents</w> 9079
ri g 9077
cont ent</w> 9076
rul ed</w> 9075
जह न् 9074
न शील</w> 9073
k new</w> 9070
p s,</w> 9068
en counter</w> 9067
पार ं 9067
व पूर्ण</w> 9065
परिणा म 9065
con trac 9064
जी व 9064
alla h.</w> 9062
पु रानी</w> 9060
spor t</w> 9059
लड़ ने</w> 9056
मे ज 9054
सा जि 9053
दर वा 9052
2. 5</w> 9051
congratul ated</w> 9051
isra el 9047
मध ु 9045
deli very</w> 9045
st ation.</w> 9044
ने वाली</w> 9042
रे प</w> 9040
पह ले,</w> 9038
पूछ े</w> 9038
brid ge</w> 9036
अ म् 9034
ne d.</w> 9034
perha ps</w> 9032
वे द</w> 9031
1 1, 9025
टी - 9024
mas k</w> 9023
आय कर</w> 9023
लखन ऊ</w> 9023
an as 9021
hon or</w> 9019
लेकि न,</w> 9019
com prehen 9015
nir mala</w> 9015
( 2)</w> 9014
promis ed</w> 9014
co vers</w> 9013
am id</w> 9012
ब ई</w> 9011
णा ,</w> 9011
di w 9006
koh li 9005
or a</w> 9003
ref u 9003
regist er</w> 8999
को र् 8998
पार दर् 8998
smo oth</w> 8998
consid er 8997
man tri</w> 8995
affair s,</w> 8995
promin ent</w> 8995
wom ens</w> 8993
मद्दे नजर</w> 8993
सा स</w> 8992
offic e.</w> 8992
निर् मला</w> 8991
कृ प 8991
hour s.</w> 8991
श िक</w> 8988
politi ci 8988
c s</w> 8987
दक्षि णी</w> 8986
team .</w> 8983
दस्तावे ज</w> 8982
day s,</w> 8980
bal ance</w> 8980
war i</w> 8976
comp on 8976
f its</w> 8972
mag ist 8966
ra .</w> 8965
दे खि 8962
रा ,</w> 8961
स्‍वा स्‍थ 8960
भ री</w> 8959
नी तियों</w> 8959
s ri 8958
पु र् 8958
n da</w> 8957
सं ग्रह</w> 8957
vol un 8956
enh ance</w> 8955
de ad 8954
मि साइ 8953
उप स्थिति</w> 8951
lim it</w> 8951
as k 8950
mus e 8948
n d 8946
कहा ।</w> 8946
er 	yes</w> 8945
अ चा 8942
pro fit</w> 8939
इं स</w> 8939
suz uk 8939
eng aged</w> 8937
न ।</w> 8936
et c. 8936
car ds</w> 8936
fi g 8933
8 8</w> 8928
br on 8928
पै के 8928
int end 8927
no t.</w> 8924
mahind ra</w> 8924
icic i</w> 8924
धार णा</w> 8923
arm s</w> 8922
नही ं.</w> 8922
शि क्षक</w> 8920
जु ड़ा</w> 8920
कोय ला</w> 8919
near by</w> 8919
झ े</w> 8916
कै सा</w> 8915
100 %</w> 8915
कंप नियां</w> 8914
मार् क</w> 8913
r .</w> 8909
ए प</w> 8909
स फाई</w> 8907
xia omi</w> 8907
ear th,</w> 8905
curren t 8905
e v</w> 8904
ord er.</w> 8903
elec tor 8903
जर् मन</w> 8903
प्र वर्त 8902
2016 -17</w> 8902
valu es</w> 8901
an te 8898
ti tle</w> 8896
sel ling</w> 8893
process ing</w> 8893
quanti ty</w> 8893
सु ष 8892
गि र</w> 8889
vo t 8888
f t 8886
pil gri 8886
cr uc 8885
ह ियों</w> 8884
cha m 8884
h it 8881
" this</w> 8881
( यू 8880
फ् टी</w> 8877
जग हों</w> 8876
बे टा</w> 8875
श्री नगर</w> 8874
प्रदर्शन कारियों</w> 8874
( और</w> 8873
दे ं।</w> 8873
flipkar t</w> 8872
under way</w> 8870
ques tion 8870
n er.</w> 8869
arg u 8868
‍ ि 8867
की मत 8867
घटना स्थल</w> 8866
अ स् 8865
ant i</w> 8865
thak ur</w> 8865
lo ans</w> 8863
dec ide</w> 8863
शता ब् 8863
कपू र,</w> 8862
recru it 8862
cor rid 8861
h p</w> 8858
ger man 8858
वि ज्ञा 8857
जे एन 8855
200 6</w> 8854
भे द</w> 8854
प्रति बद्धता</w> 8850
deli vered</w> 8850
exper ts</w> 8850
th ings.</w> 8849
ag e 8847
दि खा</w> 8847
volu me</w> 8847
व्यव स्था 8844
to ward</w> 8843
z a</w> 8842
सिं गा 8842
per mission</w> 8840
पारं परिक</w> 8839
साइ ड</w> 8838
9 3</w> 8836
स् तों</w> 8834
ड ेंट</w> 8833
बंध ित</w> 8833
साहि त्य</w> 8832
ma .</w> 8830
च ेंज</w> 8829
re forms</w> 8829
new sp 8829
arrang ements</w> 8829
एम एस</w> 8827
री ना</w> 8825
मुठभे ड़</w> 8825
director ,</w> 8822
compris ing</w> 8822
ed ge</w> 8821
जाएंग े</w> 8821
societ y.</w> 8821
पोर् टल</w> 8820
ing u 8819
pre gn 8819
mus lim 8818
लो न</w> 8817
organiz ation</w> 8817
kul deep</w> 8816
s ound 8815
pow ers</w> 8815
माता- पिता</w> 8815
ंग ु 8814
मुझ से</w> 8812
bi ke</w> 8810
lim it 8809
साइ किल</w> 8808
enter pris 8808
di e</w> 8807
मृत कों</w> 8807
आ ँ 8803
ऑ स्ट्रेल 8803
bihar ,</w> 8803
5 g</w> 8800
गि रो 8800
jour ney</w> 8800
आप त् 8799
strength ening</w> 8799
fac t,</w> 8798
quo ted</w> 8798
सफ ल 8797
democr acy</w> 8797
ल द्दा 8795
रै ंकिंग</w> 8795
ag o</w> 8794
आजा दी</w> 8794
8 7</w> 8793
प्रति बद्ध</w> 8793
करवा या</w> 8791
दी .</w> 8789
charac ter</w> 8788
ed y</w> 8786
s lo 8783
न मा 8780
स् मार्ट</w> 8779
ne hr 8779
ऑपरे शन</w> 8779
व क्‍त</w> 8778
ल ड़</w> 8776
अ ह 8776
work ,</w> 8775
cl ari 8774
गा ड़ी</w> 8773
बे स</w> 8773
educ ation,</w> 8769
पुरु षों</w> 8769
आप सी</w> 8767
पेश कश</w> 8765
कच्च े</w> 8765
ty pe 8764
एफ )</w> 8764
thre at</w> 8764
r on</w> 8763
s ,"</w> 8761
स् की 8760
टी में</w> 8759
m ps</w> 8758
े ?</w> 8758
ग ौर</w> 8758
यू निय 8758
कमा ई</w> 8755
बा ई</w> 8754
har mon 8752
नामा ंकन</w> 8752
ट कों</w> 8751
tec h 8751
il e 8750
multi - 8750
हो गी.</w> 8749
sust ained</w> 8749
govern ance</w> 8748
विशेष ज्ञ</w> 8748
वि परी 8747
कार्या न्वयन</w> 8746
constitu tional</w> 8745
requ ire</w> 8743
death .</w> 8743
इंजीनिय रिंग</w> 8743
cas es.</w> 8741
gu ide</w> 8741
ght ers</w> 8741
k it 8740
सं वाद</w> 8739
y 	 8738
high ligh 8738
प शु 8737
ic it 8736
ho c 8735
care er</w> 8734
pre et</w> 8732
सब को</w> 8732
chang ing</w> 8732
th ro 8731
सं वैधानिक</w> 8731
200 5</w> 8729
ज़ि ंदगी</w> 8729
atmo sp 8729
हू र</w> 8728
ता ंत्रिक</w> 8727
be half</w> 8726
fal se</w> 8725
अचा नक</w> 8724
मो टर</w> 8721
pack age</w> 8721
ओ )</w> 8720
vis iting</w> 8718
li ghts</w> 8717
off ering</w> 8714
stric t</w> 8714
शेय रों</w> 8714
ण ियों</w> 8713
m ill 8711
ww w. 8710
शर द</w> 8710
men tion</w> 8709
प ति,</w> 8708
न सी 8706
नी ला 8706
ener g 8706
discus sions</w> 8706
स ऊ 8705
सक ें।</w> 8704
vis ed</w> 8704
समझ ा</w> 8702
0 1</w> 8701
rupe es</w> 8701
fi ve- 8700
lad ak 8699
di am 8698
resur rec 8697
टु क 8696
नि भा</w> 8694
ऊ ंचा 8693
अ टल</w> 8692
cl in 8692
pur pos 8692
who ever</w> 8691
क ौर</w> 8690
ता पूर्वक</w> 8689
es 	yes</w> 8688
a im</w> 8687
incl u 8687
ear th.</w> 8686
ta il</w> 8686
uttarak hand</w> 8686
u red</w> 8684
फ ्रे 8684
women 's</w> 8683
मि ली 8681
softw are</w> 8679
वा ं 8677
बढ़ा कर</w> 8677
l ond 8675
car d 8675
ble ,</w> 8674
जीत कर</w> 8668
ें .</w> 8664
fav our</w> 8662
सुविधा एं</w> 8662
12 8</w> 8661
प्राइ वेट</w> 8661
tra di 8660
! "</w> 8657
12 th</w> 8656
प्रतिनि धियों</w> 8656
hur t</w> 8656
को )</w> 8654
पी सी 8654
de ad.</w> 8652
mo to</w> 8652
भ ले</w> 8650
क़ ु 8650
passeng er</w> 8649
9 6</w> 8646
च र 8646
newsp ap 8646
c ad 8645
ार ,</w> 8645
m s 8644
ag es.</w> 8641
इंड ो 8641
ish ing</w> 8640
pl e.</w> 8637
scienti sts</w> 8636
एंड ्र 8635
democr ac 8635
y el 8629
e ar</w> 8627
run s.</w> 8627
5 :</w> 8626
( h 8626
u . 8624
शि ंग 8623
su ggest</w> 8622
mar ath 8620
हम ला 8617
k ang 8616
bes ides,</w> 8616
super intend 8616
भू कंप</w> 8615
join ing</w> 8614
सुष मा</w> 8613
them sel 8612
इं दिरा</w> 8611
भी )</w> 8611
col on 8609
10 th</w> 8608
actu al</w> 8608
आम तौर</w> 8608
lond on</w> 8608
ट अप</w> 8607
1 ,0 8606
m al</w> 8606
श े</w> 8604
phon e.</w> 8603
प्र सार</w> 8602
neg ative</w> 8601
विरा सत</w> 8599
द्वि तीय</w> 8598
का लिक</w> 8597
वि केट 8596
hund red</w> 8595
अ खिल</w> 8594
the e</w> 8594
sa hi 8594
बर करार</w> 8593
a ur 8592
' ll</w> 8592
ram a</w> 8592
कप्ता न),</w> 8588
h es</w> 8586
wa it</w> 8585
rub ber</w> 8585
gur u</w> 8584
ra ti 8583
man ual</w> 8583
defe ated</w> 8583
कर् मी</w> 8582
ज़रू री</w> 8582
टे ज</w> 8580
आवा ज</w> 8579
क क्ष</w> 8577
फी सद</w> 8576
जता या</w> 8576
autom atic</w> 8576
अधि सूचना</w> 8575
जागरू कता</w> 8575
पंजी करण</w> 8573
wa iting</w> 8570
sub mit</w> 8570
cb se</w> 8569
l ay</w> 8568
j al 8567
ची ज़ 8567
situ ated</w> 8567
ज स 8563
cel si 8561
an t,</w> 8560
िय त</w> 8560
ga in</w> 8556
head s</w> 8556
प्रति ष् 8555
t ren 8553
शां ति 8553
जा तीय</w> 8552
9 8</w> 8547
सीतार मण</w> 8546
ं व</w> 8545
go al</w> 8545
sou l</w> 8545
फॉ र</w> 8545
गढ़ ,</w> 8545
क्र ू 8544
गो ली 8544
इन का</w> 8544
दी र् 8543
ro h 8541
बै ंकिंग</w> 8541
ंकि त</w> 8541
achiev ed</w> 8541
आशं का</w> 8541
g e,</w> 8540
indi ra</w> 8538
sur face</w> 8538
exam s</w> 8538
( a 8537
फ िया</w> 8537
जु ला 8536
खरीद ने</w> 8536
त ल 8533
sha hid</w> 8533
mp tion</w> 8533
moun tain 8532
be at 8531
bj ps</w> 8531
lin ked</w> 8531
hospit al,</w> 8531
mis sing</w> 8528
month s.</w> 8528
अन ्य 8528
ज पे 8526
es si 8526
war a</w> 8526
sh im 8525
is ation</w> 8522
pr ise</w> 8522
ed it 8521
red dy</w> 8520
cris is</w> 8515
तरी कों</w> 8513
suff ering</w> 8513
कैप् टन</w> 8513
accoun t.</w> 8509
tou ri 8509
coun t</w> 8508
चु न 8508
wa ve</w> 8508
बढ़ ा 8506
सेल् फी</w> 8505
am bass 8504
g a</w> 8502
9 7</w> 8502
anc y</w> 8502
प्र वासी</w> 8498
co sts</w> 8498
tro ph 8497
शा खा</w> 8496
नज दी 8494
गो ल</w> 8493
r s 8492
वि मान 8490
मो टर 8490
9 2</w> 8488
up per</w> 8488
भ जन</w> 8485
ambass ad 8484
co ast 8483
pl i 8482
नि देशा 8482
कर ना 8478
jo bs</w> 8478
9 4</w> 8475
sec re 8475
क़ ौम</w> 8473
am ong 8472
मार् च,</w> 8471
greet ings</w> 8470
बै रल</w> 8469
आ ना</w> 8468
ra vi</w> 8467
पाय लट</w> 8467
t ag 8466
इ ब्रा 8466
e k</w> 8461
manufac ture 8459
खे ती</w> 8458
lo ved</w> 8457
वे ज</w> 8457
बना ते</w> 8457
बला त्कार</w> 8457
न ू</w> 8455
no ,</w> 8455
dro p</w> 8455
बा जारों</w> 8452
rend er</w> 8451
शा हिद</w> 8450
nehr u</w> 8449
द्ध ा</w> 8448
lord .</w> 8448
3 00 8442
	 2</w> 8439
च ंद</w> 8439
ke e 8439
g e.</w> 8438
1. 0 8437
bra z 8434
sithar aman</w> 8434
bot tom</w> 8433
अभिष ेक</w> 8432
फ् ट 8431
9 00</w> 8429
li sted</w> 8428
मिल ी।</w> 8428
कंप ्यूटर</w> 8428
under stand 8426
sector .</w> 8426
पॉ जि 8425
k y 8424
am y</w> 8423
ab his 8423
mer ci 8423
\\xa 0 8423
mar ty 8422
मस्जि द</w> 8421
ab ad 8420
f ar,</w> 8418
ले ता</w> 8418
profess or</w> 8418
b ound</w> 8417
constitu ted</w> 8417
adequ ate</w> 8417
ध ्र 8416
सू क्ष 8416
resol ve</w> 8416
now .</w> 8414
h ill 8413
also .</w> 8412
प्रार ंभिक</w> 8410
clas si 8410
कि ंग्स</w> 8408
अके ले</w> 8407
su n</w> 8406
मूल्या ंकन</w> 8406
प्रती क</w> 8405
क् ताओं</w> 8404
आई एम 8404
एनसी पी</w> 8404
s bi</w> 8401
सर कार 8401
ro ll</w> 8396
an a,</w> 8395
a amir</w> 8393
be ,</w> 8393
?? ?? 8393
emp has 8393
सेवा नि 8392
ण ु</w> 8390
- up</w> 8388
चा ंदी</w> 8388
pres cri 8388
ची जों</w> 8388
प ति 8387
bat ting</w> 8387
सऊ दी</w> 8387
7 9</w> 8386
s ets</w> 8385
me gh 8384
रह ेंगे</w> 8383
( 5 8380
र ्र 8380
जान ने</w> 8380
पहुंच े।</w> 8375
निर् धारण</w> 8374
प ने</w> 8372
जा ओ 8372
बढ़ा या</w> 8372
भेज ने</w> 8372
fund am 8371
among st</w> 8371
ो ं 8369
टा ई</w> 8367
फ़ ै 8367
\\ u200d 8367
ल ेंगे</w> 8366
3 50</w> 8365
ना र</w> 8363
पश्चा त</w> 8363
en suring</w> 8362
anal ys 8361
ger many</w> 8360
pres er 8359
kam al</w> 8359
sho p</w> 8356
law .</w> 8356
ou t,</w> 8355
facilit ate</w> 8353
आ ए।</w> 8352
lak hs</w> 8351
stop ped</w> 8350
मंत्र ी,</w> 8347
आव श्‍ 8347
abhis he 8346
व री 8344
far m</w> 8343
मार्ग दर्शन</w> 8343
bh us 8342
त क,</w> 8340
वाय दा</w> 8340
individu als</w> 8340
sug ar</w> 8339
for war 8337
fac es</w> 8337
h id 8336
con testing</w> 8336
com par 8334
त िया 8333
मा ँ</w> 8333
ko vind</w> 8333
ment )</w> 8332
मश हूर</w> 8332
ni a</w> 8331
the y 8330
लु क</w> 8330
ले न</w> 8329
उ ल 8324
devic es</w> 8324
म छ 8323
म् प</w> 8323
इ ज 8321
चं द्र</w> 8321
so ever</w> 8320
ज ब् 8319
fut ure.</w> 8319
वाता वरण</w> 8316
ra s</w> 8315
announc ement</w> 8315
ईं धन</w> 8314
स्‍वास्‍थ ्‍य</w> 8314
report edly</w> 8311
ध क</w> 8309
pa war</w> 8309
रॉ य</w> 8309
finger print</w> 8307
d c</w> 8306
al ities</w> 8305
demand s</w> 8305
भार ् 8304
ep tion</w> 8304
छा न 8304
सी .</w> 8303
fel low</w> 8303
लि ए।</w> 8302
विस्फो ट</w> 8302
er a</w> 8301
fad nav 8296
र वी 8295
आतंक ियों</w> 8295
congres s.</w> 8295
it 	yes</w> 8294
सिय स</w> 8294
ल िया 8293
chap ter</w> 8293
vis it 8292
बि न</w> 8290
r um 8288
karnatak a,</w> 8288
शैक्ष णिक</w> 8287
con sci 8285
वैज्ञा निकों</w> 8285
- led</w> 8281
washa ble 8281
आक लन</w> 8281
% )</w> 8280
seri es.</w> 8279
निवे शकों</w> 8279
क वर</w> 8278
यु ग</w> 8278
वि विध 8275
उप युक्त</w> 8275
विश्‍ व</w> 8271
mic ro</w> 8270
बू ल</w> 8270
r b</w> 8269
fil es</w> 8269
हो .</w> 8268
not es</w> 8266
ड ॉ</w> 8265
भ य</w> 8264
e ye</w> 8263
मध्य म</w> 8263
inve stors</w> 8262
nar zo</w> 8262
sa v 8261
larg er</w> 8261
पत्र कारों</w> 8261
compl ex</w> 8260
re min 8259
ass ets</w> 8258
construc ted</w> 8256
वर् ड</w> 8255
उप करणों</w> 8255
shar ad</w> 8254
क लर</w> 8253
wel com 8253
अनु भ 8251
cro ss</w> 8250
doub t</w> 8247
प्रोसे सर</w> 8247
न ती</w> 8246
hi ,</w> 8244
प् लस</w> 8241
क ठो 8239
ह ल 8238
पे शे 8238
u ts</w> 8237
ou se</w> 8237
सम ग्र</w> 8237
w ire</w> 8236
मह ेंद्र</w> 8236
कानू नों</w> 8236
ह त्या 8235
wom en,</w> 8233
च ि</w> 8231
fin ally</w> 8231
appoint ment</w> 8231
stu dies</w> 8229
अ दा</w> 8228
] ,</w> 8226
el se</w> 8225
n i</w> 8224
prop he 8224
ve re 8223
खि ताब</w> 8223
wee ks</w> 8223
a er 8222
शि क्षकों</w> 8221
un less</w> 8220
ट ें 8219
hus band 8218
मि न</w> 8217
exp ect</w> 8216
dou bl 8214
लिख ी</w> 8213
जरू र</w> 8213
शि व</w> 8212
चार् य</w> 8209
witness ed</w> 8209
करेंग े.</w> 8208
पहुंचा ने</w> 8207
कर )</w> 8206
देंग े</w> 8206
पीड़ िता</w> 8205
leav ing</w> 8205
‘ ‘</w> 8204
ec t.</w> 8204
मु ँ 8202
s ard 8200
‍ य</w> 8200
सा ,</w> 8200
पा ते</w> 8199
ra i</w> 8198
पढ़ ाई</w> 8198
ar ity</w> 8196
stud ents.</w> 8196
descri p 8195
mal e</w> 8193
क् टि 8192
ट ियों</w> 8191
forc ed</w> 8191
ए कल</w> 8189
201 3 8188
compens ation</w> 8187
j in 8186
बॉ स</w> 8186
well - 8186
व ारा 8185
an i,</w> 8185
मे क</w> 8185
शु रु</w> 8184
resid ence</w> 8184
cla use</w> 8182
आइ ए</w> 8181
impro ving</w> 8178
उप योग 8177
पै नल</w> 8176
colleg es</w> 8176
तथ ्य</w> 8174
दो ष</w> 8173
क मान</w> 8170
दर् द</w> 8169
doc tor 8169
fig ure</w> 8168
em power 8163
समा जवा 8161
to w 8160
त ता</w> 8157
प्रा प्‍त</w> 8156
फो र् 8156
ु ति</w> 8155
अत्य धिक</w> 8155
pr ised</w> 8152
scre en 8152
g m</w> 8151
ं द्र</w> 8151
devo te 8149
जन संख्या</w> 8146
मान ्य 8144
हिन् दी</w> 8144
फिल् ‍ 8142
ल ियां</w> 8140
क् या 8140
जि तना</w> 8140
निर्देश ित</w> 8139
बा प</w> 8138
सा मू 8136
in ser 8134
संतो ष</w> 8133
us e 8131
डि प् 8130
खु द 8130
क ताओं</w> 8129
stra ight</w> 8129
इस्ला म</w> 8129
संख ्‍ 8127
pl ants</w> 8126
प् शन</w> 8126
ड़ ी 8125
re ward</w> 8124
not 	no</w> 8124
pat ter 8121
meet ing,</w> 8120
tournam ent</w> 8119
ja ish 8114
ful fil 8112
advoc ate</w> 8112
परमे श्वर</w> 8111
r ant</w> 8108
wirel ess</w> 8108
सै न</w> 8107
mer cy</w> 8104
च ले 8103
म ्यू 8103
cr pf</w> 8103
ant s,</w> 8103
रि सर्च</w> 8101
defe at</w> 8098
म न् 8097
bha van</w> 8097
भि न्न</w> 8096
श्‍ य</w> 8096
anim al</w> 8095
प्रेर णा</w> 8095
jit endra</w> 8095
o graph 8094
रहे गी।</w> 8094
उन् हीं</w> 8093
महिं द्रा</w> 8093
ब ंग 8092
दौरा न,</w> 8092
j um 8091
mo h 8089
ही म</w> 8088
cont ex 8088
ment s,</w> 8087
see ing</w> 8087
suzuk i</w> 8087
व ली</w> 8086
ash es</w> 8086
k aur</w> 8084
र ें 8084
des ire</w> 8083
० ० 8082
चै म्प 8082
आकर् षित</w> 8082
o ver,</w> 8080
ac har 8080
दि ख</w> 8080
न क् 8078
car s</w> 8078
pu ts</w> 8077
sam aj 8077
san iti 8077
excell ent</w> 8077
ली - 8076
प्रभा व 8073
and .</w> 8072
बहा दु 8072
happ iness</w> 8070
से क् 8067
expendit ure</w> 8067
i v 8066
ेंग ी।</w> 8066
स्पे शल</w> 8066
trans l 8065
sw ach 8065
verdic t</w> 8065
साउ थ</w> 8065
appl ied</w> 8063
ur i</w> 8062
guid ance</w> 8061
म ै</w> 8060
वार दा 8060
नरे न्‍द्र</w> 8060
drin k</w> 8059
खास कर</w> 8056
थ ु 8054
फ ौ 8054
olymp ic</w> 8052
कृप या</w> 8052
ट )</w> 8051
कना डा</w> 8051
डी आर 8049
क़ ी 8049
उपलब्‍ ध</w> 8049
मि ट्टी</w> 8047
ah med</w> 8047
academ ic</w> 8047
सृ जन</w> 8046
व ह 8045
us $</w> 8043
औ ष 8042
sched ule</w> 8039
मजबू ती</w> 8038
एम सी</w> 8037
ch i 8035
प्रार ू 8035
consul t 8035
ख़ ् 8033
record s</w> 8033
mo u</w> 8031
countr y 8030
सांसद ों</w> 8030
स त्य 8029
वि निर्माण</w> 8028
सर ,</w> 8028
pul w 8028
report ers</w> 8028
वाणिज्य िक</w> 8026
ol s</w> 8025
म् मत</w> 8025
अत्य ंत</w> 8025
- in- 8023
राज्‍ यों</w> 8023
sol id 8021
gu est</w> 8019
m ap 8018
us d</w> 8018
त ित</w> 8012
क ने</w> 8011
thin king</w> 8011
प्रि ंट</w> 8010
ने श</w> 8008
sim ply</w> 8008
where as</w> 8004
plann ed</w> 8004
छान बीन</w> 8003
u gh 7998
बे न</w> 7998
seri ously</w> 7998
gol den</w> 7998
भार त,</w> 7997
फी स</w> 7996
gg er</w> 7996
राम नाथ</w> 7996
n m</w> 7993
फ ,</w> 7993
हो गी,</w> 7992
प् पा</w> 7992
बिज नेस</w> 7992
बा ग 7991
किलो ग्राम</w> 7990
var anas 7989
p ant</w> 7983
गि रा 7983
एम .</w> 7982
64 gb</w> 7982
उद्यो गों</w> 7981
s er</w> 7980
10 ,</w> 7980
ra y 7979
पब् लिक</w> 7979
0 9</w> 7977
pen sion</w> 7976
आरएस एस</w> 7976
arrest ed.</w> 7976
won 't</w> 7975
avi ation</w> 7975
st ati 7972
ex tra 7972
आर बीआई</w> 7970
स् कर</w> 7969
बी मार 7969
सु ना</w> 7967
ind ra</w> 7966
cro re,</w> 7966
ri ght.</w> 7965
ho w 7965
उत्‍ पादन</w> 7965
road .</w> 7964
2018 :</w> 7964
जा व 7963
आ न् 7962
fil ing</w> 7961
hd fc</w> 7961
exp en 7960
res ign 7959
com mod 7958
establ ish</w> 7956
ने वालों</w> 7955
पट ना</w> 7955
सेल् सियस</w> 7954
farm ers.</w> 7953
201 1-1 7952
न्यू य 7952
को र 7950
	 not</w> 7949
दो ,</w> 7947
डायरे क्टर</w> 7943
रू र</w> 7942
टेक् नो 7942
ना श</w> 7939
tel e 7939
भर ने</w> 7939
po o 7938
south ern</w> 7938
encoura ge</w> 7937
ha b 7934
भा इयों</w> 7933
ow ned</w> 7931
10 .</w> 7930
( कप्तान),</w> 7928
windo w</w> 7928
qual ity 7927
in com 7926
pati ent</w> 7926
गो पाल</w> 7925
अप्रै ल,</w> 7925
guar ante 7925
bhus han</w> 7925
शुभार ंभ</w> 7922
quar ter</w> 7921
दाय रे</w> 7920
identi fy</w> 7918
activ ity</w> 7918
भ रे</w> 7917
ग हरा</w> 7917
over se 7916
re ds</w> 7915
पॉ लि 7914
" मैं</w> 7911
मिले गा</w> 7911
ch ance</w> 7909
market ing</w> 7909
स्टॉ क</w> 7909
sensi tive</w> 7907
विशेषज्ञ ों</w> 7907
pro ve</w> 7905
ड ै 7904
em ed</w> 7904
वि ंग</w> 7902
ट म</w> 7900
सामू हिक</w> 7898
मुँ ह</w> 7895
लद्दा ख</w> 7893
न ृ 7889
amar inder</w> 7888
messeng er</w> 7886
movi e.</w> 7885
बु ल</w> 7884
cent ,</w> 7883
deli ver 7883
j et</w> 7881
ch ed 7881
ad ul 7881
nar ay 7881
सेमी फाइनल</w> 7881
उ तार 7880
लगा ते</w> 7880
m ass</w> 7875
sen sex</w> 7875
भ ेंट</w> 7873
ब ढ 7873
tec h</w> 7872
य द्य 7871
per formed</w> 7871
हो ं,</w> 7869
मा न्य</w> 7868
-1 0</w> 7865
विकेट की 7865
स्वी कृति</w> 7864
har ass 7863
m w</w> 7860
ग्राह क</w> 7858
en ab 7857
अव श्य</w> 7856
resear ch 7856
bri ef 7855
पड़ो सी</w> 7855
equip ment</w> 7855
stu di 7854
sa if</w> 7853
pre t 7853
सदस्य ीय</w> 7852
dra w</w> 7849
collabor ation</w> 7848
st s.</w> 7846
back up</w> 7845
cou ld 7845
con spir 7844
अं जाम</w> 7844
det ained</w> 7843
अत्य न्त</w> 7843
1 )</w> 7840
ir ing</w> 7840
wha ts</w> 7839
15 . 7837
avail ability</w> 7836
able ,</w> 7836
अपे क्षा</w> 7836
nif ty</w> 7836
सर्वि स</w> 7834
म् भ</w> 7832
जन्म दिन</w> 7832
कि ं 7830
भार त 7829
way s,</w> 7829
पत्थ र</w> 7829
संदिग् ध</w> 7828
लड़ कियों</w> 7825
ज ज</w> 7824
n er,</w> 7823
d able</w> 7823
दे खा 7823
छ वि</w> 7820
द् वार</w> 7820
fur ther,</w> 7820
( bjp 7818
सम् मि 7817
sel l</w> 7816
इ ले 7815
raj esh</w> 7815
( w 7814
ver i 7812
ह री 7809
एक् ट</w> 7809
सं ग्रहण</w> 7807
hund reds</w> 7807
pandem ic</w> 7807
ला लू</w> 7806
सर ल</w> 7806
doc tor</w> 7806
dha wan</w> 7805
s r 7804
( बी 7802
ni ght.</w> 7802
spokes man</w> 7800
शताब् दी</w> 7799
ऑ टो</w> 7798
c a</w> 7796
r ace</w> 7792
श य</w> 7792
फ ार 7792
क् लि 7792
फ्रा ं 7792
th i</w> 7790
ति वारी</w> 7789
sar a</w> 7788
dre am</w> 7788
सें ट</w> 7786
st s,</w> 7784
sur round 7784
कि ट</w> 7783
mo ses</w> 7783
संस्था ओं</w> 7783
responsi bil 7783
नि स</w> 7782
modi 's</w> 7782
jn u</w> 7781
तेंदु लकर</w> 7781
ड़ ,</w> 7780
दिखा ने</w> 7780
भाज पा 7779
त व्य</w> 7778
enc y,</w> 7778
( ई 7777
टि न</w> 7777
0 8</w> 7774
पु लवा 7773
long - 7773
twe eted</w> 7771
मह ज</w> 7769
polic ies</w> 7769
ज ियो</w> 7768
fa i 7768
we b</w> 7767
पूर् वा 7766
pow er,</w> 7766
ten n 7766
मा या 7765
photo graph 7765
ं ?</w> 7762
success fully</w> 7760
nav al</w> 7759
अ ज 7758
नि वास</w> 7758
ट ू</w> 7757
the red</w> 7757
िय ंस</w> 7754
ष्ठ ित</w> 7754
divid ed</w> 7752
च ल 7751
per form</w> 7747
कहा :</w> 7747
mod is</w> 7747
पादु कोण</w> 7747
on ed</w> 7746
नवी न</w> 7746
नी त</w> 7745
stat e- 7745
met er</w> 7744
technologi es</w> 7742
प द्ध 7739
cro p</w> 7739
conf ident</w> 7739
la sting</w> 7736
rec ently,</w> 7736
ac tion.</w> 7733
ही न</w> 7733
r y 7732
प ड़ी</w> 7731
ar m</w> 7731
ज़ ु 7729
deli ber 7728
assess ment</w> 7728
ब ख् 7727
ड्र ो 7726
to day 7723
g ate</w> 7722
जा त</w> 7722
li p 7722
part y,</w> 7722
kil omet 7721
chandi gar 7721
मनी ष</w> 7721
या मत</w> 7720
भा ष</w> 7720
क् लब</w> 7718
bu m 7718
2020 .</w> 7718
जाए ,</w> 7715
won t</w> 7715
डो र</w> 7712
ला ते</w> 7708
ha bit 7707
engl ish 7707
कामया ब</w> 7707
no ise</w> 7706
op h 7706
एस )</w> 7705
kum ar 7704
p en</w> 7703
z er</w> 7703
milit ants</w> 7703
निया ँ</w> 7702
approxim ately</w> 7702
वा स 7701
pur i</w> 7700
th us,</w> 7699
विश्ले षण</w> 7699
ला ल 7695
सी नियर</w> 7693
कर े।</w> 7692
य ि 7691
को ड</w> 7690
eligi ble</w> 7689
paduk one</w> 7689
	 its</w> 7688
बि ता 7687
p e.</w> 7686
wat t</w> 7686
bjp 's</w> 7685
pan ts</w> 7684
अगु वाई</w> 7683
gad kari</w> 7682
initi al</w> 7681
troop s</w> 7681
abhishe k</w> 7678
h :</w> 7677
फ स 7677
ब ृ 7675
pil ot</w> 7673
एकी कृत</w> 7673
k m 7672
fr ance</w> 7671
star ts</w> 7669
गोली बारी</w> 7669
retur ns</w> 7668
amaz on</w> 7668
k s,</w> 7667
concer ning</w> 7664
खतर नाक</w> 7664
समृ द्ध</w> 7664
un fortun 7663
गु स् 7663
et c</w> 7662
अं तर् 7662
impro ved</w> 7662
alla ha 7661
mom ent</w> 7661
मिला कर</w> 7660
स्टा फ</w> 7658
सं गत</w> 7657
. ,</w> 7656
जाय ेगा।</w> 7656
odi sha 7656
p h</w> 7655
ओ बा 7655
val ley</w> 7655
हस्त क्षेप</w> 7653
ग वाह</w> 7651
am ban 7651
q ur 7650
आश् वासन</w> 7648
नौ कर 7647
वा इस</w> 7646
हो म</w> 7646
un able</w> 7645
e ed</w> 7644
उद्य म</w> 7644
त था 7643
बता ई</w> 7642
ज्य ो 7642
ध मा 7639
d an 7636
न् द्र 7636
खूब सूरत</w> 7636
a a</w> 7635
month ,</w> 7634
spo ken</w> 7633
strate gy</w> 7632
बंध ों</w> 7630
od e</w> 7629
ja wa 7627
pun e</w> 7627
mean ing</w> 7626
पा ठ</w> 7624
महाराष् ट्र 7624
ha i</w> 7623
ob tain 7623
air tel</w> 7622
प्रति ष्ठित</w> 7621
g ear 7620
ha d 7620
st abil 7617
शा ला 7617
ना - 7615
comm ents</w> 7615
लड़ ा 7614
v als</w> 7612
chan nel</w> 7612
proceed ings</w> 7611
ार ण</w> 7610
ulla h</w> 7609
ए ं,</w> 7608
कु र् 7608
हृ दय</w> 7607
la m</w> 7605
are .</w> 7603
बच्च ी</w> 7603
len o 7603
3 4 7602
ण - 7602
सू ची 7602
संस्था पक</w> 7602
pow der</w> 7600
bill ,</w> 7598
opin ion</w> 7596
व्यवसा य</w> 7593
t 20</w> 7592
गर् भ 7591
फै क् 7590
सु श्री</w> 7588
बु द्धि 7588
telec om</w> 7588
आउ ट 7587
recruit ment</w> 7587
fac tor 7586
क् य</w> 7584
electr on 7584
tw ent 7583
s ans 7582
प्रति दिन</w> 7581
esh war</w> 7581
र ज 7580
c d</w> 7579
demand ing</w> 7579
आंक ड़ा</w> 7579
bhat t</w> 7578
सम्मि लित</w> 7578
फ़ ो 7577
c aught</w> 7576
cour se,</w> 7575
accoun t 7575
टि फि 7574
अग्र वाल</w> 7574
व सू 7573
ind ones 7573
ram ,</w> 7573
चाहिए ?</w> 7573
े गी</w> 7571
exp an 7571
द वा</w> 7570
a us 7568
sec ure</w> 7567
cent er</w> 7566
vard han</w> 7566
य कीन</w> 7565
3. 5</w> 7564
ए डि 7563
दे गा।</w> 7562
निका य</w> 7562
mat es</w> 7561
1 30</w> 7560
1 / 7559
t ari 7559
ro y</w> 7559
वि भाग 7558
सू न</w> 7556
प्र को 7555
class es</w> 7554
c c</w> 7552
cho ice</w> 7552
cruc ial</w> 7552
च म 7551
tru ly</w> 7549
samaj wadi</w> 7548
i b 7547
का ना</w> 7545
inspec tor</w> 7545
z o 7544
बा बा</w> 7544
त्य ो 7544
करी बी</w> 7544
re di 7543
सै फ</w> 7542
trans ferred</w> 7541
मक सद</w> 7539
त त्व</w> 7538
so .</w> 7537
सिफ ारि 7537
hoc key</w> 7537
फै ंस</w> 7536
hol der</w> 7535
ज़ा ब</w> 7535
maharashtra .</w> 7535
d on</w> 7534
bang al 7534
fre e 7533
प्रोजे क्ट</w> 7531
s log 7530
घ ि 7530
तारी फ</w> 7530
नग र 7530
comprehen sive</w> 7530
पुलवा मा</w> 7530
का मों</w> 7528
swit ch</w> 7527
crick et.</w> 7526
स ने</w> 7524
निदेशा लय</w> 7524
ed )</w> 7523
main ly</w> 7523
प्र मो 7522
jam es</w> 7521
eff ecti 7521
mah endra</w> 7521
ई द</w> 7520
हा बाद</w> 7520
k u 7519
asp ects</w> 7518
langu ages</w> 7515
countr y's</w> 7513
conduc ting</w> 7512
w ed</w> 7507
tw ice</w> 7507
kh an.</w> 7507
संयं त्र</w> 7506
fe els</w> 7505
पी एस</w> 7503
ए ग् 7502
tour ist</w> 7502
under going</w> 7501
bran ch</w> 7500
l es.</w> 7499
mish ra</w> 7499
पा इ 7498
universi ties</w> 7497
re memb 7495
er je 7495
क ंग 7494
procu rement</w> 7494
canc er</w> 7493
bure au</w> 7493
bomb ay</w> 7491
अक् तू 7489
transpa rent</w> 7488
rj d</w> 7487
डी )</w> 7486
health care</w> 7485
te h 7484
संबो धन</w> 7484
t ed,</w> 7482
ता जा</w> 7482
no id 7482
ज़ा ब</w> 7482
स् मार 7480
सी आरपी 7480
एक्स चेंज</w> 7479
प्र वाह</w> 7477
wh en 7477
बे ड 7477
शा स्त्र</w> 7476
con vers 7474
पी ए</w> 7474
gener ally</w> 7474
bha i</w> 7474
th or 7473
at al</w> 7473
raj put</w> 7473
mu hammad</w> 7473
j pay 7472
नि देश 7471
report ed.</w> 7471
strong ly</w> 7470
vide o 7468
tru th 7467
sacri fic 7467
वित्‍ त</w> 7467
tendul kar</w> 7467
pro 	yes</w> 7466
ी करण</w> 7464
territ ory</w> 7464
t ree</w> 7463
सम न्व 7462
pri or</w> 7461
pre mis 7461
स्व राज</w> 7461
s cr 7460
का ले 7460
ड्राइ वर</w> 7460
दा ऊ 7459
por tion</w> 7459
lab or 7459
प् स</w> 7458
tiv e.</w> 7458
herit age</w> 7458
उप धारा</w> 7457
eg y 7457
rit i</w> 7455
3 ,000</w> 7454
सी धा</w> 7454
kat rin 7454
z or 7453
त ब 7453
वि ज 7453
हम लों</w> 7452
2019 -20</w> 7452
d g 7450
काम का 7449
challeng ing</w> 7448
p are</w> 7447
व रु 7447
pap ers</w> 7447
summ er</w> 7447
el d</w> 7446
बा लि 7446
son y</w> 7445
fli ghts</w> 7444
am s</w> 7443
win s</w> 7442
व्य य</w> 7441
एंग े</w> 7441
[...]
