the 11529384
के 8301036
में 5832130
of 5556237
and 4899127
की 4662270
in 4157768
to 4137554
और 4093781
को 3372110
से 3079719
a 3014678
ने 2754890
का 2542893
है। 2436504
is 2166962
पर 2026577
है 1895672
कि 1826837
for 1726929
on 1503701
लिए 1452544
एक 1331382
that 1330084
भी 1255864
इस 1146737
has 1102029
नहीं 1088351
with 1054690
was 1054578
कर 1051578
be 1037856
(@@ 1005053
किया 962399
he 957348
will 948802
by 945522
as 930157
यह 914691
are 892195
have 888545
हैं। 879332
this 870967
it 847547
at 830521
from 823354
करने 820845
ही 696901
कहा 682314
not 681091
हो 677605
साथ 642251
हैं 632365
his 627116
also 606981
गया 597160
i 595322
an 592198
been 589783
तो 584489
जो 582083
भारत 563625
। 562337
we 554671
you 527010
है. 526325
उन्होंने 522187
they 519672
- 516848
है, 507031
said 506192
india 501258
were 499366
minister 491617
अपने 486083
वह 484027
their 450064
had 438648
, 430584
बाद 428173
all 426175
or 415192
दिया 410901
तक 398977
) 396245
but 396196
who 393198
which 392588
पुलिस 384393
हुए 382850
जा 376788
लोगों 374857
-@@ 374061
सरकार 373862
या 371719
: 369982
police 368526
रहे 365557
. 356705
न 354177
कुछ 347856
हम 339991
कोई 339609
its 329205
करते 327055
"@@ 324055
new 321187
रहा 320996
government 317427
रूप 314022
one 311168
there 310018
रही 307668
वे 305261
उनके 302326
'@@ 302016
द्वारा 301149
after 298213
दी 296814
इसके 296454
था। 290881
भारतीय 286106
पहले 285358
indian 283434
गई 282124
can 281122
कहा, 280618
people 280120
किसी 277550
अपनी 273177
ये 271914
वाले 267112
two 265214
था 263875
state 263264
मैं 261913
लेकिन 259907
तथा 258121
our 257343
no 257261
against 256908
देश 255373
सिंह 248910
एवं 248073
होने 247163
about 243834
क्या 243745
सभी 243564
दो 243368
other 242688
उन्हें 241692
rs 241227
chief 238042
what 236278
गए 235976
मंत्री 234543
राज्य 234133
would 234109
बात 231750
over 231213
मामले 229124
so 228996
when 225551
up 224526
जब 223270
लोग 221148
मोदी 218334
if 217853
प्रधानमंत्री 216898
them 216570
तरह 216321
singh 215870
your 215776
first 213973
under 213361
हैं. 212861
out 212450
करना 211892
हैं, 210594
per 209187
श्री 209096
इन 208187
फिल्म 206962
काम 206744
शामिल 206576
समय 202687
bjp 202664
these 199722
her 199284
prime 199248
do 199221
कई 198886
उसके 194478
? 194455
‘@@ 193695
कांग्रेस 193179
बहुत 192975
दोनों 192323
बीच 190744
' 189658
फिर 188718
more 188242
थे। 187979
क्षेत्र 187647
president 186706
any 186677
अन्य 186375
जाता 185515
us 184657
आप 183468
सकता 183242
during 182849
रुपये 181751
modi 178846
दिल्ली 178079
being 177540
हुई 177520
करता 177283
congress 177044
व 177015
उनकी 176935
उस 176650
दौरान 176193
my 174937
किए 174437
हुआ 174318
बारे 174126
said. 173918
should 173542
जाने 173049
she 172692
), 172298
सबसे 171224
पास 170598
खिलाफ 169633
such 168937
उसे 167542
into 166346
while 166014
सकते 165637
थी। 164842
's 164033
those 163301
s, 163191
अधिक 162963
some 162502
made 162409
जारी 158347
लिया 158295
10 157984
अ@@ 157930
तुम 157277
only 156676
बताया 156121
विकास 155592
case 154978
कम 154662
लेकर 154091
him 153677
national 153139
court 152164
time 152069
गया। 151149
शुरू 151142
दिन 150790
पूर्व 150181
ले 150018
delhi 149980
s 149062
then 148797
between 145916
भाजपा 145714
like 145482
s. 144392
आज 144203
बार 143366
जांच 143158
2 143109
किया। 142663
टीम 142600
देने 142423
than 141500
इससे 141050
shri 140848
three 140777
1 140642
वाली 140349
दर्ज 139547
होता 138878
ऐसा 137469
हमारे 136287
प्रदेश 135877
तीन 135443
many 135348
मुझे 134890
’ 134480
उन 134305
पार्टी 133197
इसमें 131842
करोड़ 131516
न@@ 131447
may 131366
last 130770
day 130429
कारण 130171
चुनाव 129903
अब 129259
very 128974
how 128834
नाम 128798
however, 128122
world 127764
क@@ 127144
un@@ 127086
पाकिस्तान 126977
take 126942
through 126189
थे 124177
ऐसे 123118
मुख्यमंत्री 122159
film 121880
वर्ष 121797
मंत्रालय 121619
both 121581
ओर 121353
ए@@ 121308
यहां 120797
narendra 120192
हर 119961
इसे 119916
म@@ 119718
party 118985
5 117483
साल 117257
दे 117083
3 116587
re@@ 116421
जैसे 116356
स@@ 116318
हमें 116152
जबकि 115036
राष्ट्रीय 114400
/@@ 114249
अभी 113384
" 112366
most 112340
” 112321
प्रतिशत 111395
former 111336
ministry 111182
नई 110781
लाख 110510
ली 110424
& 109987
थी 109951
ल@@ 109899
र@@ 109806
आ 109339
राष्ट्रपति 108111
प्रति 108044
make 107578
की। 107382
union 107287
where 106911
ब@@ 106897
जिसमें 106788
d@@ 106775
क्योंकि 106775
am 106736
वि@@ 106250
काफी 106136
before 105949
shall 105671
अपना 105529
taken 105418
अध्यक्ष 105412
crore 105225
मौत 104720
पिछले 104602
! 104214
अगर 103886
k@@ 103730
did 103729
country 102913
ना 102783
प्रमुख 102283
pakistan 102162
development 101729
हमने 101104
उसकी 100936
ed 100477
get 100020
क 99981
आ@@ 99321
प@@ 98704
आगे 98494
could 98360
high 98267
s@@ 98257
सुरक्षा 98062
जानकारी 97833
पूरी 97111
20 96873
es 96717
said, 96639
तहत 96072
योजना 95824
even 95807
ना@@ 95741
n@@ 95600
number 94938
ing 94927
g@@ 94855
मुख्य 94835
के@@ 94532
work 94426
among 94236
including 93769
a, 93760
in@@ 93430
district 93128
इसका 93100
बैठक 92837
बैंक 92702
गांधी 92682
नेता 92611
बनाने 92502
होती 92449
cent 92415
i@@ 92230
उनका 92100
जी 92061
4 91974
good 91771
ज@@ 91438
b@@ 91421
ज्यादा 91407
pm 91122
व@@ 91014
मदद 90984
उसने 90818
“@@ 90805
12 90674
given 90624
दूसरे 90353
15 90347
कुमार 90170
कंपनी 89954
त@@ 89645
होगा। 89640
al@@ 89343
अलावा 89171
में, 89049
come 89021
p@@ 88898
को@@ 88716
). 88652
म 88553
मेरे 88180
कार्य 88168
year 88023
ed. 87719
प्राप्त 87488
accused 87299
india. 87197
केंद्रीय 87162
e, 87113
it. 86956
अधिकारी 86597
ला@@ 86559
स 86536
ए 86423
दिया। 86393
es, 86309
ता 85909
जहां 85687
था, 85530
नए 85332
e@@ 85328
8 85262
खान 85084
6 85016
home 84997
ह@@ 84794
का@@ 84606
पहली 84121
ल 84001
महिला 83871
प्रदान 83726
घर 83675
need 83672
allah 83505
o 83435
well 83394
just 83312
घटना 83290
part 83266
god 83125
,@@ 83020
चाहिए। 82974
इंडिया 82889
अल्लाह 82695
मा@@ 82653
50 82621
public 82610
तौर 82551
an@@ 82395
कार्यक्रम 82304
वाला 82210
है? 82187
स्थिति 82141
विशेष 81944
health 81740
/ 81733
social 81600
t@@ 81356
सी 81107
सामने 80978
तब 80941
सकती 80927
every 80907
द@@ 80736
4@@ 80669
देशों 80587
चार 80576
central 80495
5@@ 80420
यदि 80315
because 80186
family 80131
lakh 79941
दुनिया 79926
लिये 79857
संख्या 79839
held 79825
today 79745
हालांकि 79635
due 79600
विभिन्न 79593
वा@@ 79443
registered 79409
गई। 79358
here 79334
जाएगा। 79308
द 79306
पूरा 79303
ar@@ 79278
set 79274
bank 79201
अस्पताल 79152
gandhi 79093
kumar 79068
सूचना 79008
30 78986
states 78951
वहीं 78945
बड़ी 78636
परिवार 78634
बा@@ 78575
न, 78538
मामला 78448
e. 78382
होगा 78341
आने 78191
four 78153
सेवा 78151
उत्तर 78147
me 77958
केंद्र 77910
water 77815
ट@@ 77723
आपको 77688
team 77609
international 77507
सब 77466
केवल 77306
er 77199
नि@@ 77075
according 77019
years 76821
india, 76809
जीवन 76765
मीडिया 76731
जाना 76680
now 76632
इसलिए 76533
a@@ 76520
करें 76488
नरेंद्र 76428
मौके 76387
इसकी 76011
तैयार 75829
es. 75826
पता 75765
c@@ 75748
m@@ 75724
बे@@ 75622
2020 75597
3@@ 75468
आधार 75192
प्रकार 74973
मैच 74973
विभाग 74884
meeting 74753
कोर्ट 74743
cases 74613
each 74613
khan 74502
7 74456
several 74427
students 74349
स्वास्थ्य 74164
know 74152
second 73937
o@@ 73932
present 73918
सी@@ 73822
रि@@ 73814
अवसर 73635
इसी 73378
place 73309
life 73239
24 73235
various 73129
ला 73089
निर्माण 72960
y@@ 72884
ers 72864
ग@@ 72577
पा@@ 72548
सु@@ 72533
दिए 72475
v@@ 72447
f@@ 72428
व्यक्ति 72286
took 72136
संबंध 72114
ing. 72108
से@@ 72051
र 71971
around 71958
general 71952
security 71819
ट 71718
help 71696
हमारी 71690
आरोप 71682
करती 71551
च@@ 71388
100 71344
next 71323
leader 71283
ra@@ 71265
ऑफ 71199
11 71156
ओ@@ 71134
चाहिए 71032
स्थित 71031
विश्व 71009
sabha 70764
ई@@ 70704
used 70553
अधिकारियों 70511
सा@@ 70481
power 70463
25 70442
6@@ 70363
see 70233
सि@@ 70194
जीत 70042
जाती 69927
ता@@ 69728
2019 69649
t 69601
य@@ 69438
बीजेपी 69334
राहुल 69313
women 69305
बना 69208
ed, 69204
ऐसी 69186
down 69121
सं@@ 69053
r@@ 68974
them. 68853
यहोवा 68783
ram 68696
भाग 68691
चल 68632
man 68612
ing, 68378
कुल 68351
same 68305
way 68024
स्तर 67853
अनुसार 67832
इ@@ 67763
a. 67649
ं@@ 67613
9 67570
मे@@ 67472
go 67445
नी 67235
बड़ा 67095
होते 67080
pradesh 66853
w@@ 66643
l@@ 66555
रिपोर्ट 66553
ती 66409
ताकि 66376
why 66293
कभी 66285
रो@@ 66274
h@@ 66247
information 66150
उपलब्ध 66138
मौजूद 66030
arrested 66024
sent 66005
शिक्षा 65977
उसका 65975
रा@@ 65950
गिरफ्तार 65939
five 65832
z@@ 65830
अमेरिका 65802
special 65708
j@@ 65536
told 65510
वो 65419
going 65353
जी@@ 65191
जिस 65057
since 64992
senior 64881
u@@ 64826
जिसके 64679
बाहर 64536
along 64531
am@@ 64501
उपयोग 64480
रे@@ 64443
मामलों 64413
हाल 64401
ले@@ 64391
ड@@ 64344
ने@@ 64239
official 64194
must 64188
14 64182
does 64138
फोन 64049
प्र@@ 63985
पांच 63772
मांग 63668
rahul 63666
e 63629
another 63626
क्षेत्रों 63599
total 63596
क्रिकेट 63460
पंजाब 63457
ते 63235
स्थान 63215
al 63043
मैंने 63040
सेना 62949
देते 62917
श@@ 62856
able 62785
प्रदर्शन 62690
बंद 62364
लि@@ 62333
test 62291
मुंबई 62261
विधानसभा 62228
further 62208
give 62090
across 61997
use 61980
y, 61925
लगभग 61814
." 61764
बी@@ 61499
called 61450
air 61353
," 61182
नजर 61180
members 61164
en@@ 61091
बयान 61055
कैसे 61045
injured 61010
कार 60985
7@@ 60947
y 60946
करीब 60883
ज 60881
ha@@ 60880
ध्यान 60694
order 60659
था. 60643
[@@ 60613
पी@@ 60554
करके 60356
assembly 60056
best 60046
उ@@ 60014
lok 59995
चीन 59898
फैसला 59854
संबंधित 59821
महत्वपूर्ण 59762
वजह 59593
जिसे 59538
रन 59423
 @@ 59137
दर 59086
secretary 59058
लेने 59057
जिले 58834
तुम्हारे 58822
चुके 58820
west 58782
support 58730
स्@@ 58725
सहयोग 58717
8@@ 58710
आर्थिक 58686
बड़े 58634
क्यों 58622
2018 58581
great 58578
तरफ 58493
रक्षा 58486
फीसदी 58471
different 58459
राज्यों 58423
back 58343
वीडियो 58319
आई 58258
त 58212
दिनों 58110
न्यायालय 57995
जा@@ 57947
m 57895
शर्मा 57797
... 57786
होगी। 57733
इस्तेमाल 57655
won 57572
रहने 57553
मि@@ 57520
होना 57484
as@@ 57440
action 57428
seen 57387
south 57374
started 57366
हूं। 57302
बन 57259
पीएम 57257
asked 57246
पानी 57229
टी@@ 57226
मेरी 57151
.@@ 57118
er, 57075
want 57071
13 57041
ation 56959
er@@ 56912
घायल 56892
आरोपी 56751
सिर्फ 56737
कार्रवाई 56664
मिल 56570
अलग 56433
p 56337
says 56261
आयोग 56199
is@@ 56170
important 55998
40 55859
following 55774
टेस्ट 55674
right 55632
सहित 55609
हिस्सा 55575
ad@@ 55549
ल, 55512
based 55455
वे@@ 55399
2017 55370
पेश 55348
k 55274
16 55228
children 55207
shah 55170
law 55123
पूरे 55108
जनता 55006
जिससे 54934
कु@@ 54920
son 54906
विचार 54901
अच्छा 54818
यात्रा 54782
came 54773
9@@ 54601
political 54577
कृषि 54515
department 54490
सचिव 54468
वहां 54417
punjab 54410
गए। 54375
मु@@ 54366
कीमत 54348
18 54346
संयुक्त 54284
रखा 54218
हासिल 54116
off 54113
much 53980
board 53944
मो@@ 53921
आदेश 53905
बच्चों 53894
man@@ 53870
उच्च 53858
killed 53781
कानून 53738
आयोजित 53733
di@@ 53716
ti@@ 53707
न्@@ 53695
लोकसभा 53660
price 53619
c 53615
lord 53486
available 53480
led 53442
कपूर 53399
दा@@ 53395
जाते 53352
never 53351
प्रक्रिया 53290
become 53272
ड 53270
भूमिका 53266
education 53254
दी। 53243
बल्कि 53135
u 53086
jammu 52988
act 52897
कश्मीर 52884
found 52870
समिति 52860
y. 52859
चाहते 52851
जरूरत 52801
देता 52773
ख@@ 52726
b 52724
upon 52696
justice 52636
st@@ 52461
समर्थन 52460
media 52252
बोर्ड 52250
टी 52119
धारा 52073
रुपए 52070
है@@ 52061
क, 52031
लगा 51939
cricket 51851
लागू 51722
death 51677
वित्त 51505
al, 51468
चर्चा 51451
बि@@ 51324
रखने 51324
supreme 51318
leaders 51314
] 51279
अदालत 51218
जवाब 51185
long 51175
कहना 51163
शहर 51114
परमेश्‍वर 51105
ab@@ 51009
already 50910
kashmir 50856
वरिष्ठ 50819
es@@ 50769
services 50723
बनाया 50708
बस 50700
पत्र 50691
सरकारी 50689
खेल 50659
er. 50612
ate 50486
him. 50486
medical 50363
हा@@ 50328
महीने 50323
group 50279
सहायता 50230
name 50212
farmers 50206
पहुंच 50196
committee 50170
हूं 50163
at@@ 50096
sa@@ 50040
hospital 50026
without 49989
जगह 49927
house 49738
sharma 49585
mumbai 49572
किसानों 49535
got 49519
ro@@ 49434
su@@ 49391
economic 49385
आए 49383
शाह 49330
बेहतर 49263
country. 49240
s) 49161
जल्द 49145
body 49084
पद 48989
घोषणा 48980
डी@@ 48966
de@@ 48965
section 48867
दक्षिण 48724
ated 48705
launched 48676
यही 48673
लगाया 48672
री 48606
say 48602
17 48597
city 48441
2@@ 48431
पैदा 48418
ch@@ 48394
दूसरी 48360
कि@@ 48308
परीक्षा 48278
माध्यम 48273
officials 48263
visit 48139
सीमा 48083
ar 48081
singh, 48066
सदस्य 48044
लाभ 47985
election 47929
few 47919
making 47905
report 47894
जे@@ 47887
लो@@ 47865
बाजार 47815
provide 47776
डि@@ 47757
major 47712
days 47679
महाराष्ट्र 47643
प्रयास 47638
company 47562
अमेरिकी 47547
so, 47545
कहते 47518
करेंगे। 47511
be@@ 47510
working 47476
own 47445
persons 47416
आपके 47408
19 47386
role 47320
उनसे 47227
खुद 47227
indias 47211
let 47205
ई 47202
t. 47195
भर 47092
system 47071
% 47026
‘‘@@ 46955
land 46904
foreign 46868
19@@ 46836
विदेश 46831
taking 46823
el@@ 46800
टे@@ 46779
till 46714
sector 46704
th@@ 46680
it@@ 46634
निवेश 46517
others 46507
बल 46489
later 46479
शेयर 46461
done 46423
21 46378
away 46339
top 46301
ख़ुदा 46275
video 46210
फ@@ 46182
ली@@ 46181
चुकी 46117
global 46049
announced 45771
कदम 45712
defence 45692
क्षमता 45683
co@@ 45657
गंभीर 45619
actor 45618
t, 45608
on@@ 45591
decision 45548
अच्छी 45547
service 45509
dis@@ 45499
सो@@ 45443
शिकायत 45437
im@@ 45430
लिया। 45327
जल 45309
कोशिश 45296
reported 45230
countries 45200
आम 45178
नगर 45168
( 45145
candidates 45112
an, 45095
भारी 45026
पिता 44975
director 44973
kapoor 44964
ठीक 44937
हमले 44900
local 44896
मंदिर 44789
end 44735
गो@@ 44653
ic@@ 44558
reached 44522
still 44497
भ@@ 44456
सोशल 44427
उसी 44411
डी 44376
जिला 44360
वृद्धि 44333
की@@ 44327
centre 44314
matter 44314
रह 44284
covid-19 44230
उससे 44204
गुजरात 44185
put 44176
uttar 44095
हरियाणा 44045
गृह 44010
वालों 43998
बिहार 43954
समूह 43894
अगले 43749
area 43741
महिलाओं 43738
financial 43714
cannot 43687
ted 43614
towards 43595
विरोध 43538
गयी 43537
दूर 43447
सही 43358
army 43219
लगातार 43209
पर@@ 43190
sh@@ 43168
हत्या 43141
प 43135
finance 43123
case. 43114
yet 43104
पहला 43101
हो@@ 43068
se@@ 42953
human 42943
लगता 42928
बिना 42884
i, 42807
मिली 42772
हमेशा 42732
incident 42727
ट्वीट 42716
food 42690
स्कूल 42676
22 42609
टि@@ 42548
हजार 42547
ation. 42491
दल 42458
आधारित 42448
रा 42439
news 42424
g 42416
commission 42395
बातचीत 42342
गा@@ 42341
उद्योग 42338
series 42309
राजनीतिक 42262
currently 42214
राम 42209
road 42201
third 42150
issued 42074
मेरा 42064
इनमें 41986
सा 41957
सुनिश्चित 41956
उम्मीद 41926
क्@@ 41911
mo@@ 41850
— 41793
पश्चिम 41784
बनाए 41781
थे, 41771
स, 41734
e-@@ 41727
नीति 41688
पहचान 41636
मजबूत 41538
person 41422
within 41381
पत्नी 41368
भाई 41342
issue 41310
अवधि 41304
think 41292
r 41290
में@@ 41274
ap@@ 41267
मध्य 41228
मन 41197
60 41193
received 41128
र्@@ 41119
या@@ 41051
अंतिम 41032
तुम्हें 41022
सुधार 41019
ers, 40986
अधिकार 40982
पि@@ 40970
ts 40917
or@@ 40892
this. 40867
n 40821
जिन 40810
ो 40772
too 40732
ating 40729
कल 40711
situation 40709
जाएगा 40687
dont 40624
कोरोना 40597
किया, 40576
स्थानीय 40556
ति@@ 40544
comes 40543
large 40474
देखा 40447
known 40437
पीछे 40413
व्यवस्था 40397
हैं? 40384
include 40324
spot 40322
elections 40217
research 40216
school 40166
पो@@ 40163
सार्वजनिक 40109
areas 40104
s: 40069
कप्तान 40049
| 40030
डॉलर 40029
10@@ 40021
village 39966
देना 39934
सवाल 39915
project 39895
look 39893
निर्णय 39847
चुका 39828
six 39827
open 39726
technology 39718
निजी 39666
प्रभावित 39665
business 39662
play 39628
level 39625
show 39615
वर्तमान 39607
maharashtra 39545
डे@@ 39545
संगठन 39514
रेलवे 39513
चाहता 39438
विधायक 39438
lead 39428
पी 39387
died 39348
प्रौद्योगिकी 39337
it, 39310
growth 39286
उनमें 39253
sp@@ 39251
har@@ 39225
र, 39225
े@@ 39224
mp 39214
बॉलीवुड 39173
period 39161
filed 39152
समारोह 39082
earlier 39066
वी@@ 39033
बी 39022
हाथ 38998
याद 38957
united 38949
डॉ. 38868
keep 38839
भर्ती 38809
form 38787
यू@@ 38782
d 38781
छात्रों 38778
better 38764
always 38757
ऊर्जा 38717
rate 38708
2016 38703
fire 38654
north 38654
पे@@ 38638
par@@ 38623
अभियान 38602
विषय 38585
28 38582
this, 38570
आया 38559
मिला 38559
नों 38528
मा 38519
things 38511
राष्ट्र 38507
them, 38445
tax 38426
होगी 38411
नया 38397
बंगाल 38366
उप@@ 38312
haryana 38297
men 38297
गु@@ 38293
जाएगी। 38253
said: 38229
time. 38202
full 38182
far 38163
amit 38145
नी@@ 38119
scheme 38075
post 38053
कह 38053
go@@ 38018
दे@@ 37968
वही 37899
bring 37884
जिसका 37795
woman 37761
seats 37739
परि@@ 37730
अमित 37671
सामाजिक 37654
ation, 37620
2014 37616
वापस 37616
love 37609
vs 37601
l 37597
private 37597
investigation 37589
affairs 37584
wife 37527
office 37521
data 37499
shared 37465
थे. 37457
ब 37427
ministers 37424
informed 37419
मै@@ 37415
si@@ 37374
रू@@ 37335
विज्ञान 37332
कोहली 37311
force 37306
गांव 37303
एस@@ 37294
जि@@ 37267
नेताओं 37242
तेजी 37231
प्रत्येक 37223
बो@@ 37213
प्रणाली 37207
री@@ 37161
आग 37116
ag@@ 37101
टन 37068
incident. 37066
परियोजना 37021
वा 37019
विकेट 36997
"""@@ 36989
थी, 36953
दें 36947
control 36938
26 36904
provided 36865
सीट 36850
किये 36808
member 36778
1@@ 36768
23 36746
पूर्ण 36745
gujarat 36734
state. 36719
having 36639
match 36636
सीटों 36610
18@@ 36594
cbi 36553
brought 36535
दी@@ 36508
समाज 36506
कर@@ 36501
अतिरिक्त 36486
जो@@ 36471
त, 36421
रात 36388
em@@ 36349
directed 36335
कों 36332
म, 36303
0@@ 36296
मिलने 36285
500 36261
phone 36256
उम्मीदवार 36212
free 36211
मुताबिक 36201
कै@@ 36187
31 36135
sha@@ 36134
200 36060
ध@@ 36056
university 36040
देख 35976
हुआ। 35961
सुप्रीम 35908
खा@@ 35901
change 35899
us@@ 35870
होंगे। 35869
went 35831
कोविड-19 35783
left 35749
बच्चे 35749
big 35739
कराया 35722
played 35712
स्पष्ट 35686
ali 35648
age 35640
बता 35622
ensure 35598
यहाँ 35582
1.@@ 35487
policy 35400
महा@@ 35365
फिलहाल 35313
उत्पादन 35282
ज़ 35282
कमी 35276
सामना 35232
सामान्य 35228
सांसद 35225
ed@@ 35222
released 35218
al. 35216
स्थापित 35203
हो, 35195
विकसित 35184
देखते 35183
small 35178
हमारा 35147
million 35146
जान 35122
war 35100
दिशा 35068
money 35066
increase 35051
शुरुआत 35040
आवश्यकता 35024
केस 35016
process 35012
ट, 34982
जु@@ 34976
china 34937
मार्ग 34913
हो। 34738
so@@ 34736
पति 34730
नो@@ 34696
आयोजन 34693
ri@@ 34661
ियों 34650
ma@@ 34647
soon 34647
market 34587
gold 34577
शा@@ 34567
दिवस 34558
इं@@ 34553
70 34530
कौन 34525
find 34495
decided 34481
temple 34461
स्‍@@ 34413
vi@@ 34405
करेंगे 34371
रेल 34371
संघ 34330
win 34314
ting 34296
27 34292
मंजूरी 34275
runs 34259
करें। 34252
officer 34231
वी 34230
प्रयोग 34196
x 34161
संबंधी 34161
less 34116
दावा 34108
ak@@ 34089
शि@@ 34074
ac@@ 34063
delhi, 34046
आर@@ 34020
राजस्थान 34015
continue 34005
entire 33976
डा@@ 33966
आदि 33962
bihar 33946
list 33937
यादव 33926
ly 33880
prices 33875
lot 33853
श 33836
expected 33809
lo@@ 33774
प्रबंधन 33734
तुलना 33732
"the 33722
संसद 33701
bollywood 33691
le@@ 33674
live 33642
po@@ 33612
ers. 33609
थी. 33609
bo@@ 33589
higher 33584
ख़ुदा 33498
india's 33490
ज़@@ 33482
घोषित 33438
किस 33396
माना 33392
believe 33378
राज@@ 33370
energy 33367
तरीके 33353
cost 33321
bi@@ 33319
आरोपियों 33302
हि@@ 33302
do@@ 33295
father 33282
कंपनियों 33265
नेतृत्व 33245
बढ़ 33239
अनुमति 33236
फैसले 33234
gave 33207
तेज 33198
लाल 33194
पुरस्कार 33187
देखने 33128
छह 33124
issues 33107
अच्छे 33078
सम्मेलन 33076
मगर 33072
सदस्यों 33044
council 33020
12@@ 32991
जरिए 32976
सिंह, 32971
doing 32945
तय 32943
मे 32939
80 32909
फि@@ 32900
कार्ड 32899
एल@@ 32893
jehovah 32883
ल्@@ 32865
ी, 32858
attack 32848
times 32835
ऊपर 32835
using 32824
2015 32822
result 32817
जन@@ 32809
efforts 32806
meet 32801
industry 32776
railway 32711
बारिश 32703
he@@ 32690
ne@@ 32646
गये 32643
विदेशी 32625
चा@@ 32618
cm 32597
विश्वास 32588
officers 32534
बेटे 32494
dr 32486
अनु@@ 32482
जिनमें 32431
march 32416
निर्देश 32407
सीबीआई 32386
final 32385
थ@@ 32374
समेत 32363
related 32337
king 32335
meanwhile, 32313
likely 32272
बढ़ाने 32266
वैश्विक 32250
management 32207
तेल 32195
x@@ 32167
cabinet 32155
red 32135
रहते 32120
शव 32093
class 32041
सड़क 31982
h 31956
id@@ 31936
अंतरराष्ट्रीय 31935
सर@@ 31934
29 31932
पु@@ 31898
एम@@ 31815
jesus 31814
statement 31801
ता, 31787
f 31775
याचिका 31769
उनको 31754
kohli 31742
ों 31737
view 31725
लॉन्च 31712
ंग 31681
आवेदन 31676
लिखा 31664
interest 31660
प्रस्ताव 31658
‍@@ 31646
government. 31625
हुई। 31614
हालांकि, 31612
virat 31606
मी 31606
added. 31587
वायरस 31580
li@@ 31547
up@@ 31527
बेहद 31503
en 31497
madhya 31496
additional 31492
together 31487
pur 31449
trade 31447
month 31443
20@@ 31424
आर 31414
टो@@ 31404
अधिनियम 31378
book 31369
कराने 31368
वक्त 31335
tion. 31330
लगे 31301
राज 31281
आवश्यक 31279
ट्रंप 31236
विराट 31224
समान 31205
ing@@ 31172
programme 31164
मुलाकात 31164
सूची 31141
nor 31128
रखते 31106
लगाने 31088
जैसी 31078
भविष्य 31075
चरण 31056
:@@ 31047
ho@@ 31034
यीशु 31017
written 31016
civil 31014
35 30993
लाने 30962
close 30950
शादी 30948
tamil 30900
नीचे 30897
छ@@ 30896
start 30885
ईमान 30882
जैसा 30876
once 30869
oil 30867
results 30830
प्रशासन 30830
लक्ष्य 30823
वर्ग 30810
became 30806
बने 30802
pradesh, 30795
ग 30791
ग्रामीण 30755
एंड 30744
मौजूदा 30733
दु@@ 30730
नुकसान 30722
near 30721
सात 30716
ant 30704
रु@@ 30702
इनकार 30691
बदलाव 30685
date 30682
whether 30651
परिणाम 30626
प्रभाव 30587
कर्नाटक 30562
चि@@ 30560
वर्षों 30554
हे@@ 30538
current 30507
हादसे 30470
सीरीज 30467
मूल 30440
अनेक 30425
करो 30398
raj@@ 30391
alleged 30381
निदेशक 30349
उसमें 30335
il@@ 30325
विश्वविद्यालय 30299
की, 30283
उपस्थित 30261
– 30261
ना, 30238
production 30219
lost 30208
संबोधित 30196
व्यापार 30177
youth 30173
अंतर्गत 30161
hi@@ 30153
cause 30145
ram@@ 30139
शक्ति 30138
you. 30087
mar@@ 30072
vice 30036
नंबर 30009
"i 30005
लिए, 30005
ur@@ 29999
getting 29992
day. 29986
संभावना 29978
परिषद 29970
here. 29949
गया, 29943
’’ 29928
जाए 29899
जानते 29878
old 29861
et@@ 29846
ं 29845
प्रति@@ 29765
स्वीकार 29750
v 29702
धर्म 29671
होकर 29660
शीर्ष 29657
राशि 29637
जुड़े 29636
captain 29634
might 29609
बनी 29580
today. 29563
main 29561
बेटी 29558
". 29555
to@@ 29554
पुर 29519
य 29489
सुविधा 29487
जेल 29485
deputy 29482
on, 29474
heavy 29470
पाया 29443
मुद्दे 29425
दा 29403
रहे। 29400
projects 29356
no@@ 29353
चलते 29346
training 29337
clear 29317
rural 29290
nation 29287
ipl 29282
ya 29275
संविधान 29259
जम्मू 29256
आई@@ 29252
complaint 29244
con@@ 29243
ें 29201
जिन्होंने 29186
1,@@ 29162
प्रवेश 29158
कहीं 29121
ते@@ 29116
युवा 29116
account 29115
दूसरा 29115
people. 29112
you, 29107
अनुसंधान 29099
भाषा 29090
(n@@ 29064
parts 29060
नियंत्रण 29060
capital 29047
भेज 29047
भा@@ 29041
seven 29040
whom 29017
coming 28999
trump 28980
योगदान 28977
इलाज 28976
एस 28975
ye 28974
सम्मान 28959
pay 28953
किसान 28952
कैमरा 28950
ट्स 28937
समस्या 28924
वित्तीय 28922
े 28907
call 28904
share 28900
बिजली 28872
forces 28854
त्@@ 28853
that. 28849
tion, 28843
me@@ 28787
90 28771
face 28759
movie 28756
मी@@ 28752
खबर 28747
per@@ 28738
governments 28727
खिलाड़ी 28672
saying 28651
वेबसाइट 28641
workers 28635
building 28588
होंगे 28588
means 28587
डर 28571
2.@@ 28517
भू@@ 28513
अरब 28506
companies 28468
non-@@ 28459
म्@@ 28443
सफल 28425
unto 28376
बढ़ावा 28373
करेगा 28365
plan 28320
हार 28320
धन 28319
om@@ 28313
एफ@@ 28309
नहीं, 28290
सत्र 28280
head 28278
कप 28273
मानव 28270
केन्द्रीय 28239
rajasthan 28229
nothing 28227
andhra 28217
नागरिक 28205
पक्ष 28180
recently 28172
young 28161
sports 28131
युद्ध 28107
ंग@@ 28095
delhi: 28090
एन@@ 28052
chairman 28018
sri 28014
जिसने 28000
income 27966
मान 27950
hospital. 27929
सुनवाई 27921
cup 27905
अली 27897
अध्ययन 27893
उद्देश्य 27888
मार्च 27877
तू 27860
भुगतान 27815
ऐ@@ 27765
सलमान 27765
again 27755
needs 27725
ul@@ 27723
key 27703
32 27701
claimed 27658
australia 27617
declared 27612
line 27603
child 27538
भेजा 27537
व्यक्त 27520
शानदार 27512
field 27503
features 27493
जरूरी 27487
run 27466
इतिहास 27455
rs. 27452
bengal 27421
act, 27417
पा 27398
बजे 27398
मूल्य 27372
से, 27366
speaking 27365
june 27347
time, 27334
दिल 27331
मिलकर 27322
kar@@ 27315
मुकाबले 27307
read 27299
least 27292
टा@@ 27272
storage 27254
april 27247
संपर्क 27233
december 27214
केरल 27193
expressed 27166
yadav 27166
joint 27143
police. 27133
parliament 27101
hit 27089
created 27088
विमान 27082
institute 27077
release 27077
over@@ 27072
though 27072
na@@ 27070
उदाहरण 27061
cooperation 27059
जिन्हें 27031
quality 27030
परिवर्तन 27007
प्रशिक्षण 26990
le 26967
d, 26961
increased 26931
भूमि 26927
ि@@ 26889
occasion. 26877
"we 26849
वन 26837
ent 26829
remain 26825
अभिनेता 26785
mother 26784
strong 26765
अंक 26737
largest 26716
लों 26705
15@@ 26689
अहम 26685
गया. 26679
article 26665
added 26649
शांति 26647
सुबह 26640
opposition 26619
छोटे 26602
45 26601
attended 26581
तों 26556
बजट 26551
)@@ 26549
चला 26542
front 26541
अपील 26539
common 26534
सके। 26517
बधाई 26505
sam@@ 26494
ः 26490
रोक 26489
ओं 26488
प्@@ 26483
address 26472
parties 26467
launch 26446
rs.@@ 26422
ऑस्ट्रेलिया 26412
ह 26397
mis@@ 26395
i. 26389
war@@ 26383
मां 26362
टर 26352
मोबाइल 26335
14@@ 26317
आधिकारिक 26298
fight 26289
अव@@ 26286
पसंद 26286
besides 26272
us. 26268
वर्@@ 26265
इंग्लैंड 26247
ni@@ 26231
संस्थान 26231
ever 26223
सुरक्षित 26213
coronavirus 26198
happy 26189
peace 26161
13@@ 26114
active 26113
सारे 26106
conducted 26098
प्रकाश 26096
mal@@ 26094
gods 26074
इलाके 26005
ण 26004
बु@@ 25993
past 25973
प्रधान 25970
ir@@ 25968
really 25967
him, 25954
प्रवक्ता 25941
कर्मचारियों 25908
साफ 25905
बै@@ 25899
station 25880
ओ 25872
amount 25856
previous 25842
करण 25817
event 25815
salman 25809
check 25807
mobile 25802
investment 25796
met 25791
हूँ 25790
stars 25788
te@@ 25786
अं@@ 25767
रोहित 25759
300 25712
घरेलू 25702
early 25697
रोजगार 25679
question 25670
साथ-साथ 25642
side 25641
""""@@ 25635
जनरल 25628
on. 25622
bar@@ 25617
हमला 25606
75 25602
ियां 25598
region 25595
sal@@ 25533
साझा 25493
थीं। 25476
rohit 25462
note 25453
bill 25451
छोड़ 25433
था@@ 25416
बाइबल 25410
मतदान 25409
-- 25383
जमा 25379
समुदाय 25366
november 25350
daughter 25328
ous 25318
above 25277
उन्‍होंने 25250
science 25222
minister, 25209
से) 25200
july 25197
car 25193
बनने 25175
governor 25159
ा 25159
अथवा 25137
अधीन 25136
conference 25125
नेशनल 25122
0.@@ 25104
pa@@ 25088
respect 25088
अभि@@ 25084
समझ 25074
अंतर्राष्ट्रीय 25057
cha@@ 25046
मत 24971
अनुसार, 24963
डो@@ 24957
‘ 24925
me. 24903
application 24868
camera 24866
1, 24854
एल 24850
details 24841
रों 24799
la@@ 24766
कं@@ 24756
stated 24753
संदेश 24733
world. 24725
हालत 24710
पै@@ 24686
जम्मू-कश्मीर 24671
स्मार्टफोन 24670
community 24660
नरेन्द्र 24654
agriculture 24646
मौसम 24625
जस्टिस 24619
मिशन 24601
लागत 24596
capacity 24581
passed 24577
संजय 24575
मान@@ 24539
ba@@ 24536
गलत 24516
future 24514
गठबंधन 24509
ऑनलाइन 24503
नदी 24502
for@@ 24500
जीबी 24464
ज्ञान 24448
""@@ 24438
अप्रैल 24405
behind 24377
bal@@ 24376
january 24376
इंडियन 24374
ans 24361
रे 24358
खास 24357
online 24351
एं 24351
मार 24350
september 24327
शो 24322
earth 24310
ec@@ 24289
लोक 24282
लु@@ 24278
ations 24275
खत्म 24267
ex@@ 24250
सीएम 24250
apart 24247
occasion 24244
जन 24241
q@@ 24238
छात्र 24226
गि@@ 24206
करेगा। 24201
percent 24200
जून 24197
single 24179
ol@@ 24178
karnataka 24176
पालन 24166
कार्यालय 24158
मारे 24157
east 24134
रब 24131
उद्घाटन 24114
indeed 24112
s? 24111
basis 24080
ड़ 24079
mla 24071
हिरासत 24062
सर 24054
av@@ 24053
kh@@ 24052
विधि 24047
किलोमीटर 24018
hindi 24013
step 23968
something 23967
ण@@ 23961
मई 23959
पीठ 23947
is, 23942
सम@@ 23923
भवन 23913
admitted 23905
सन 23901
वें 23899
खाद्य 23892
सू@@ 23874
एच@@ 23869
us, 23868
नियम 23828
राजनीति 23804
actress 23787
वास्तव 23787
हिंसा 23786
दिखाई 23779
खे@@ 23777
सलाह 23775
कॉ@@ 23772
बर@@ 23766
प्रचार 23754
परवरदिगार 23746
अनुभव 23726
राहत 23715
, @@ 23684
ित 23678
मतलब 23662
समीक्षा 23661
point 23660
ो@@ 23655
playing 23653
तीसरे 23653
year. 23644
समाप्त 23641
जोर 23633
6.@@ 23626
october 23620
परीक्षण 23602
फे@@ 23575
ू 23567
create 23563
qu@@ 23556
ic 23542
मुद्दों 23539
districts 23538
possible 23521
k. 23508
raj 23496
सप्ताह 23494
hold 23485
हवाई 23484
16@@ 23482
गैस 23477
an. 23474
दो@@ 23472
urban 23471
महसूस 23467
घ@@ 23463
आता 23454
ia 23451
17@@ 23436
विवाद 23415
out@@ 23414
जिसकी 23410
करनी 23398
है: 23398
टा 23394
व्यापक 23394
com@@ 23393
sc@@ 23370
फ़@@ 23369
आपकी 23346
lives 23318
खो@@ 23317
sanjay 23315
benefit 23312
move 23307
th 23294
निर्धारित 23291
delhi. 23275
certain 23271
ang@@ 23259
a) 23256
construction 23245
च 23244
k, 23238
sources 23236
ी@@ 23229
rights 23228
कल्याण 23212
.""" 23210
अर्थव्यवस्था 23186
सक्रिय 23165
court. 23164
किताब 23150
मं@@ 23148
अध्यक्षता 23092
पारी 23092
बदल 23088
ors 23084
लू@@ 23083
paid 23078
उम्मीदवारों 23078
award 23071
recovered 23066
film. 23053
2013 23050
hindu 23025
life. 23022
sar@@ 23019
चाहे 23017
gu@@ 23013
rajya 23001
august 22995
सफलता 22987
personal 22982
यानी 22966
प्यार 22949
allowed 22932
months 22931
highest 22920
points 22918
recent 22918
infrastructure 22902
गिरावट 22894
लिमिटेड 22879
जनवरी 22876
आय 22874
light 22866
परियोजनाओं 22852
सभा 22840
चिकित्सा 22823
संशोधन 22800
fi@@ 22772
वीं 22770
समाधान 22756
8.@@ 22741
संभव 22725
खर्च 22711
बावजूद 22694
रहा। 22689
डिग्री 22677
raised 22673
ा@@ 22662
शायद 22654
banks 22647
budget 22647
किया. 22644
surely 22642
कथित 22638
england 22636
upcoming 22636
आठ 22628
विजय 22612
kerala 22608
san@@ 22607
press 22599
teams 22590
until 22588
candidate 22583
प्रियंका 22577
matter. 22560
सेवाओं 22552
bharat 22551
ra 22550
appointed 22549
सूत्रों 22548
natural 22530
pe@@ 22530
रह@@ 22524
positive 22520
return 22502
ar, 22496
hi 22494
reports 22491
2012 22486
बना@@ 22482
राम@@ 22454
mon@@ 22451
5.@@ 22445
named 22437
ु 22425
car@@ 22415
knowledge 22404
राजा 22397
फ 22396
ज, 22395
media. 22393
चुनौती 22393
places 22386
3.@@ 22379
and@@ 22370
military 22351
ity 22347
48 22344
कार@@ 22344
+ 22341
विस्तार 22329
अभिनेत्री 22318
charge 22306
स्थापना 22278
राय 22275
साबित 22271
february 22267
bible 22264
वाहन 22249
um@@ 22248
स्वयं 22229
िया 22219
एजेंसी 22206
ka 22204
परिवहन 22203
आतंकवाद 22200
फा@@ 22157
treatment 22155
includes 22151
क्‍@@ 22151
often 22134
feel 22119
इतना 22119
मृत्यु 22118
study 22114
जिलों 22106
36 22102
except 22100
mission 22098
whole 22090
mr 22064
ahead 22063
न्यायाधीश 22059
identified 22054
petrol 22051
spot. 22044
ई-@@ 22042
shiv 22034
day, 22031
जुलाई 22025
sub@@ 22024
लग 22020
diesel 22014
तो, 22014
pl@@ 22006
आदमी 22005
शब्द 21999
फोटो 21997
यु@@ 21993
works 21986
true 21957
bench 21956
नहीं। 21933
केन्द्र 21909
अफ्रीका 21906
care 21899
चयन 21874
तो@@ 21863
regarding 21859
fear 21856
मेडिकल 21849
गा 21840
बढ़कर 21838
उचित 21825
followed 21822
especially 21802
केजरीवाल 21796
ार@@ 21796
कड़ी 21781
पाकिस्तानी 21764
मोहम्मद 21762
मैचों 21756
pro@@ 21748
ad 21728
personnel 21727
शहरी 21725
न-@@ 21715
leading 21713
se 21703
बिक्री 21702
मीटर 21697
huge 21682
प्रगति 21669
als 21668
दि@@ 21658
included 21656
min@@ 21651
कारोबार 21648
j 21645
बातें 21645
गी 21635
भीतर 21635
पर्यटन 21630
पुष्टि 21629
value 21626
ay@@ 21612
खुशी 21612
(c@@ 21605
rushed 21605
forward 21602
required 21600
scheduled 21594
it's 21586
हेतु 21579
पदक 21576
ठ@@ 21567
नागरिकों 21566
activities 21560
affected 21543
रहता 21534
trying 21501
क्स 21492
society 21488
girl 21484
मिले 21473
the@@ 21472
अलग-अलग 21467
-1@@ 21466
लगी 21449
priyanka 21434
similar 21425
शे@@ 21417
d. 21415
located 21413
railways 21406
position 21405
developed 21395
ud@@ 21394
लीटर 21393
न्याय 21390
little 21389
राजधानी 21382
kind 21355
jehovahs 21343
condition 21336
तर@@ 21334
record 21329
patients 21323
मुस्लिम 21321
संबंधों 21321
ें@@ 21310
op@@ 21307
ु@@ 21300
history 21283
space 21268
produced 21258
बाद, 21244
tions 21243
dead 21242
(ऐ 21212
एम 21206
हुए। 21198
पटेल 21181
gra@@ 21152
connection 21148
welfare 21143
लो 21137
accused. 21130
ings 21116
तलाश 21109
घंटे 21106
हु@@ 21104
authority 21097
अपराध 21087
sena 21080
4.@@ 21074
demand 21059
लेते 21049
himself 21041
ver@@ 21023
दौरे 21005
giving 20992
muslim 20988
अनुमान 20984
reason 20966
star 20955
ja@@ 20946
ko@@ 20943
km 20936
eight 20924
दिसंबर 20915
ती@@ 20905
ka@@ 20903
जे 20901
religious 20887
चालक 20879
शरीर 20870
turn 20867
400 20866
looking 20866
mi@@ 20854
करोड़ 20848
शिवसेना 20846
परिजनों 20843
तु@@ 20814
kumar, 20811
judge 20803
प्रस्तुत 20796
well. 20791
$@@ 20783
वहीं, 20782
अंत 20773
गाँव 20761
providing 20759
ji 20755
2, 20749
legal 20749
transport 20739
पर, 20731
हैदराबाद 20730
est 20729
खारिज 20725
बल्लेबाज 20717
सै@@ 20690
gas 20668
parents 20668
week 20665
say, 20647
deal 20646
domestic 20643
बांग्लादेश 20642
जानता 20629
pan@@ 20621
निधन 20617
राज्‍य 20615
pro 20614
un 20608
pre@@ 20598
धरती 20598
थ 20597
digital 20596
कॉलेज 20592
निश्चित 20588
whose 20584
don't 20581
living 20581
नवंबर 20566
ने, 20563
मैदान 20563
ates 20540
poor 20531
मॉडल 20522
ऐ 20519
leave 20517
ran@@ 20510
word 20504
एयर 20504
शन 20502
players 20483
reach 20474
hope 20463
आंध्र 20457
बरामद 20456
33 20445
अप@@ 20428
पेट्रोल 20425
ms 20378
began 20344
सहायक 20342
पहुंची 20336
border 20326
रसूल 20305
serious 20304
“ 20302
संरक्षण 20300
gi@@ 20292
ally 20279
शासन 20248
association 20242
माल 20237
train 20228
real 20226
जाए। 20213
आतंकी 20197
steps 20192
विधेयक 20189
administration 20185
लें 20185
chinese 20178
2,@@ 20176
न) 20170
ent@@ 20163
constitution 20150
पाने 20146
तुरंत 20143
e) 20120
उसको 20119
terms 20083
आपूर्ति 20079
लग@@ 20075
cultural 20074
fund 20062
आते 20061
commissioner 20058
भरोसा 20057
pat@@ 20054
प्रथम 20045
ine 20040
पार 20033
today, 20026
7.@@ 20024
सीटें 20013
tri@@ 19994
dr. 19993
हों 19982
people, 19972
फरवरी 19972
driver 19970
संदर्भ 19970
वै@@ 19968
रिलीज 19962
रख@@ 19944
probe 19924
years. 19921
gh@@ 19913
जिनके 19906
corporation 19898
ू@@ 19883
डिजिटल 19882
spread 19862
निक 19854
वोट 19852
स्वागत 19838
दार 19832
फै@@ 19830
प्रसाद 19829
institutions 19827
website 19827
inter@@ 19826
ru@@ 19825
term 19814
पूर्वी 19814
ी 19813
क्षेत्रीय 19806
committed 19788
du@@ 19786
sharma, 19784
राजनाथ 19776
तुम्हारी 19775
session 19765
card 19760
देकर 19755
असर 19752
year, 19744
संसाधन 19730
अगस्त 19722
में) 19719
करे 19717
9.@@ 19709
चे@@ 19706
ं, 19704
370 19703
pakistani 19699
ड़ा 19696
गठन 19685
प्रभावी 19683
letter 19675
agency 19673
अंदर 19673
follow 19653
रिकॉर्ड 19653
river 19650
thus 19643
चीनी 19640
कौशल 19639
gone 19637
bha@@ 19636
ana 19631
ys 19631
टीवी 19631
विकल्प 19631
इलाकों 19627
ज़@@ 19625
search 19605
ani 19589
pra@@ 19583
sur@@ 19569
ल्स 19566
enter 19551
tell 19546
बाकी 19540
निगम 19538
lower 19535
gets 19524
file 19519
pu@@ 19514
तमिलनाडु 19501
निर्यात 19495
considered 19493
गे@@ 19488
हालात 19469
necessary 19456
message 19450
murder 19437
end@@ 19436
mark 19424
limited 19421
फिल्मों 19418
stand 19416
college 19412
बाल 19408
तीनों 19405
credit 19403
वर 19402
husband 19389
एँ 19385
चाहिए. 19381
modi, 19375
worth 19372
regard 19365
ask 19359
चीज़ 19357
heart 19356
राज्यपाल 19355
सजा 19347
प्रयासों 19344
मात्रा 19333
everyone 19328
करार 19328
wanted 19324
saw 19316
s' 19309
rajnath 19301
regard. 19301
प्राकृतिक 19291
रंग 19284
focus 19263
जाएंगे। 19260
approved 19239
citizens 19227
ख़@@ 19227
hand 19217
इन@@ 19214
z 19212
presented 19197
ga@@ 19192
्@@ 19184
धार्मिक 19178
रहती 19172
outside 19165
understand 19165
kal@@ 19153
response 19152
or, 19151
that, 19149
joined 19134
गति 19113
चु@@ 19112
निगरानी 19106
प्रेम 19098
हैं@@ 19096
सक्षम 19068
thou 19058
सितंबर 19057
स्थानों 19049
जिम्मेदारी 19036
पर्यावरण 19028
e: 19021
चिंता 19017
bl@@ 19012
ई, 19011
industrial 19008
recorded 19008
employees 19000
vehicles 18998
despite 18997
safety 18996
addressing 18990
lodged 18985
फाइनल 18985
शहरों 18979
तापमान 18978
town 18975
आसान 18975
जीएसटी 18956
ta@@ 18954
घायलों 18949
nath 18938
मन@@ 18920
हाईकोर्ट 18916
बनाई 18910
बातों 18909
कहने 18905
स्ट@@ 18903
गतिविधियों 18899
days. 18881
जन्म 18870
ल-@@ 18870
ी। 18865
स्टेशन 18864
built 18859
रोकने 18856
रूस 18854
meeting. 18842
fe@@ 18841
आपका 18840
अर्थ 18836
ड़@@ 18831
स्वतंत्रता 18829
ंड@@ 18816
compared 18815
वाद 18805
खरीद 18803
ban@@ 18801
schools 18798
लाइन 18796
night 18793
problems 18793
डीजल 18780
staff 18779
उपचार 18770
gst 18760
तकनीकी 18746
ation@@ 18741
मेगापिक्सल 18740
ग्राम 18737
", 18735
economy 18734
hard 18734
hearing 18734
measures 18728
नाथ 18722
phase 18713
चौ@@ 18704
takes 18702
बैंकों 18701
यो@@ 18700
शुल्क 18694
हिंदू 18685
ment 18675
दौरा 18670
काल 18667
होनी 18662
कता 18661
bu@@ 18659
कर्@@ 18652
makes 18645
ला, 18641
we@@ 18639
नु@@ 18637
involved 18636
ren@@ 18623
एशिया 18619
पोस्ट 18613
loss 18606
खराब 18604
ही@@ 18596
external 18593
ut@@ 18592
bodies 18591
products 18589
tata 18589
nearly 18581
रखी 18576
rec@@ 18573
नये 18568
मौका 18566
तस्वीर 18561
महान 18558
पहल 18553
sought 18550
thats 18546
ग्@@ 18532
progress 18527
offer 18519
pradesh. 18512
ज़्यादा 18510
।" 18502
पूछताछ 18500
ऋण 18499
ए) 18496
इन्@@ 18486
सोमवार 18482
34 18480
प्रदेश, 18476
लाया 18476
ur 18472
language 18462
अनुच्छेद 18462
ve@@ 18460
immediately 18459
brother 18450
वायरल 18448
वहाँ 18439
समझौता 18437
fl@@ 18436
42 18425
मानना 18418
पैसे 18415
smartphone 18411
शी 18410
wa@@ 18408
annual 18407
campaign 18407
happened 18402
ig@@ 18397
इंजन 18397
ड़ी 18391
अनुरोध 18381
बराबर 18375
fir 18370
करा@@ 18359
50@@ 18337
बुनियादी 18335
पोस्टमार्टम 18334
े, 18327
responsibility 18314
opportunity 18313
नयी 18306
3, 18292
bangladesh 18291
either 18290
in, 18289
quite 18288
30@@ 18282
2011 18280
इनके 18279
kar 18275
चुनावों 18272
55 18269
संस्कृति 18269
violence 18249
government, 18232
mu@@ 18216
असम 18212
… 18204
complete 18201
रख 18199
पर्याप्त 18192
me, 18184
एफ 18183
game 18179
pur@@ 18170
प्रेरित 18161
employment 18134
लिंग 18127
population 18114
nations 18109
सैन्य 18104
im 18097
anything 18096
supply 18096
कार्यों 18093
दौर 18085
ली, 18078
problem 18076
नियुक्त 18074
anil 18073
तुम्हारा 18071
प्रतिक्रिया 18071
मुकाबला 18047
cities 18045
किरदार 18042
bas@@ 18040
कार्य@@ 18040
देती 18040
doctors 18039
model 18038
deep 18034
दायर 18021
performance 18018
exchange 18015
implementation 18011
fully 18008
लंबे 18008
27@@ 18003
हुए, 18002
access 18000
ति 17997
low 17994
सके 17989
मुताबिक, 17982
hu@@ 17958
ँ@@ 17950
words 17949
शी@@ 17946
समझौते 17946
सह@@ 17939
मिलियन 17938
अनिल 17932
र्स 17919
44 17912
regional 17908
black 17899
5, 17896
वादी 17891
नियमों 17889
agreement 17881
stay 17880
65 17872
there. 17872
revealed 17869
too. 17863
tor@@ 17860
संक्रमण 17859
faith 17858
ter@@ 17857
64 17855
relief 17850
वायु 17850
टों 17842
औद्योगिक 17841
worked 17833
दर@@ 17819
relations 17818
आतंकवादी 17816
watch 17810
esh 17805
etc. 17780
यात्रियों 17772
proposed 17759
review 17755
डेटा 17748
होगा. 17731
redmi 17724
निश्चय 17719
खुश 17715
श्रीलंका 17712
country, 17708
बताया, 17704
परन्तु 17702
क़@@ 17700
popular 17699
वनडे 17693
संस्थानों 17690
सारी 17689
एन 17682
हिमाचल 17670
jo@@ 17665
उम्र 17662
ड़@@ 17660
करेगी। 17656
id 17655
tra@@ 17652
fourth 17647
रसूल) 17647
hours 17640
सामग्री 17629
यों 17625
मिलता 17619
कोलकाता 17615
authorities 17614
carried 17610
odi 17579
ev@@ 17570
200@@ 17568
टाटा 17568
भगवान 17560
ियाँ 17557
बढ़ा 17542
बिल 17540
ts. 17539
ready 17536
environment 17533
आर्@@ 17529
व्यक्तियों 17524
पड़ 17514
आनंद 17512
फरार 17511
महामारी 17502
greater 17495
seeking 17489
ge@@ 17473
pi@@ 17470
शाम 17470
tion 17458
exam 17457
को, 17443
लगाए 17443
हाई 17436
रखना 17434
अक्षय 17432
पहुंचे 17431
कहानी 17428
ones 17424
truth 17422
ness 17418
मुश्किल 17400
khan, 17387
नेटवर्क 17387
examination 17381
investigating 17361
terror 17358
6, 17355
दस 17353
bilateral 17352
british 17347
alliance 17339
stop 17334
almost 17323
relationship 17318
अन@@ 17311
'. 17310
mlas 17306
kept 17303
mad@@ 17299
tv 17289
ari@@ 17286
protest 17284
wickets 17284
सांस्कृतिक 17279
tourism 17271
kejriwal 17269
24@@ 17267
की. 17262
bus 17250
cr@@ 17237
ब्रिटेन 17236
seat 17234
संकट 17234
films 17233
ट्विटर 17232
ati@@ 17224
p. 17222
birth 17216
direct 17211
turned 17211
prasad 17199
de 17194
themselves 17191
ढ@@ 17184
?" 17175
ent. 17175
judicial 17169
re, 17168
vijay 17161
ऑ@@ 17138
thing 17135
150 17123
indians 17118
राज्यसभा 17112
उप 17104
nagar 17098
मुक्त 17095
in. 17085
ful 17081
प्रा@@ 17080
maximum 17075
कोच 17064
आशा 17063
secretary, 17062
उच्चतम 17059
झ@@ 17054
anti-@@ 17053
मंत्रिमंडल 17043
ali@@ 17040
हिंदी 17034
मुखर्जी 17027
सत्ता 17024
say: 17016
शुक्रवार 17013
कार्@@ 17011
स्टार 17005
23@@ 17003
े। 17002
भी@@ 17001
late 16994
कर, 16992
organised 16991
त) 16983
mi 16975
signed 16954
कर्मचारी 16951
dec@@ 16943
ties 16938
um 16933
बेशक 16933
फी@@ 16932
आगामी 16928
जापान 16920
c) 16911
work. 16910
scored 16907
opening 16900
silver 16898
w 16897
talks 16891
families 16888
gives 16886
save 16884
पड़ा 16879
युवाओं 16871
स्थल 16865
क्ष@@ 16863
चेन्नई 16863
स्टोरेज 16859
घरों 16857
2010 16856
फायदा 16847
ची@@ 16833
मर 16833
धोनी 16832
कू@@ 16825
minimum 16822
रोल 16821
tion@@ 16819
दिया. 16815
लर 16804
1. 16798
therefore, 16793
पुरुष 16792
जाएगी 16791
2. 16790
operation 16781
दोषी 16774
कानूनी 16772
billion 16766
उत्पाद 16764
खंड 16764
(i@@ 16758
तैनात 16752
डे 16746
रद्द 16745
दू@@ 16743
िया@@ 16737
हर@@ 16726
'' 16716
now, 16715
course 16708
मिलेगा। 16703
years, 16702
शासित 16685
latest 16683
जाकर 16683
दलों 16678
story 16674
सहमति 16661
short 16659
दबाव 16656
कहता 16650
experience 16648
10.@@ 16647
लगा@@ 16647
ब्@@ 16621
ऐतिहासिक 16620
under@@ 16615
28@@ 16610
संगठनों 16605
af@@ 16603
assistance 16592
movement 16590
job 16586
houses 16581
सरकारों 16568
लॉ@@ 16553
होगा, 16548
spokesperson 16547
american 16545
क़@@ 16534
air@@ 16531
जहाँ 16530
नियमित 16522
status 16513
नी, 16512
fast 16509
provisions 16505
योजनाओं 16499
daily 16485
rise 16485
existing 16484
खुदा 16479
mor@@ 16474
सच 16464
ज्@@ 16462
आवास 16456
49 16453
ks 16443
जवान 16429
आग्रह 16428
foundation 16427
37 16423
देर 16421
जमीन 16420
धा@@ 16417
जर्मनी 16416
टे 16416
फो@@ 16410
शो@@ 16408
han@@ 16405
allow 16399
difficult 16397
बलों 16396
''@@ 16380
eastern 16377
try 16375
बद@@ 16374
ity, 16372
कारों 16372
37@@ 16366
festival 16366
बू@@ 16366
लै@@ 16366
earlier, 16361
आती 16360
0 16358
handed 16345
निकल 16339
अधिनियम, 16327
जू@@ 16325
योग 16322
मार्@@ 16317
internal 16306
ground 16305
निपटने 16298
accident 16294
संचालन 16292
then, 16291
आखिरी 16291
बचाव 16288
offered 16284
ep@@ 16279
ट्रेन 16265
199@@ 16255
वकील 16255
confirmed 16247
gb 16245
इस्तीफा 16245
4, 16239
icc 16235
(ए@@ 16219
सोनिया 16217
yet. 16216
श्रृंखला 16209
गई. 16207
राष्‍ट्रीय 16201
ish@@ 16197
ड़े 16185
गेंद 16168
यी 16165
एं@@ 16164
shot 16160
ma 16158
talk 16157
wants 16139
उठा@@ 16136
neither 16134
freedom 16123
चीफ 16123
polls 16122
soon. 16107
47 16103
kan@@ 16089
बर्@@ 16087
तारीख 16082
completed 16077
ance 16070
उल्लंघन 16066
half 16062
चाहती 16056
himachal 16055
26@@ 16054
whatever 16054
सर्वश्रेष्ठ 16052
आसपास 16048
विधायकों 16046
सुझाव 16046
primary 16045
trust 16037
द्विपक्षीय 16021
अधिकतम 16020
पश्चिमी 16016
परमाणु 16015
and, 16012
दूरी 16007
99 16001
success 16000
m. 15997
सीधे 15995
effect 15985
एक्@@ 15984
वैज्ञानिक 15974
दाखिल 15966
sed 15965
लड़ाई 15965
38 15963
tr@@ 15959
super 15958
राव 15958
29@@ 15957
सिस्टम 15956
विशिष्ट 15955
टिकट 15952
3,@@ 15948
rest 15948
टिप्पणी 15940
arvind 15939
ंस 15939
हस्ताक्षर 15933
patel 15931
ist 15930
आंदोलन 15917
biggest 15907
rain 15904
भागीदारी 15901
established 15900
via 15897
cl@@ 15896
न्यायमूर्ति 15895
खाते 15891
range 15876
कह@@ 15875
या। 15873
es: 15858
blood 15849
00 15846
पाए 15846
क) 15833
संपत्ति 15819
god. 15815
ations. 15814
extended 15813
श्रेणी 15812
technical 15811
a's 15807
parliamentary 15807
later, 15800
बहु@@ 15796
sonia 15792
issue. 15789
promote 15789
एक्स@@ 15783
consider 15781
य, 15779
groups 15770
आईपीएल 15765
श्@@ 15765
ओवर 15760
na 15758
continued 15757
पाक 15752
formed 15750
thy 15747
प्रकाशित 15742
apply 15729
ph@@ 15723
गुणवत्ता 15722
अक्सर 15716
डा 15712
effective 15707
रहना 15706
je@@ 15703
caused 15702
impact 15699
अन्तर्गत 15695
इन्हें 15692
mat@@ 15682
vehicle 15679
लेना 15678
किन्तु 15677
35@@ 15673
सम्मानित 15671
sections 15670
मंगलवार 15665
e? 15664
ऊ@@ 15656
western 15653
ha 15651
ds 15637
ta 15636
facilities 15632
res@@ 15624
ary 15621
protection 15616
न्यूनतम 15615
मू@@ 15615
har 15612
सवार 15607
sc 15606
राजीव 15605
changes 15601
ईरान 15597
(p@@ 15594
2019: 15582
allegedly 15582
दुर्घटना 15577
passengers 15572
concerned 15561
god, 15561
br@@ 15553
बा 15542
demanded 15540
2009 15535
fall 15535
b) 15524
सर्@@ 15524
thought 15520
पाई 15515
सी) 15506
विरोधी 15501
africa 15496
bcci 15487
presence 15482
सराहना 15475
principal 15474
भि@@ 15474
43 15472
lord, 15457
culture 15443
moved 15443
improve 15440
): 15434
traffic 15432
significant 15427
janata 15421
donald 15418
जान@@ 15412
रही। 15407
शपथ 15406
अधि@@ 15395
महत्व 15391
देव 15389
notice 15385
charges 15383
युवक 15379
आरोपों 15376
सारा 15376
elected 15375
आधुनिक 15374
deaths 15372
successful 15370
ant@@ 15369
provides 15368
तैयारी 15363
kha@@ 15359
25@@ 15356
रखता 15349
hal@@ 15348
executive 15344
खिलाड़ियों 15343
ent, 15342
पं@@ 15342
छूट 15335
visited 15334
अधिकांश 15334
en, 15333
operations 15329
बीमा 15328
यू 15328
मूसा 15319
arrest 15318
asian 15318
जानी 15318
अक्टूबर 15313
average 15311
tic 15309
हिस्से 15306
कीमतों 15305
evidence 15299
others. 15299
प्रेस 15296
h, 15295
वाहनों 15291
इसलिए, 15290
कल@@ 15290
योगी 15289
40@@ 15286
mind 15285
funds 15284
hands 15280
friends 15276
एक@@ 15273
कब्जे 15265
नही 15259
रै@@ 15252
देख@@ 15251
का, 15249
पाल 15249
(एन@@ 15248
questions 15235
modern 15228
talking 15226
वार्षिक 15224
योग्य 15219
tu@@ 15215
38@@ 15212
unit 15207
lal 15206
संसदीय 15200
ra, 15191
अजय 15189
स्ट 15187
join 15183
वार 15183
पृथ्वी 15181
बुधवार 15178
51 15168
rules 15166
travel 15165
criminal 15156
चले 15154
वर@@ 15140
referred 15139
spirit 15139
लाइ@@ 15136
white 15135
देखें 15128
all@@ 15120
facing 15120
sale 15120
ations, 15116
लोकतंत्र 15114
रियर 15107
48@@ 15102
express 15102
ling 15101
sun@@ 15091
संकेत 15090
ीय 15090
ये@@ 15088
टूर्नामेंट 15084
fact 15079
st 15079
स्व@@ 15079
source 15073
fa@@ 15066
rape 15066
viral 15066
ौ@@ 15060
pur, 15050
didnt 15049
नायडू 15049
बॉ@@ 15038
भाषण 15038
एक्ट्रेस 15035
शु@@ 15028
des@@ 15020
ity. 15020
लाए 15019
crore. 15015
remained 15009
फ्@@ 15009
न्स 15008
ons 15003
(m@@ 15000
इमरान 14993
प्रो@@ 14993
स्टे@@ 14991
cre@@ 14986
कैबिनेट 14985
failed 14981
republic 14981
7, 14979
mentioned 14975
family. 14968
hand@@ 14964
allah, 14963
वो@@ 14961
state, 14959
', 14958
ग्रहण 14949
conduct 14946
तनाव 14943
plans 14941
up. 14941
अशोक 14939
गैर-@@ 14938
नौसेना 14936
tried 14935
far. 14933
3. 14926
सेवाएं 14919
द्@@ 14914
अलावा, 14904
जुड़ी 14904
8, 14900
twitter 14899
अरविंद 14894
अतः 14893
माता 14891
समक्ष 14888
सिविल 14881
da@@ 14880
am, 14876
picture 14876
(1) 14875
ca@@ 14864
सोच 14858
seek 14856
ड, 14855
गी@@ 14854
लिखित 14853
प्रार्थना 14851
airport 14850
39 14849
आउट 14843
उत्पन्न 14843
ै@@ 14841
हित 14840
re-@@ 14837
games 14834
दृष्टि 14834
century 14832
नेपाल 14830
शूटिंग 14808
इंटरनेट 14806
tions. 14801
send 14800
(the 14799
भाव 14798
cut 14797
ke@@ 14797
potential 14797
कार्यक्रमों 14797
inside 14792
target 14787
rates 14783
द, 14780
sp 14779
ou@@ 14770
denied 14765
certainly 14759
growing 14758
नौ 14754
रैम 14754
ering 14753
या, 14751
निर्वाचन 14750
boss 14744
जीतने 14737
ber@@ 14723
2021 14722
न्यायिक 14722
build 14719
बनाना 14716
समाचार 14714
निर्@@ 14712
जाति 14711
student 14707
terrorists 14707
प्रतिबंध 14706
courts 14701
उल्लेख 14700
akshay 14693
insurance 14693
बदला 14690
david 14683
fo@@ 14681
यात्री 14681
शिखर 14673
झारखंड 14665
hyderabad 14662
ajay 14658
govt 14657
रविवार 14655
ष@@ 14652
कला 14650
सोने 14646
2008 14645
function 14643
डाल 14639
married 14636
cash 14634
की) 14629
sl@@ 14628
न्यूजीलैंड 14625
os 14617
bs 14615
गोवा 14614
पूजा 14609
अफगानिस्तान 14608
police, 14598
कार्यकर्ताओं 14595
everything 14593
discussed 14589
o, 14587
gar@@ 14586
opportunities 14586
se, 14586
a-@@ 14585
rule 14577
increasing 14569
उठाए 14569
शख्स 14568
दिया, 14566
au@@ 14560
mr. 14555
wrote 14555
रैली 14555
उठा 14549
वितरण 14546
units 14543
52 14540
व्यक्तिगत 14527
bad 14521
green 14521
कारणों 14520
pal@@ 14515
ies 14510
payment 14509
4-@@ 14505
मिलती 14488
41 14476
leadership 14469
serve 14468
receive 14466
नौ@@ 14460
नोटिस 14457
closed 14452
schemes 14452
२@@ 14430
विद्यार्थियों 14419
arun 14416
मिलते 14415
समा@@ 14415
मंच 14410
हूं. 14409
सी, 14396
संघर्ष 14391
उपराष्ट्रपति 14390
ten 14389
निर्माता 14387
वास्तविक 14382
बीमारी 14379
बताते 14376
eth 14374
तुमसे 14374
az@@ 14373
ry 14364
छोटी 14362
बाढ़ 14355
stock 14353
करा 14351
ps 14350
sm@@ 14346
आपने 14346
fil@@ 14338
ब्याज 14335
names 14330
nadu 14322
भावना 14319
planning 14318
ance. 14316
अंतरिक्ष 14315
network 14313
सीमित 14312
शनिवार 14311
teachers 14309
कर्मियों 14304
goods 14296
conditions 14288
man, 14287
दी, 14283
लीग 14283
bigg 14281
चारों 14280
red. 14264
heard 14259
season 14253
seized 14252
लड़की 14251
importance 14248
निशाना 14232
व्यवहार 14222
ट्@@ 14221
वार्ता 14218
9, 14217
keeping 14214
learn 14214
responsible 14211
(एस@@ 14206
winning 14206
although 14193
ai 14189
attend 14188
urged 14188
दास 14183
सम्@@ 14182
speak 14174
पन 14173
therefore 14171
बुरी 14168
बल्लेबाजी 14165
पवित्र 14163
वर्षीय 14163
उठाने 14161
co-@@ 14155
परिवारों 14155
पड़ता 14145
भोजन 14145
organisation 14142
कार्यकारी 14141
chennai 14140
तत्काल 14138
gang@@ 14136
asia 14132
pictures 14132
out. 14127
ash@@ 14121
es) 14118
code 14096
बं@@ 14094
ak 14091
ter 14087
ताओं 14083
दीपिका 14079
संगीत 14077
knows 14074
तस्वीरें 14072
मिलेगी। 14069
पुराने 14063
setting 14061
महासचिव 14053
bank, 14051
published 14049
ai@@ 14047
clean 14043
rich 14042
यूपी 14034
शर्मा, 14029
उत्पादों 14027
तियों 14022
area. 14019
rbi 14015
जेटली 14014
majority 14001
मिल@@ 13998
goes 13991
celebrated 13988
अनिवार्य 13987
laws 13986
मौ@@ 13977
मनुष्य 13972
लंबी 13970
लॉकडाउन 13962
bur@@ 13957
नोट 13957
thousand 13954
हाउस 13949
4,@@ 13947
as, 13941
god@@ 13941
ar. 13940
साइ@@ 13940
रहेगा। 13933
इंस्टाग्राम 13924
दोस्त 13920
फ्रांस 13920
avoid 13919
चलता 13917
occasion, 13912
engine 13907
also, 13896
वॉ@@ 13895
opened 13893
यूनिवर्सिटी 13888
न्‍@@ 13884
इतनी 13883
भ्रष्टाचार 13882
fresh 13881
स) 13881
गंगा 13874
विपक्ष 13870
speed 13869
nine 13867
खु@@ 13867
आबादी 13863
agricultural 13858
temperature 13858
prepared 13852
तेलंगाना 13846
गिरफ्तारी 13845
tan@@ 13844
la 13843
डॉक्टर 13842
fin@@ 13840
net 13836
खूब 13835
resources 13834
हे 13834
victory 13833
सदन 13823
बहन 13821
समर्पित 13813
्र@@ 13813
son@@ 13812
english 13805
jail 13805
el 13804
ju@@ 13804
नर 13802
(d@@ 13800
posted 13800
les 13792
sea 13784
कराई 13781
ala 13779
स्वस्थ 13777
गेंदबाज 13772
nam@@ 13764
सेट 13764
बल@@ 13759
85 13746
benefits 13743
इस@@ 13743
awards 13736
rukh 13732
subject 13727
पढ़ें 13724
od@@ 13723
95 13718
पारित 13717
bjp. 13712
अंतर 13711
,0@@ 13708
खोज 13706
dr@@ 13703
industries 13701
partnership 13701
participated 13697
खुलासा 13696
सें@@ 13695
मंत्रियों 13688
dhoni 13686
औसत 13683
2-@@ 13677
her@@ 13671
4. 13668
petition 13664
le, 13662
type 13653
विस्तृत 13653
जमानत 13652
sure 13650
christian 13649
त्मक 13649
selected 13648
ten@@ 13642
injured. 13641
बड़ी 13629
जरिये 13623
centres 13620
remains 13618
nar@@ 13616
trains 13613
ashok 13612
display 13611
kingdom 13605
y-@@ 13604
spoke 13601
deepika 13599
नागरिकता 13596
समस्याओं 13596
प्रावधान 13595
ways 13594
निर्भर 13594
add 13591
ड्स 13591
tal@@ 13590
श्रीमती 13590
जाएगा. 13586
ल्‍@@ 13586
िय@@ 13583
जाय@@ 13582
आयात 13581
दान 13580
strengthen 13578
u, 13578
example 13575
चंडीगढ़ 13575
चोट 13572
shows 13571
read: 13570
सलाहकार 13570
contest 13566
अर्जुन 13565
climate 13559
,000 13554
स्वामी 13552
चौधरी 13545
इकाई 13544
property 13539
ग्रुप 13536
basic 13533
se. 13532
पू@@ 13531
है) 13530
ए, 13523
ated. 13522
डॉ@@ 13521
anyone 13519
पुर, 13515
जै@@ 13514
शब्दों 13513
tions, 13512
आकार 13510
placed 13503
re. 13495
दाम 13495
चलने 13489
विरुद्ध 13487
सौ 13487
commercial 13485
गत 13482
5. 13475
none 13473
प्राचीन 13472
सख्त 13471
56 13470
physical 13467
attack. 13460
forest 13459
present. 13455
जल्दी 13454
खेला 13453
assam 13447
नर@@ 13447
ended 13445
अगली 13445
monday 13444
54 13443
duty 13439
पहुंचने 13437
ली। 13434
चेयरमैन 13430
्य 13430
्य@@ 13428
terrorism 13423
हफ्ते 13420
equal 13415
ji@@ 13413
site 13410
gur@@ 13409
char@@ 13407
users 13407
degree 13405
back@@ 13400
नो 13399
री, 13399
46 13398
बीसीसीआई 13397
हूं, 13396
़@@ 13393
अर्@@ 13392
stage 13388
अहमद 13388
कारी 13387
ly@@ 13384
base 13383
सिटी 13382
क्रम 13381
elections. 13380
rao 13380
वर्ल्ड 13380
singh. 13378
सचिन 13373
sat@@ 13372
particular 13369
super@@ 13365
ण, 13363
art 13362
12.@@ 13339
अवैध 13339
ordered 13334
छा@@ 13328
हल 13327
pakistan. 13324
c, 13323
steel 13320
ath@@ 13318
प्रसिद्ध 13312
दूसरों 13311
11.@@ 13307
yo@@ 13307
नव@@ 13307
बनाकर 13300
श्री@@ 13299
ish 13294
नौकरी 13294
बच्चन 13291
है।" 13291
ट्र@@ 13290
के. 13288
ल) 13287
लिस्ट 13287
अल्@@ 13284
girls 13281
5-@@ 13277
rear 13276
हिस्सों 13275
one. 13271
sk@@ 13269
suicide 13269
और@@ 13269
मोहन 13263
en. 13262
extremely 13262
children. 13256
प्रश्न 13246
जाया 13243
स्कूलों 13240
सेंटर 13239
off@@ 13232
टिंग 13229
आइ@@ 13226
शाहरुख 13224
ind@@ 13222
मंडल 13222
below 13221
सैनिकों 13218
plea 13215
बिल्कुल 13213
स्टेट 13213
case, 13212
states. 13200
इंतजार 13193
ability 13191
वापसी 13190
विश्‍वास 13190
player 13189
देवी 13189
answer 13184
felt 13182
निकट 13182
मरीजों 13177
250 13176
instead 13176
सों 13174
ip@@ 13171
वां 13170
receiving 13163
सेंसर 13163
प्रतियोगिता 13162
विवाह 13161
s.@@ 13156
ों, 13153
ेंगे 13142
वान 13141
ban 13140
y) 13140
जर 13137
actually 13129
6-@@ 13128
ri 13127
is. 13121
armed 13112
dev@@ 13111
critical 13110
wrong 13108
needed 13104
ब्रिटिश 13095
born 13094
थीं 13085
regular 13083
music 13079
galaxy 13077
महीनों 13069
al-@@ 13068
accounts 13065
jan@@ 13065
कोरिया 13063
निवासी 13063
headed 13061
plus 13060
aw@@ 13055
ste@@ 13055
ly, 13053
खड़े 13053
hand, 13049
naidu 13049
contribution 13046
st. 13038
ट्रे@@ 13036
ly. 13032
agreed 13029
रिजर्व 13028
राह 13027
एक्टर 13025
sin@@ 13023
प्रबंध 13021
develop 13020
way. 13014
अमिताभ 13011
खतरा 13005
शुरूआत 13002
please 12993
realme 12993
couple 12991
evil 12986
friday 12984
holding 12983
गढ़ 12983
john 12982
कब 12981
(r@@ 12975
exercise 12974
countries. 12968
strength 12968
कुमार, 12965
ncp 12964
league 12963
बीते 12962
terrorist 12961
72 12958
reduce 12956
maha@@ 12955
coal 12952
district. 12950
सेल 12947
इच्छा 12942
risk 12937
manmohan 12932
bra@@ 12927
maintain 12925
imran 12923
muslims 12908
offers 12905
cap@@ 12902
साझेदारी 12901
टर@@ 12895
separate 12894
शेष 12891
दिखा@@ 12889
अरुण 12888
ए. 12888
pass 12887
ir 12884
anand 12882
मनमोहन 12881
specific 12880
फ्रंट 12874
खाने 12865
pressure 12864
stone 12853
मार@@ 12853
yogi 12852
shooting 12847
ins 12846
rejected 12839
amitabh 12835
दिखाया 12833
running 12831
बढ़ती 12827
var@@ 12823
60@@ 12821
ध 12813
pr@@ 12812
aircraft 12811
purpose 12811
80@@ 12807
लगने 12806
1-@@ 12805
जलवायु 12805
roles. 12804
kolkata 12803
देव@@ 12803
उत्तरी 12801
2000 12798
परिसर 12797
किए। 12795
3-@@ 12787
शहीद 12784
worship 12782
छत्तीसगढ़ 12782
c. 12772
तुमने 12771
oc@@ 12766
न्यू@@ 12766
loan 12765
बेहतरीन 12761
manufacturing 12760
provision 12758
ममता 12755
individual 12749
चाहिए, 12738
shown 12736
fans 12735
prakash 12732
लोकप्रिय 12730
फ़@@ 12729
house. 12727
लिखा, 12725
sw@@ 12724
क्लिक 12724
witnesses 12722
can@@ 12721
शीघ्र 12716
internet 12713
चर 12712
box 12711
सिवा 12708
फंड 12707
बड़ा 12705
खेलों 12700
मुहैया 12699
solar 12698
ch 12694
सक@@ 12685
थाना 12684
एस. 12683
आय@@ 12681
approach 12676
dar@@ 12674
heavens 12672
निर्मित 12667
skill 12666
politics 12663
घंटों 12658
educational 12653
पूछा 12642
ओलंपिक 12639
प्राथमिकता 12637
सुनील 12635
carry 12634
माहौल 12633
चेतावनी 12632
विजेता 12632
inc@@ 12630
initiative 12624
रहेंगे। 12614
ह, 12606
पह@@ 12603
ज्यादातर 12590
independent 12587
ty@@ 12587
मह@@ 12585
दिये 12584
feature 12582
कमजोर 12579
soldiers 12575
zealand 12573
विवरण 12573
introduced 12568
झा@@ 12564
० 12562
calls 12557
essential 12557
remember 12557
sons 12555
तंत्र 12552
res 12549
दर्@@ 12549
spiritual 12543
पूर्वोत्तर 12542
रोग 12542
लंदन 12540
litre 12537
coach 12535
covid 12532
प्राधिकरण 12525
incident, 12524
रिया 12523
programmes 12522
claim 12510
समुद्र 12508
aap 12502
dha@@ 12502
reliance 12500
दृष्टिकोण 12499
believed 12497
कही 12489
uk@@ 12488
माह 12487
shares 12482
लैंड 12482
पदों 12475
deceased 12473
mukherjee 12473
गोली 12473
ass@@ 12465
gen@@ 12464
कि, 12459
vo@@ 12458
ि 12457
मैन 12456
at, 12451
associated 12448
सहयोगी 12446
द्र@@ 12444
ग्रा@@ 12443
ach@@ 12441
ann@@ 12437
tive 12437
modi. 12429
गेंदबाजी 12429
nuclear 12428
ball 12424
मानते 12424
developing 12422
,"""" 12421
उठाया 12420
selection 12415
plant 12410
wish 12410
मुकदमा 12410
नियुक्ति 12407
कहां 12404
ents 12401
उपाध्यक्ष 12398
(सी@@ 12393
challenge 12392
testing 12391
खेलने 12390
विशाल 12389
हा 12389
witness 12388
प्रकट 12387
bad@@ 12386
टीमों 12382
rally 12377
achieve 12376
are@@ 12376
ें। 12375
generation 12366
सां@@ 12364
vote 12361
ऐलान 12360
deployed 12358
krishna 12358
यातना 12357
रोड 12351
गठित 12347
particularly 12346
estimated 12342
ted. 12342
yoga 12342
मान्यता 12342
1,000 12341
month. 12334
उपकरण 12334
मिनट 12334
challenges 12332
strike 12331
छोड़कर 12331
sunil 12330
> 12328
ance, 12325
world, 12324
hear 12323
59 12321
यर 12321
don@@ 12314
ah 12308
ख 12301
शोध 12300
स्वतंत्र 12300
helped 12299
पावर 12298
tests 12297
hel@@ 12293
municipal 12293
क-@@ 12290
यूरोपीय 12285
crime 12282
दोबारा 12273
उत्@@ 12271
रूपये 12262
treatment. 12259
revenue 12255
53 12252
मुद्दा 12250
प्रदूषण 12249
हम@@ 12240
brothers 12238
देश@@ 12236
ite 12231
party. 12230
जमकर 12230
alia 12228
सुशांत 12224
understanding 12218
खि@@ 12217
10,000 12216
िक 12216
pal 12214
rajiv 12214
वेरिएंट 12204
begin 12201
te 12198
कां@@ 12198
s-@@ 12197
paul 12193
गरीब 12192
58 12190
easy 12190
जय@@ 12189
रखे 12187
पेज 12186
son, 12182
ses 12181
bharatiya 12176
sachin 12174
हाथों 12173
मनाया 12172
छि@@ 12167
survey 12165
becomes 12163
chaired 12162
fell 12162
फेसबुक 12156
produce 12153
round 12153
mer@@ 12147
submitted 12143
vision 12140
टै@@ 12139
बुरा 12135
मालूम 12135
ci@@ 12131
ंट 12131
protect 12129
सिर 12128
laid 12127
cor@@ 12126
पहुंचा 12124
198@@ 12120
und@@ 12120
कोविड 12120
सुपर 12120
va@@ 12115
पेट्रोलियम 12115
(s@@ 12110
accept 12109
1st 12107
dedicated 12102
के) 12098
polling 12097
बनर्जी 12097
cover 12096
lanka 12096
आयुक्त 12095
sides 12094
ियों, 12079
म) 12078
p) 12067
मानी 12067
served 12065
पॉ@@ 12065
weather 12060
रत 12060
throughout 12054
nag@@ 12049
आलोचना 12042
marriage 12039
ment@@ 12038
skipper 12037
idea 12031
holy 12025
खाना 12024
ढंग 12022
सुविधाओं 12022
sharing 12018
कहती 12017
हॉ@@ 12015
ं। 12011
roads 12010
बह@@ 12008
crores 12007
systems 12004
सकता। 12002
here, 11994
पी) 11985
राजस्व 11980
wi@@ 11978
दों 11977
th, 11972
जताई 11965
appeared 11963
investigation. 11963
ist@@ 11963
itself 11962
निकाल 11961
र) 11957
इंच 11954
proposal 11948
67 11947
सामान 11947
-based 11946
vis@@ 11944
जल@@ 11943
ती, 11943
केंद्रित 11940
मर@@ 11940
fine 11937
p, 11937
beat 11936
material 11933
वचन 11933
दिल्ली, 11932
ally, 11925
she@@ 11921
index 11918
प्रे@@ 11916
t) 11906
जिम्मेदार 11905
चोपड़ा 11900
काबू 11898
लें। 11897
st, 11895
i) 11894
ve 11889
नै@@ 11888
िया, 11885
गोयल 11884
appeal 11883
टाइ@@ 11880
पुनर्@@ 11880
inaugurated 11879
सकारात्मक 11874
तकनीक 11858
वादा 11858
करेगी 11856
थे@@ 11855
आसानी 11853
रिजल्ट 11851
क्र@@ 11849
खड़ा 11849
थाने 11845
bachchan 11843
labour 11842
ताकत 11842
app 11840
anniversary 11838
१@@ 11835
ठाकुर 11834
पीड़ित 11833
pranab 11831
enough 11827
minister. 11827
reserve 11825
act. 11824
instagram 11821
कक्षा 11820
सालों 11818
लेख 11815
सिफारिश 11815
थी@@ 11814
photo 11813
फ़िल्म 11811
organized 11810
page 11808
ongoing 11804
57 11784
granted 11784
sexual 11783
standard 11781
प, 11781
initiatives 11779
votes 11777
pp@@ 11773
orders 11770
भी, 11770
अंग्रेजी 11768
संचार 11767
ying 11766
ग्राहकों 11766
ed: 11764
कठिन 11761
rail 11753
mand@@ 11752
हिसाब 11751
ड़ 11737
कितना 11724
ज़ा@@ 11724
कपिल 11722
देगा 11722
cant 11721
राजमार्ग 11718
example, 11714
accident. 11712
et 11710
returned 11706
royal 11706
गए. 11706
रास्ते 11706
36@@ 11702
strategic 11700
स्थायी 11699
pol@@ 11697
भारत-@@ 11691
google 11690
chopra 11687
attention 11686
sing@@ 11684
han 11683
approval 11679
nature 11677
बदले 11675
kashmir. 11674
बैटरी 11674
addition 11673
प्रदर्शित 11668
गई, 11666
ज़ 11666
democratic 11664
70@@ 11658
चेक 11658
शुभकामनाएं 11656
गुप्ता 11655
cur@@ 11654
event. 11652
मरने 11652
den@@ 11650
signs 11643
als, 11642
arjun 11631
डोनाल्ड 11628
(आई@@ 11626
bail 11625
kareena 11623
tur@@ 11623
ser@@ 11622
चुना 11620
anushka 11619
punjab, 11619
नीतीश 11617
summit 11616
कमेटी 11611
thousands 11609
screen 11607
रणवीर 11606
ें, 11603
registration 11599
nitish 11597
मों 11595
arm@@ 11591
corruption 11591
completely 11589
आरंभ 11586
maharashtra, 11584
प्रोत्साहित 11579
mohan 11566
trial 11562
विचारों 11562
परेशान 11560
जिनका 11559
form@@ 11558
rescue 11557
लेंगे। 11555
1000 11554
f) 11553
someone 11551
loc@@ 11550
ism 11548
self 11547
”@@ 11546
63 11545
platform 11543
सूचकांक 11543
उपाय 11542
पड़@@ 11542
बजाय 11541
600 11540
आपदा 11538
place. 11536
jharkhand 11534
व्य@@ 11533
ba 11532
ruling 11532
tuesday 11531
jan 11527
kar, 11525
हद 11525
accepted 11523
भीड़ 11518
red@@ 11515
800 11513
kapil 11513
किंग 11513
commerce 11512
room 11509
sol@@ 11509
लता 11508
european 11506
numbers 11506
villages 11505
plays 11501
re 11501
safe 11498
पर्@@ 11498
che@@ 11497
victim 11494
रनों 11491
विपक्षी 11491
न्यू 11489
mahatma 11487
kapoor, 11486
बढ़ने 11486
68 11481
घटनाओं 11480
हवा 11479
fac@@ 11476
mc@@ 11472
कहा- 11471
rather 11470
housing 11468
चुनावी 11467
शोक 11463
महानिदेशक 11459
suffered 11458
सर्वोच्च 11455
अन्‍य 11452
खा 11452
karan 11449
बनाम 11447
medal 11445
resolution 11445
bsp 11443
62 11442
lin@@ 11441
aware 11437
आखिर 11435
बढ़ोतरी 11434
citizenship 11433
एक-दूसरे 11433
s), 11427
जीता 11427
ative 11420
प्‍@@ 11420
i-@@ 11419
शन@@ 11419
निया 11415
confidence 11414
cast 11409
देखभाल 11408
74 11407
दुख 11405
ranveer 11404
morning 11403
सेक्टर 11399
link 11398
facility 11397
stands 11393
kings 11392
normal 11390
ate. 11386
ही, 11386
israel 11385
71 11381
(b@@ 11379
om 11377
चाह@@ 11377
हथियार 11369
इनकी 11368
कार्यवाही 11368
da 11364
ब्र@@ 11361
agencies 11360
immediate 11358
दिल्‍ली 11358
score 11355
् 11352
speech 11348
transfer 11345
डिजाइन 11344
भेजे 11340
discuss 11338
पुत्र 11337
ओडिशा 11336
तर 11334
va 11331
टू@@ 11328
multiple 11327
tic@@ 11327
ट्रक 11324
शक 11320
awarded 11319
trans@@ 11319
अधिकारों 11319
y? 11316
वास्ते 11313
लगाई 11309
#@@ 11308
ज़रूरत 11305
religion 11302
down@@ 11300
nav@@ 11300
ता। 11300
ceremony 11299
ॅ@@ 11299
carrying 11298
head@@ 11298
court, 11290
wednesday 11289
डाला 11288
मसीही 11286
मुद्रा 11286
करीना 11285
त्र@@ 11284
पक्षों 11283
एशियाई 11277
changed 11276
णी 11272
प्रदेशों 11266
90@@ 11263
दिल्ली: 11263
division 11260
मालिक 11260
2017-18 11257
appropriate 11250
aj@@ 11242
indi@@ 11239
ke 11239
वेतन 11233
इंसान 11231
मिला। 11227
गाने 11218
यन 11218
अकाउंट 11214
मनोहर 11207
goa 11201
gandhi, 11199
अमरीकी 11199
पुस्तक 11194
प्रतिनिधि 11191
आतंकवादियों 11190
work@@ 11186
fled 11184
all-@@ 11182
महिलाएं 11182
petroleum 11181
sign 11181
जोखिम 11179
&@@ 11178
मृत 11174
आत्मा 11172
तीसरा 11172
स्वर्ण 11171
अनुष्का 11170
india@@ 11169
star@@ 11169
met@@ 11166
शा 11165
हार्दिक 11165
संहिता 11164
sushant 11160
जवानों 11160
निरंतर 11160
सैनिक 11159
jit 11157
unique 11153
kashmir, 11144
film, 11140
disease 11137
कर्ज 11132
ts, 11131
दम 11129
मेहनत 11128
stations 11126
प्रणब 11126
डाउनलोड 11123
ancient 11120
self-@@ 11120
y: 11117
तमाम 11115
cent. 11113
जी, 11113
मेट्रो 11113
uc@@ 11111
कार्यकर्ता 11111
allegations 11108
starting 11108
victims 11107
severe 11100
attacks 11097
indeed, 11092
ख़@@ 11087
device 11086
प्रशासनिक 11084
निम्नलिखित 11083
er-@@ 11082
punishment 11081
प्रतिनिधित्व 11080
नू@@ 11066
अधिकतर 11064
स्वच्छ 11064
6. 11063
constituency 11061
दर्शन 11060
वस्तुओं 11060
फू@@ 11059
arrived 11058
mp@@ 11057
day@@ 11056
batsman 11053
5,@@ 11047
बता@@ 11043
design 11041
ob@@ 11039
markets 11037
col@@ 11036
निर्देशन 11036
claims 11034
continues 11031
traditional 11031
दंड 11028
ath 11025
lockdown 11024
port 11022
sitting 11016
आईसीसी 11015
do. 11014
path 11012
amendment 11008
हुक्म 11006
communication 11004
बढ़त 11004
जिंदगी 11003
समूहों 11003
smart 11001
करियर 11000
ence 10999
thursday 10997
electric 10996
ship 10994
तभी 10990
ढांचे 10989
सौ@@ 10986
आंतरिक 10985
सीजन 10985
states, 10979
mumbai. 10978
पवार 10977
व, 10977
विद्युत 10975
सो 10973
representatives 10968
hath 10967
m, 10967
नहीं@@ 10965
7. 10962
दशक 10962
77 10956
ment. 10956
managed 10955
apex 10953
seats. 10953
creating 10948
वैसे 10947
पार्क 10943
hy@@ 10937
wal@@ 10933
awareness 10932
ंक 10931
मण्डल 10929
ris@@ 10924
बदलने 10924
t-@@ 10923
ेंगे। 10923
जानें 10920
ore 10919
matches 10917
hol@@ 10914
र-@@ 10913
2020: 10910
pakistan, 10910
टी, 10908
रास्ता 10900
तीसरी 10899
a: 10896
थो@@ 10896
famous 10894
श्रम 10892
addressed 10890
supported 10887
जग@@ 10883
corporate 10878
ारा 10876
iphone 10875
तुमको 10874
shi@@ 10873
str@@ 10873
android 10872
firm 10869
tested 10869
matters 10867
sho@@ 10867
तेरे 10865
संस्था 10864
beyond 10861
remaining 10859
ian 10851
यौन 10851
महात्मा 10849
ss@@ 10845
इतने 10845
करें. 10845
mur@@ 10840
साथी 10840
category 10838
वस्तु 10838
man. 10837
mak@@ 10836
मना 10832
admit 10831
legislative 10830
भर@@ 10830
in-@@ 10826
कितनी 10824
initiated 10823
manohar 10821
वार@@ 10821
refused 10820
ge 10817
हैं: 10817
learning 10816
ग्रे@@ 10812
ments 10811
telangana 10807
standing 10801
जों 10797
पी. 10797
ki 10794
8,@@ 10791
gr@@ 10791
ul 10790
सब@@ 10788
jaitley 10779
उल्लेखनीय 10775
flight 10773
कायम 10773
2) 10771
toll 10770
सहमत 10770
development, 10769
नज़र 10769
van@@ 10763
pas@@ 10760
med@@ 10759
priced 10757
scientific 10755
engineering 10754
ked 10750
तिथि 10749
tribal 10747
inquiry 10745
posts 10738
प्राथमिक 10737
command 10736
independence 10736
सिन्हा 10734
3: 10731
cas@@ 10730
चौहान 10727
her. 10726
uk 10720
जयंती 10718
66 10716
निर्देशक 10716
%), 10711
त्‍@@ 10711
2007 10707
secondary 10706
ings. 10704
गौरतलब 10704
बाइक 10697
कम@@ 10691
टक्कर 10687
double 10684
entry 10684
sen@@ 10684
o. 10681
cu@@ 10679
trading 10679
ill@@ 10678
चै@@ 10677
ally. 10674
bh@@ 10674
fighting 10674
पड़े 10674
y's 10673
directly 10672
बिग 10672
enable 10670
als. 10669
lam@@ 10666
राजपूत 10660
चलाने 10656
प्रसारण 10653
managing 10651
sales 10648
पूंजी 10644
गै@@ 10641
ंगा 10640
स्क्रीन 10639
president, 10638
लघु 10638
स्रोत 10635
jam@@ 10633
घाटी 10633
छोटा 10633
तिमाही 10633
discussion 10629
gan@@ 10629
(डी@@ 10628
wide 10622
हटाने 10621
आंकड़ों 10618
rel@@ 10617
जिनकी 10614
suspended 10610
ण्@@ 10607
ऑफिस 10606
hon@@ 10603
मॉ@@ 10597
आसमान 10596
प्रकृति 10596
request 10594
लड़@@ 10594
dev 10593
सत्य 10593
fore@@ 10590
ical 10590
ंक@@ 10590
invited 10586
देखकर 10584
kg 10583
middle 10582
truck 10581
नामक 10581
tim@@ 10578
click 10576
sunday 10573
शतक 10573
stood 10568
monitoring 10565
(पी@@ 10563
गये। 10563
संक्रमित 10563
फल 10558
पौलुस 10552
gam@@ 10548
fire. 10547
7,@@ 10546
speaker 10545
शैतान 10545
चुनौतियों 10541
टैक्स 10541
डिस्प्ले 10539
पैसा 10539
सच्चाई 10539
सर्वेक्षण 10538
वेस्टइंडीज 10533
जानिए 10531
thank 10530
massive 10529
mumbai, 10528
स्थिर 10528
proper 10520
eat 10519
अभ्यास 10519
78 10517
कृत 10513
events 10509
  10507
9,@@ 10503
ence, 10501
हटा 10501
rss 10499
prevent 10496
संचालित 10496
islamic 10495
चली 10494
11@@ 10490
tour 10487
song 10486
बैंक, 10483
debut 10476
entered 10472
प्रारंभ 10472
ए। 10471
nobody 10469
h. 10463
russia 10460
distribution 10456
theres 10451
विषयों 10450
or. 10447
मर्@@ 10442
2: 10439
प्रस्तावित 10439
saturday 10437
ings, 10429
val@@ 10426
metro 10425
73 10423
sold 10423
guidelines 10421
shifted 10418
कटौती 10418
faced 10411
bel@@ 10410
reasons 10410
बार@@ 10405
ah@@ 10403
धवन 10402
सौंप 10402
il 10399
कैंसर 10399
खतरे 10398
cases, 10394
शुरुआती 10384
bab@@ 10383
injuries 10377
facebook 10375
स्तरीय 10373
imposed 10372
noted 10372
german 10371
grant 10371
मेंट 10370
statement. 10367
आई) 10366
assured 10365
एकता 10365
प्रभु 10362
innovation 10356
reply 10356
हिस्सेदारी 10356
rainfall 10353
एजेंसियों 10347
holds 10343
पल 10343
तरीका 10341
प्लान 10337
बढ़@@ 10332
@@@ 10323
ग़@@ 10323
becoming 10322
grand 10319
सुरेश 10318
gujarat, 10312
लौट 10312
अनुरूप 10311
टेड 10308
ants 10306
कार्यकाल 10302
मिश्रा 10300
actors 10299
सर्वाधिक 10297
सिं@@ 10297
बचाने 10293
protests 10291
commitment 10290
39@@ 10289
संभावित 10288
बचा 10287
-year-old 10281
books 10280
together. 10277
sil@@ 10272
गुरुवार 10271
product 10268
mas@@ 10267
yes, 10267
क्रिकेटर 10266
raise 10264
mutual 10260
pre-@@ 10255
home. 10253
आपराधिक 10253
नॉ@@ 10247
band@@ 10245
राष्‍ट्रपति 10240
relating 10239
1: 10238
आध्यात्मिक 10230
appear 10226
ty 10223
export 10221
क्रि@@ 10220
भारतीयों 10220
consumer 10218
residents 10216
कितने 10216
नियों 10214
श्रद्धांजलि 10214
हुआ, 10214
kam@@ 10212
धन्यवाद 10210
इंटरनेशनल 10206
लाखों 10206
एफआईआर 10204
nation@@ 10203
ठाकरे 10203
दर्शकों 10203
well, 10201
सड़कों 10201
किमी 10197
रेड्डी 10197
स्वा@@ 10195
ब्रे@@ 10193
original 10192
बहुमत 10191
marks 10186
125 10185
गांवों 10185
देखना 10180
meetings 10179
गृहमंत्री 10179
ज्ञापन 10168
डॉक्टरों 10168
overall 10166
घा@@ 10166
निंदा 10162
ances 10158
premier 10157
डु@@ 10152
दिवसीय 10148
प्रमाण 10146
३@@ 10140
76 10139
डब्ल्यू@@ 10137
देशभर 10136
"" 10135
all. 10135
अनुकूल 10116
समुद्री 10114
acts 10112
host 10112
looked 10112
हरा 10112
concern 10107
information, 10105
there@@ 10102
संरचना 10099
फसल 10096
भु@@ 10096
effort 10095
5,000 10090
50,000 10090
wa 10090
मृतक 10089
संस्करण 10086
mohammad 10085
अर@@ 10085
ham@@ 10084
tw@@ 10081
land@@ 10080
सूचित 10080
gun@@ 10079
jag@@ 10078
पुणे 10078
क्रेडिट 10076
custody 10070
कोविंद 10070
xi 10069
अज्ञात 10065
version 10064
लाई 10064
तें 10063
मानक 10063
बैठे 10062
रेखा 10060
कैमरे 10059
चैनल 10059
पैमाने 10058
disaster 10057
खान, 10056
बहस 10054
implemented 10053
mean 10045
लिंक 10045
levels 10042
samsung 10042
sel@@ 10042
district, 10041
दीपक 10036
notification 10035
आदित्यनाथ 10031
pradhan 10030
ceo 10028
ves 10028
fixed 10027
इसने 10027
खाली 10024
japan 10023
my@@ 10023
इसको 10020
त्रि@@ 10019
देंगे। 10018
आत्महत्या 10017
आयु 10016
61 10013
69 10012
collection 10010
मानसिक 10010
श, 10005
v. 10003
city. 10002
ari 10001
anti@@ 10000
पेंशन 10000
वायुसेना 9998
n. 9997
region. 9990
भाग@@ 9989
उत्तराखंड 9987
crude 9986
रुख 9986
जाएगा, 9985
sister 9984
ंब@@ 9984
टो 9984
age, 9981
ide@@ 9978
एकमात्र 9978
खेले 9977
बढ़ा@@ 9977
promotion 9974
आमंत्रित 9967
direction 9965
कट@@ 9964
आलिया 9962
forth 9958
drug 9957
शिकार 9957
gl@@ 9954
शराब 9954
sa 9953
नेवाला 9948
परेशानी 9947
relevant 9942
afghanistan 9941
ं. 9941
spent 9936
स्था@@ 9936
accompanied 9934
mental 9934
ड्@@ 9934
bar 9932
sense 9925
जगत 9925
att@@ 9924
चो@@ 9916
नितिन 9916
स्वच्छता 9913
सपोर्ट 9911
औ@@ 9908
nitin 9906
8. 9904
fuel 9901
खुले 9899
सागर 9898
mamata 9897
iran 9896
minor 9894
ारी 9894
चौथे 9893
ators 9891
गयी। 9891
acting 9887
निधि 9887
बर 9887
साक्षी 9887
system. 9881
बन@@ 9881
ganga 9880
electricity 9879
water. 9875
197@@ 9874
alone 9873
table 9873
केन्‍द्रीय 9873
areas. 9872
indies 9872
showed 9871
paper 9870
poll 9870
forms 9868
सबूत 9867
गर्व 9866
s/@@ 9865
ed? 9864
ti 9864
odisha 9855
निय@@ 9851
ff@@ 9850
लेखक 9841
lies 9840
माफी 9838
contact 9837
sad@@ 9835
रिलायंस 9830
corresponding 9827
किया@@ 9827
(अ@@ 9824
suresh 9824
%@@ 9822
ंडा 9821
संकल्प 9821
सिद्धांत 9819
नेहरू 9811
मनोज 9810
वर्मा 9810
participation 9809
विभिन्‍न 9808
मात्र 9807
ment, 9804
आह्वान 9802
peoples 9801
sometimes 9800
killing 9799
tt@@ 9798
चू@@ 9794
del@@ 9790
verily 9790
मित्र 9788
recovery 9787
voice 9783
होटल 9783
न्याय@@ 9780
रेट 9780
वें@@ 9780
bringing 9779
उनपर 9773
enc@@ 9771
life, 9771
पत्रकार 9771
cricketer 9769
आदर्श 9769
park 9766
तियां 9766
mohammed 9764
करना, 9762
मसीह 9760
टी20 9753
क्यू@@ 9752
image 9751
चीज 9751
प्रोफेसर 9743
परा@@ 9740
सदी 9740
84 9739
ia, 9734
ं) 9734
emergency 9732
resident 9731
डेविड 9731
तोड़ 9731
friend 9730
battle 9726
चोरी 9726
यातायात 9726
respective 9724
ंग, 9723
उपभोक्ता 9723
जाहिर 9723
b. 9722
haryana, 9722
administrative 9721
700 9720
शारीरिक 9720
way, 9719
शरीफ 9719
ric@@ 9716
mag@@ 9713
respectively. 9711
described 9707
चिदंबरम 9707
फ़ 9705
chandigarh 9702
ously 9697
ढ़@@ 9697
chandra 9694
अनुसूचित 9694
धु@@ 9694
विभागों 9693
beginning 9688
inder 9687
french 9681
tonnes 9676
एसोसिएशन 9674
pollution 9673
wing 9673
गए, 9673
नतीजे 9672
स्टेडियम 9668
booked 9666
documents 9664
requested 9664
49@@ 9663
promoting 9663
आमिर 9663
प्रशंसा 9663
wal 9655
मेल 9655
happen 9654
गे 9653
आकाश 9652
bit 9650
91 9649
og@@ 9647
partner 9646
प्रभारी 9642
जोड़ी 9639
धि@@ 9634
ऐप 9633
es? 9632
gener@@ 9631
female 9630
men@@ 9627
जिक्र 9626
ars 9625
fifth 9625
वाणिज्य 9624
ारों 9624
rat@@ 9623
स्कोर 9623
गौ@@ 9622
नेवाले 9621
et. 9620
't 9618
81 9613
rajasthan, 9610
वाल 9610
powered 9606
wishes 9606
वल 9603
pen@@ 9601
manner 9595
दिग्गज 9594
ई) 9593
यूरोप 9589
आकर 9588
खाता 9585
drive 9578
चला@@ 9578
मना@@ 9577
कृष्ण 9576
छु@@ 9576
थि@@ 9571
लौ@@ 9571
भाषाओं 9566
assistant 9564
83 9562
ita 9562
sectors 9560
attempt 9556
dies 9555
situation. 9553
ज़मीन 9552
गुना 9549
"it 9548
him@@ 9546
ची 9543
congress, 9541
sustainable 9538
परंतु 9537
banerjee 9536
प्रोत्साहन 9532
cell 9531
टी) 9531
तन 9531
ॉ@@ 9531
able. 9530
वाई 9525
2nd 9522
development. 9521
ठोस 9520
nepal 9517
australian 9507
innings 9507
वाइ@@ 9504
ब, 9503
creation 9498
lack 9498
ब्रा@@ 9497
पंचायत 9496
_ 9495
rupee 9495
sinha 9495
that's 9492
अमरीका 9491
ear@@ 9483
करें, 9483
ping 9482
hearts 9481
participate 9481
आईसी@@ 9481
beautiful 9476
हितों 9476
’@@ 9476
उड़ान 9466
boost 9464
dispute 9463
चुने 9463
6,@@ 9462
परामर्श 9462
आपस 9458
मिसाल 9458
साथ, 9458
degrees 9452
eyes 9452
els 9450
proud 9450
रमेश 9450
of@@ 9449
परिचालन 9448
hospitals 9447
ranbir 9447
00@@ 9446
थोड़ा 9444
ओपन 9441
one, 9440
integrated 9439
banking 9438
गडकरी 9437
clo@@ 9436
variant 9435
संशोधित 9435
संसार 9435
तट 9434
ets 9433
track 9432
sing 9429
बोल 9429
observed 9427
भारती 9420
rains 9419
sub-@@ 9417
cent@@ 9416
दूध 9416
worlds 9412
ast@@ 9411
)। 9410
gupta 9409
countrys 9408
birthday 9407
text 9406
historic 9402
सर्व@@ 9402
ess 9400
वर्षा 9399
waste 9398
reduced 9394
समझने 9394
ens 9393
calling 9391
केंद्रों 9390
2,000 9389
2018-19 9389
panchayat 9388
स-@@ 9388
अंकों 9387
रणबीर 9387
अयोध्या 9386
decisions 9384
camera. 9377
india-@@ 9366
christians 9365
moving 9365
practice 9365
connected 9363
northern 9362
resource 9361
पुरी 9361
helps 9357
मुसलमानों 9357
all, 9355
rising 9353
honour 9352
fair 9351
remove 9350
दोपहर 9348
एक्सप्रेस 9347
परिस्थितियों 9345
अल@@ 9343
ive 9341
not@@ 9341
(in 9340
russian 9339
लिखे 9337
नाग@@ 9336
डाटा 9335
up, 9334
priority 9331
sit 9331
गन 9328
त-@@ 9328
पकड़ 9325
रणनीति 9323
pending 9321
फीचर्स 9320
कर्ता 9319
सौर 9315
सरदार 9308
खिला@@ 9307
nas@@ 9305
टॉ@@ 9302
म्‍@@ 9302
सीसीटीवी 9302
intelligence 9300
def@@ 9299
झूठ 9298
healthy 9296
yadav, 9295
competition 9294
कुलदीप 9294
saudi 9293
el, 9292
ben@@ 9290
connectivity 9290
mumbai: 9287
निस्संदेह 9286
मत@@ 9286
doesnt 9284
रो 9284
fee 9279
operating 9275
प्रत्यक्ष 9275
et, 9273
treated 9270
सच्चे 9270
जॉन 9269
advanced 9268
panel 9264
टेक 9264
प्रत्याशी 9264
भो@@ 9263
रवाना 9263
कारोबारी 9262
bjp, 9261
times. 9259
attacked 9257
powerful 9257
lines 9253
task 9246
अस्पतालों 9246
cctv 9245
ending 9244
कलाकार 9243
नियंत्रित 9243
bag@@ 9240
धमकी 9240
comment 9239
manoj 9235
82 9233
का) 9233
आएंगे। 9231
ड़ा 9230
illegal 9226
सका 9226
करने, 9221
वों 9220
रानी 9216
कोष 9215
उपायों 9212
एं। 9210
स्टो@@ 9210
stat@@ 9209
covered 9203
welcome 9203
aadhaar 9202
120 9200
departments 9200
आस्ट्रेलिया 9199
मुख्यालय 9194
ओं, 9192
judges 9191
संसाधनों 9191
राज्य@@ 9189
लन 9189
sang@@ 9185
9. 9182
adityanath 9178
4: 9177
एयरपोर्ट 9177
सीईओ 9177
rashtrapati 9176
यूजर्स 9176
हालाँकि 9174
गूगल 9173
sit@@ 9172
advised 9168
chhattisgarh 9165
वीर 9165
similarly, 9163
चालू 9163
मांगी 9161
kill 9160
delegation 9159
q 9158
rose 9157
हवाले 9154
falls 9151
अहमदाबाद 9151
म-@@ 9150
श्‍@@ 9149
ajit 9147
bat@@ 9144
है! 9144
ina 9143
ely 9142
कों, 9142
ii 9139
पिछली 9136
निंग 9135
समझते 9134
2022 9133
mil@@ 9132
technology, 9132
बढ़ते 9132
वार्@@ 9126
again. 9122
त्री 9122
command@@ 9121
usually 9121
iz@@ 9119
wedding 9119
भट्ट 9119
विचार-विमर्श 9118
बादल 9113
ल्ड 9111
सार@@ 9111
sts 9106
रकम 9105
बड़े 9104
customers 9103
बचा@@ 9103
chand@@ 9102
चीजें 9102
drinking 9101
हजारों 9097
wicket 9095
मरीज 9095
पड़ा। 9094
standards 9093
spend 9092
touch 9075
voting 9073
program 9071
incidents 9068
b, 9064
ise 9062
structure 9062
allah. 9060
ँ 9060
पुरानी 9060
ramesh 9059
लड़ने 9056
encounter 9052
passing 9052
congratulated 9051
बे 9046
g. 9045
yan@@ 9044
knew 9042
stri@@ 9038
पहले, 9038
पूछे 9038
i'm 9036
um, 9036
86 9035
ंत 9033
शै@@ 9032
navy 9030
station. 9023
आयकर 9023
लखनऊ 9023
but, 9022
भरा 9022
लेकिन, 9019
week. 9018
बैठ@@ 9018
nirmala 9014
enjoy 9012
amid 9009
टर, 9009
89 8998
suggested 8998
ator 8993
मद्देनजर 8993
comm@@ 8992
computer 8992
mantri 8991
निर्मला 8991
ना। 8990
television 8989
सपा 8987
दक्षिणी 8986
11,@@ 8985
affairs, 8982
दस्तावेज 8982
stand@@ 8976
perhaps 8975
prominent 8974
tha 8972
देखी 8972
ार्@@ 8971
promised 8965
विधान 8965
kul@@ 8961
संग्रह 8957
ltd 8956
(g@@ 8953
उपस्थिति 8951
break 8950
कहा। 8946
सुन@@ 8946
aid 8945
ality 8941
न। 8936
ya, 8932
inv@@ 8931
आं@@ 8930
एयर@@ 8929
engaged 8926
icici 8924
नहीं. 8922
जुड़ा 8920
शिक्षक 8920
however 8919
कोयला 8919
ay 8916
झु@@ 8916
कैसा 8915
कंपनियां 8914
profit 8912
jio 8911
sor@@ 8910
earth, 8904
person@@ 8904
जर्मन 8903
2016-17 8898
पार@@ 8897
write 8895
टर्स 8895
(2) 8893
mah 8893
ding 8892
पक@@ 8892
land, 8889
गिर 8889
office. 8886
sion 8882
wan@@ 8879
पुर@@ 8878
ze 8877
जगहों 8876
बेटा 8875
प्रदर्शनकारियों 8874
श्रीनगर 8874
सन्@@ 8874
"this 8873
(और 8873
दें। 8873
team. 8872
underway 8870
घटनास्थल 8866
dr.@@ 8864
ies, 8863
loans 8863
धन@@ 8863
कपूर, 8862
values 8861
women. 8860
कर्म 8859
thakur 8858
128gb 8855
bri@@ 8854
lab@@ 8853
womens 8853
संदेह 8853
broke 8851
इंटर@@ 8851
them@@ 8850
प्रतिबद्धता 8850
size 8849
अल 8848
गैर 8848
दिखा 8847
download 8840
पारंपरिक 8839
पार्@@ 8837
साहित्य 8832
reforms 8827
medium 8825
मुठभेड़ 8825
शन, 8824
director, 8822
बम 8822
जाएंगे 8821
पोर्टल 8820
society. 8817
लोन 8817
kuldeep 8816
माता-पिता 8815
buy 8814
views 8814
जीवित 8814
मुझसे 8812
ट-@@ 8807
मृतकों 8807
comprising 8806
organization 8806
colour 8805
bihar, 8802
आईटी 8802
हरी 8801
ex-@@ 8799
extend 8799
arrangements 8797
रैंकिंग 8795
days, 8794
experts 8794
आजादी 8794
प्रतिबद्ध 8793
करवाया 8791
democracy 8790
दी. 8789
quoted 8785
द्वीप 8784
scale 8783
करने@@ 8782
यर@@ 8782
pay@@ 8779
ऑपरेशन 8779
स्मार्ट 8779
वक्‍त 8778
permission 8777
powers 8777
लड़ 8776
bul@@ 8774
ists 8774
गाड़ी 8773
post@@ 8771
पुरुषों 8769
आपसी 8767
strengthening 8766
कच्चे 8765
पेशकश 8765
education, 8764
user 8764
एफ) 8764
88 8763
iti@@ 8762
s," 8760
टीमें 8759
गौर 8758
virus 8756
ity@@ 8755
threat 8755
कमाई 8755
d) 8752
नामांकन 8752
cal@@ 8750
looks 8750
play@@ 8750
रॉ@@ 8750
mun@@ 8749
होगी. 8749
lu@@ 8748
nda 8748
लोक@@ 8748
विशेषज्ञ 8748
fact, 8746
कार्यान्वयन 8746
इंजीनियरिंग 8743
constitutional 8742
hour 8742
death. 8741
संवाद 8739
back. 8738
nearby 8738
sustained 8737
बसपा 8735
सबको 8732
things. 8731
processing 8730
apple 8729
journey 8729
ज़िंदगी 8729
अचानक 8724
register 8723
युक्त 8723
मोटर 8721
ओ) 8720
ब्रि@@ 8714
शेयरों 8714
cases. 8711
शरद 8710
,999 8709
behalf 8709
character 8709
discussions 8705
सकें। 8704
serving 8703
decide 8702
enhance 8702
hom@@ 8702
समझा 8702
:- 8701
7-@@ 8698
on-@@ 8698
फॉर्म 8696
career 8695
f, 8694
निभा 8694
अटल 8692
strict 8691
detailed 8690
कौर 8690
friendly 8687
ls 8685
uttarakhand 8681
87 8679
whoever 8679
बढ़ाकर 8677
स्त 8675
block 8674
earth. 8672
red, 8672
stor@@ 8671
पद@@ 8671
टिव 8669
जीतकर 8668
dem@@ 8666
सुविधाएं 8662
पल@@ 8661
प्राइवेट 8661
!" 8657
लेट 8657
प्रतिनिधियों 8656
offering 8655
को) 8654
favour 8653
stra@@ 8651
भले 8650
highly 8648
bor@@ 8643
die 8641
visiting 8640
स्मृति 8640
pun@@ 8638
pad@@ 8636
दन 8635
dead. 8633
aim 8631
+@@ 8627
objective 8627
सल 8624
passenger 8623
क़ 8623
स्टर 8622
mps 8619
scientists 8619
runs. 8618
2006 8617
adding 8617
बाहरी 8616
co 8615
भूकंप 8615
सुषमा 8613
5: 8612
ence. 8612
इंदिरा 8611
आमतौर 8608
besides, 8604
maruti 8603
pur. 8603
1,0@@ 8601
mah@@ 8600
ised 8599
विरासत 8599
london 8598
r. 8598
म्ब@@ 8597
यूनि@@ 8597
अखिल 8594
बरकरार 8593
body. 8591
weight 8591
am. 8588
applications 8588
damage 8588
le. 8588
छोड़@@ 8588
एसपी 8587
ले, 8585
option 8584
\"" 8583
ज़रूरी 8582
ते, 8581
defeated 8580
multi-@@ 8579
आवाज 8579
जताया 8576
फीसद 8576
अधिसूचना 8575
जागरूकता 8575
sion. 8573
पंजीकरण 8573
हरा@@ 8571
ja 8570
ग, 8568
false 8565
select 8560
sid@@ 8558
thee 8554
title 8553
charged 8551
sted 8550
सीतारमण 8546
फॉर 8545
इनका 8544
आशंका 8541
बैंकिंग 8541
indira 8536
खरीदने 8536
bear 8534
2005 8533
shahid 8532
submit 8532
bjps 8531
ret@@ 8526
electronic 8525
माने 8524
battery 8522
hospital, 8522
xiaomi 8521
achieved 8516
no. 8515
hor@@ 8514
एक्स 8514
कैप्टन 8513
crisis 8512
professional 8509
ran 8509
purchase 8506
supporting 8506
सेल्फी 8505
rupees 8504
res, 8499
(h@@ 8498
प्रवासी 8498
धी@@ 8497
reddy 8496
situated 8496
शाखा 8496
goal 8494
plan@@ 8493
गोल 8493
balance 8492
anc@@ 8490
ate, 8487
धो@@ 8487
guard 8483
ited 8482
वाई@@ 8480
hundred 8479
linked 8474
u. 8474
dal 8473
क़ौम 8473
मार्च, 8471
seems 8470
बैरल 8469
आना 8468
पायलट 8467
सिस 8466
jobs 8462
बॉक्स 8462
सिंग 8460
ravi 8459
सॉ@@ 8459
खेती 8458
बनाते 8457
बलात्कार 8457
बाजारों 8452
ड़ा@@ 8451
account. 8450
शाहिद 8450
ard 8448
lord. 8448
nehru 8445
ati 8443
gre@@ 8441
guru 8440
negative 8440
चंद 8439
त्र 8437
sitharaman 8434
अभिषेक 8432
one-@@ 8431
वृ@@ 8429
arms 8428
bir@@ 8428
waiting 8428
कंप्यूटर 8428
मिली। 8428
sector. 8424
\\xa0@@ 8423
pres@@ 8421
मस्जिद 8421
soul 8419
mahindra 8418
लेता 8418
constituted 8417
women's 8417
emb@@ 8416
98 8413
धा 8413
प्रारंभिक 8410
अकेले 8407
फाइल 8406
मूल्यांकन 8406
ियो 8406
प्रतीक 8405
costs 8404
एनसीपी 8404
97 8403
auto 8398
professor 8395
aamir 8393
एड@@ 8391
motor 8389
ational 8388
ess@@ 8388
uses 8388
चांदी 8388
चीजों 8388
far, 8387
सऊदी 8387
गार 8386
रहेंगे 8383
जानने 8380
ch, 8378
पोषण 8377
बीर 8377
ped 8375
पहुंचे। 8375
निर्धारण 8374
बढ़ाया 8372
भेजने 8372
sbi 8368
लेंगे 8366
94 8365
डिंग 8363
पश्चात 8363
ends 8361
sec@@ 8352
आए। 8352
फ़ाइल 8351
92 8350
amongst 8349
law. 8349
lakhs 8348
war, 8348
ई। 8347
कला@@ 8347
inf@@ 8346
sco@@ 8346
germany 8344
मार्गदर्शन 8343
तक, 8340
वायदा 8340
स्त@@ 8337
contesting 8336
facilitate 8336
kamal 8335
तम 8335
resolve 8334
kovind 8333
माँ 8333
मशहूर 8332
स्थ@@ 8332
ियन 8332
99@@ 8331
milk 8330
रुप 8325
ज़ि@@ 8324
93 8323
वातावरण 8316
batting 8315
hurt 8315
ईंधन 8314
स्‍वास्‍थ्‍य 8314
"""" 8313
79 8311
reportedly 8311
suffering 8309
ch. 8306
farm 8305
simple 8305
अम@@ 8305
शुद्ध 8303
सी. 8303
asking 8302
लिए। 8302
विस्फोट 8302
pawar 8300
edition 8299
announcement 8298
dhan@@ 8296
congress. 8295
iting 8295
ंस@@ 8295
आतंकियों 8295
ensuring 8294
राइ@@ 8293
fellow 8292
बिन 8290
demands 8289
शैक्षणिक 8287
ज़ा 8286
delivery 8285
वैज्ञानिकों 8285
karnataka, 8284
writing 8284
ward 8281
आकलन 8281
निवेशकों 8279
it? 8278
कवर 8278
युग 8278
individuals 8277
missing 8277
उपयुक्त 8275
ग्र@@ 8275
other. 8273
गर 8272
comp@@ 8271
कहा@@ 8271
विश्‍व 8271
ness, 8268
हो. 8268
future. 8266
core 8265
डॉ 8265
भय 8264
मध्यम 8263
investors 8261
पत्रकारों 8261
ves, 8260
96 8256
assets 8256
solution 8256
उपकरणों 8255
चा 8255
sharad 8254
कलर 8253
constructed 8247
प्रोसेसर 8247
snapdragon 8245
नेट 8242
लं@@ 8242
समग्र 8237
कानूनों 8236
महेंद्र 8236
n, 8232
अदा 8228
enti@@ 8226
ॆ@@ 8224
appointment 8223
खिताब 8223
फु@@ 8221
शिक्षकों 8221
%) 8220
पे 8216
distance 8215
जरूर 8213
ति, 8213
लिखी 8213
शिव 8212
options 8211
witnessed 8208
करेंगे. 8208
पहुंचाने 8207
कर) 8206
कॉल 8206
देंगे 8206
शिव@@ 8206
दत्त 8205
पीड़िता 8205
limit 8203
पढ़ाई 8198
एकल 8189
कोर 8187
बॉस 8186
ष्@@ 8185
शुरु 8184
compensation 8183
आइए 8181
rai 8180
शैली 8178
खो 8177
residence 8176
पैनल 8176
complex 8175
तथ्य 8174
कमान 8170
दर्द 8169
forced 8167
women, 8167
gram 8159
colleges 8158
प्राप्‍त 8156
अत्यधिक 8155
नता 8149
जनसंख्या 8146
series. 8145
ws 8145
हिन्दी 8144
non 8143
recommended 8143
दौ@@ 8143
01 8141
didn't 8140
वत 8140
finally 8139
जितना 8139
निर्देशित 8139
1.5 8137
इस्लाम 8129
designed 8126
दुर्@@ 8124
reward 8123
eng@@ 8120
राय@@ 8118
एगा 8114
पीएम@@ 8113
advocate 8112
परमेश्वर 8111
meeting, 8110
अना@@ 8107
acc@@ 8106
गं@@ 8105
mercy 8104
सुना@@ 8104
रिसर्च 8101
bhavan 8097
crpf 8097
यान 8096
प्रेरणा 8095
tak@@ 8094
रहेगी। 8094
उन्हीं 8093
महिंद्रा 8093
दौरान, 8092
jitendra 8091
cont@@ 8087
एच 8086
than@@ 8084
टिक 8083
promise 8082
आकर्षित 8082
any@@ 8081
दिख 8080
kaur 8076
stopped 8075
defeat 8074
leaving 8074
students. 8073
ant. 8070
स्पेशल 8066
g, 8065
साउथ 8065
expenditure 8064
verdict 8064
lak@@ 8063
tournament 8061
उप-@@ 8060
नरेन्‍द्र 8060
मै 8060
studies 8057
ats 8056
खासकर 8056
सेवा@@ 8055
win@@ 8053
कृपया 8052
happiness 8051
कनाडा 8051
ट) 8051
wor@@ 8050
उपलब्‍ध 8049
बायो@@ 8049
मिट्टी 8047
सृजन 8046
ahmed 8045
improving 8045
बां@@ 8044
us$ 8043
एनसी@@ 8041
equ@@ 8040
jay@@ 8040
फॉ@@ 8038
मजबूती 8038
ei@@ 8031
उन्@@ 8031
era 8030
mou 8030
त: 8030
सांसदों 8030
reporters 8028
विनिर्माण 8028
cc@@ 8027
nat@@ 8027
वाणिज्यिक 8026
अत्यंत 8025
ve, 8024
राज्‍यों 8023
तः 8022
law@@ 8021
nation. 8019
टर्@@ 8019
dh@@ 8018
olympic 8018
removed 8018
गिर@@ 8015
ई. 8014
delivered 8013
माल@@ 8013
ty, 8012
गण@@ 8011
ra. 8008
195@@ 8007
ened 8007
छानबीन 8003
clearly 8001
छो@@ 8001
at. 7999
वानी 7998
भारत, 7997
फीस 7996
रामनाथ 7996
be, 7993
nc@@ 7993
बिजनेस 7992
होगी, 7992
flow 7991
किलोग्राम 7990
धर्म@@ 7990
bridge 7989
l. 7989
longer 7989
cross 7988
planned 7988
उपा@@ 7988
guest 7987
guidance 7985
एम. 7982
उद्योगों 7981
pet@@ 7978
12th 7977
arrested. 7976
आरएसएस 7976
aviation 7975
tam@@ 7974
cold 7972
ness. 7972
क्षेत्र@@ 7972
pension 7971
deb@@ 7970
usd 7970
आरबीआई 7970
age. 7968
सुना 7967
crore, 7966
उत्‍पादन 7965
2018: 7964
arch@@ 7963
ently 7962
ग़@@ 7961
real@@ 7958
as. 7957
academic 7956
पटना 7955
सेल्सियस 7954
farmers. 7953
hdfc 7951
schedule 7949
grow 7947
दो, 7947
(3@@ 7945
det@@ 7945
establish 7943
डायरेक्टर 7943
new@@ 7938
por@@ 7937
ched 7936
lan@@ 7934
ot@@ 7933
भाइयों 7933
loved 7932
encourage 7930
th. 7929
(कप्तान), 7928
southern 7927
bol@@ 7925
अप्रैल, 7925
क्टर 7924
शुभारंभ 7922
filing 7921
pand@@ 7921
गीत 7921
दायरे 7920
difference 7919
som@@ 7919
नीतियों 7918
गहरा 7917
भरे 7917
by@@ 7912
"मैं 7911
blue 7911
मिलेगा 7911
3rd 7909
स्टॉक 7909
विशेषज्ञों 7907
dam@@ 7906
सामूहिक 7898
lat@@ 7896
ters 7896
मुँह 7895
desire 7894
permanent 7894
लद्दाख 7893
seriously 7891
टल 7889
amarinder 7888
मनी 7887
animal 7884
records 7884
ंद@@ 7883
exams 7882
टॉप 7882
सेमीफाइनल 7881
cent, 7880
लगाते 7880
लिए@@ 7877
sensex 7875
भेंट 7873
संग 7873
showing 7871
फर@@ 7871
हों, 7869
ine@@ 7868
movie. 7868
स्वरूप 7868
rs@@ 7866
care@@ 7864
स्वीकृति 7864
8-@@ 7862
now. 7862
pri@@ 7862
सफाई 7861
ble 7859
ग्राहक 7858
शू@@ 7858
अवश्य 7856
पड़ोसी 7855
saif 7853
सदस्यीय 7852
fer@@ 7851
गो 7851
१ 7849
collaboration 7847
अंजाम 7844
detained 7843
ents, 7843
अत्यन्त 7843
900 7841
prove 7841
bat 7836
अपेक्षा 7836
marketing 7835
nifty 7835
सर्विस 7834
जन्मदिन 7832
पत्थर 7829
संदिग्ध 7828
performed 7827
लड़कियों 7825
जज 7824
fr@@ 7823
रं@@ 7823
messenger 7821
छवि 7820
quarter 7818
rang@@ 7815
गा, 7812
ब्‍@@ 7812
पूर्वक 7810
एक्ट 7809
संग्रहण 7807
लालू 7806
सरल 7806
dhawan 7804
(बी@@ 7802
ty. 7801
further, 7800
spokesman 7800
अप 7800
शताब्दी 7799
ऑटो 7798
bre@@ 7797
तर्क 7797
ished 7795
nm 7795
hundreds 7791
rajesh 7789
तिवारी 7789
्या 7789
rou@@ 7788
changing 7786
wrong@@ 7784
संस्थाओं 7783
modi's 7782
moses 7782
तेंदुलकर 7781
ड़, 7780
दिखाने 7780
thinking 7776
ind 7775
van 7774
स्पीड 7774
right. 7772
tweeted 7771
vi 7769
महज 7769
heads 7768
जियो 7768
jnu 7760
sara 7760
10, 7757
टू 7757
um. 7755
unless 7754
policies 7752
चल@@ 7751
ill 7750
pandemic 7749
sed. 7749
अन्@@ 7748
modis 7747
seeing 7747
कहा: 7747
पादुकोण 7747
नवीन 7746
naval 7743
oneplus 7743
ie@@ 7742
उद्@@ 7736
गया@@ 7734
files 7733
पड़ी 7731
identify 7727
ved 7725
तक@@ 7725
ष 7725
successfully 7724
5% 7723
मनीष 7721
(एम@@ 7720
confident 7720
recently, 7719
क्लब 7718
whereas 7716
जाए, 7715
ics 7714
one@@ 7714
cbse 7711
activity 7709
party, 7707
कामयाब 7707
10th 7706
जनों 7706
एस) 7705
militants 7703
action. 7702
चार@@ 7702
technologies 7700
assessment 7699
विश्लेषण 7699
mus@@ 7698
जोशी 7698
ain@@ 7697
wise 7695
21@@ 7694
(यू@@ 7693
सीनियर 7693
करे। 7692
128 7691
khar@@ 7690
कोड 7690
लाना 7690
padukone 7689
hur@@ 7687
ve. 7687
bjp's 7685
power, 7685
अगुवाई 7683
डाय@@ 7683
gadkari 7682
troops 7679
months. 7678
या. 7678
ara 7677
एकीकृत 7673
hum@@ 7672
shar@@ 7671
tar@@ 7671
प्रसार 7671
लिन 7671
गोलीबारी 7669
ster 7668
आप@@ 7665
thus, 7664
खतरनाक 7664
समृद्ध 7664
लियों 7662
abhishek 7661
l, 7661
मिलाकर 7660
france 7659
स्टाफ 7658
returns 7656
जायेगा। 7656
concerning 7655
tax@@ 7655
पेट 7653
हस्तक्षेप 7653
boy 7652
governance 7652
गवाह 7651
आश्वासन 7648
ving 7647
you@@ 7647
सिद्ध 7646
होम 7646
उद्यम 7644
बताई 7642
f. 7641
दीप 7640
dhar@@ 7639
हरि@@ 7638
खूबसूरत 7636
भरी 7636
equipment 7634
ी. 7634
guide 7632
श्र@@ 7632
net@@ 7629
ार, 7628
pilot 7627
dal@@ 7626
पाठ 7624
ruled 7623
मनो@@ 7622
प्रतिष्ठित 7621
valley 7620
strategy 7619
ven@@ 7619
ठा@@ 7617
pune 7616
items 7614
ट्रा@@ 7614
good. 7611
proceedings 7610
availability 7609
mm@@ 7609
ease 7608
एं, 7608
हृदय 7607
ेंद्र 7606
हू@@ 7605
बच्ची 7603
spoken 7602
संस्थापक 7602
divided 7597
तरीकों 7597
फर्@@ 7597
bill, 7594
व्यवसाय 7593
whatsapp 7592
भूषण 7591
सुश्री 7588
ning 7587
t20 7585
telecom 7581
प्रतिदिन 7581
आंकड़ा 7579
सम्मिलित 7578
bhatt 7575
अग्रवाल 7574
cam@@ 7573
चाहिए? 7573
जमा@@ 7570
दवा 7570
काम@@ 7567
moment 7566
vardhan 7566
यकीन 7565
देगा। 7562
निकाय 7562
पोर्ट 7560
विश्व@@ 7558
रंग@@ 7557
ans@@ 7556
demanding 7555
eligible 7555
ary. 7551
caught 7551
dream 7548
samajwadi 7548
नीय 7547
वन@@ 7547
recruitment 7546
roy 7545
ton@@ 7545
करीबी 7544
बाबा 7544
water@@ 7543
सैफ 7542
(4@@ 7541
मकसद 7539
harsh 7538
फैंस 7536
reg@@ 7533
greetings 7532
maharashtra. 7532
अड्डे 7531
प्रोजेक्ट 7531
तारीफ 7530
पुलवामा 7530
कामों 7528
two-@@ 7527
ce@@ 7526
month, 7526
wait 7518
मिला@@ 7517
ियो@@ 7513
comments 7506
khan. 7506
संयंत्र 7506
country's 7504
ous. 7504
conducting 7503
james 7503
hockey 7502
विचार@@ 7502
transferred 7501
पट@@ 7501
undergoing 7500
ता. 7499
improved 7498
initial 7498
ful@@ 7497
may@@ 7497
cricket. 7496
mahendra 7493
procurement 7493
crucial 7491
mishra 7489
down. 7488
draw 7488
rjd 7487
tourist 7487
दार@@ 7487
संबोधन 7484
ताजा 7482
गर्@@ 7481
एक्सचेंज 7479
bureau 7478
photos 7478
प्रवाह 7477
मोह@@ 7474
plants 7472
चित्र 7471
रहे@@ 7471
rajput 7470
वित्‍त 7467
reported. 7466
muhammad 7465
tendulkar 7465
ईडी 7465
int@@ 7464
दृश्य 7461
स्वराज 7461
cancer 7460
comprehensive 7460
ड्राइवर 7460
bombay 7459
universities 7459
territory 7457
उपधारा 7457
रिय@@ 7455
id, 7454
गा। 7454
सीधा 7454
3,000 7453
ki@@ 7452
हमलों 7452
heritage 7450
branch 7447
टरों 7446
atal 7443
land. 7442
challenging 7441
व्यय 7441
ver 7440
कन्@@ 7440
कुशल 7440
weeks 7437
aspects 7436
electoral 7435
100@@ 7434
organisations 7434
करनेवाले 7433
cro@@ 7432
स्त्री 7432
निका@@ 7431
10. 7430
सकते। 7430
adopted 7428
ali, 7428
flights 7428
कृ@@ 7428
12वीं 7427
राष्ट्र@@ 7425
identity 7424
जहाज 7423
एक-एक 7422
हुआ. 7422
लीड 7420
wins 7418
कैद 7418
राफेल 7418
pti 7417
conf@@ 7414
ging 7414
जोड़ने 7414
videos 7411
night. 7410
healthcare 7409
underway. 7401
उक्त 7399
बंध@@ 7398
< 7397
expect 7396
chance 7395
आयतों 7394
बोझ 7392
निकाला 7390
cars 7388
घो@@ 7388
जब्त 7388
2020. 7387
कंट्रोल 7387
देरी 7387
patient 7384
गंभीरता 7382
sushma 7381
64gb 7380
arunachal 7380
continu@@ 7380
राजेश 7379
stadium 7378
ऋ@@ 7378
declined 7377
superintendent 7377
कि) 7377
concerns 7376
shankar 7376
सिद्धार्थ 7376
4gb 7375
सुंदर 7375
ज़मीन 7375
interests 7371
ष्‍@@ 7370
नष्ट 7368
सिंगापुर 7367
show@@ 7366
veteran 7366
समझ@@ 7366
produc@@ 7364
manish 7363
prior 7362
के, 7362
content 7361
occurred 7361
धान 7360
मुझ 7360
sab@@ 7359
करो@@ 7359
busy 7358
यत 7358
perform 7357
कन 7357
निलंबित 7356
contribute 7354
korea 7354
remarks 7354
2019-20 7352
strongly 7350
devendra 7347
हक 7347
path@@ 7346
doubt 7344
आरक्षण 7343
बोली 7342
ted, 7341
प्रांत 7340
पुल 7339
मलिक 7337
reality 7335
away. 7332
लंबित 7331
act@@ 7328
1) 7326
प्ले@@ 7325
year@@ 7324
bangalore 7323
यद्यपि 7323
amazon 7320
दूरसंचार 7319
भार@@ 7319
प्रावधानों 7315
ब्यूरो 7315
ches 7314
ing: 7313
opposed 7313
घु@@ 7313
hear@@ 7312
too, 7312
गहरी 7312
रूप@@ 7312
सफर 7312
ड़े 7312
ory 7311
res. 7311
चूंकि 7311
प्रशांत 7310
किन 7309
दोस्तों 7309
0-@@ 7307
ful. 7306
truly 7305
contract 7303
thackeray 7303
इलेक्ट्रिक 7303
टाइम 7302
लाइसेंस 7300
choose 7299
दरों 7298
उन्‍हें 7297
ell@@ 7295
hours. 7294
bengal, 7292
languages 7292
दैनिक 7292
wat@@ 7290
डर@@ 7290
सूत्र 7289
समाजवादी 7288
रिंग 7283
chidambaram 7282
ंड 7281
bro@@ 7280
संभा@@ 7280
shiv@@ 7278
ze@@ 7277
pe 7276
अधीक्षक 7274
highways 7272
], 7269
रॉय 7269
headquarters 7268
स्ता@@ 7268
ku@@ 7267
millions 7267
ology 7267
पीने 7267
लू 7267
दर्जा 7265
गिरोह 7262
secure 7260
mm 7259
गलती 7258
flood 7257
दशा 7257
ेंस 7257
adequate 7256
एल) 7255
हूँ। 7255
-up 7253
gg@@ 7253
निकालने 7253
शं@@ 7253
listed 7252
larger 7251
cards 7250
सुन 7249
clause 7248
nawaz 7248
जनवरी, 7248
deepak 7247
ents. 7247
recommendations 7246
0. 7242
ship@@ 7240
जुर्माना 7238
धार@@ 7238
alongside 7235
adi@@ 7234
टॉस 7234
ब्रांड 7234
welcomed 7233
cou@@ 7232
.. 7231
ash 7230
oath 7229
.' 7228
.) 7228
उपबंध 7228
आंकड़े 7225
यूनिट 7222
three-@@ 7221
varun 7221
हुई. 7219
goyal 7218
peter 7217
ayodhya 7216
बेस्ट 7216
साइट 7216
ab 7214
decision. 7213
हाँ, 7213
bengaluru 7211
‍ि@@ 7211
भागों 7208
ने) 7207
सवालों 7207
ओबामा 7206
व्यावसायिक 7206
prevention 7205
गवर्नर 7205
च, 7204
bound 7203
विशेषकर 7203
unable 7197
नारायण 7197
der@@ 7196
highway 7195
अतिथि 7195
निभा@@ 7194
pleas@@ 7192
बन्@@ 7191
रहेगा 7191
sessions 7190
अभिनय 7190
offices 7188
squad 7188
king@@ 7185
notes 7184
sad 7184
डन 7184
प्लस 7183
आजाद 7182
इकाइयों 7179
तूफान 7178
मुफ्त 7178
ved@@ 7177
law, 7176
खोलने 7174
devi 7173
लय 7173
लने 7171
पें@@ 7170
हों। 7169
wealth 7168
ों@@ 7168
घोटाले 7167
ल्ला 7164
influence 7157
prize 7157
inspired 7155
गुण 7154
ships 7153
64@@ 7152
male 7152
sufficient 7152
धर 7152
atic 7151
opinion 7151
प्रतिनिधिमंडल 7151
सुभाष 7151
खबरों 7148
system, 7147
katrina 7146
जुटी 7146
पीढ़ी 7146
(2@@ 7143
2020, 7143
मूल्यों 7142
brand 7141
countries, 7138
films. 7137
बिलकुल 7137
संवैधानिक 7137
130 7135
ors, 7135
बनाये 7135
health. 7133
guilty 7132
196@@ 7131
मशीन 7130
मारुति 7130
cs 7127
किंग्स 7127
औपचारिक 7124
पदार्थ 7124
case: 7120
बाद@@ 7120
apostle 7119
swaraj 7119
उन@@ 7118
नल 7117
लोकतांत्रिक 7116
लैस 7115
ching 7113
गौतम 7113
आये 7112
shah, 7109
मध्यप्रदेश 7109
रिश्ते 7109
exports 7107
350 7106
नवाज 7105
aims 7104
dated 7104
jagran 7104
ender 7102
साधारण 7102
ides 7100
yojana 7100
कठोर 7100
सीन 7100
अग@@ 7099
आज्ञा 7099
types 7098
चे 7097
गों 7096
णा 7096
justices 7095
उतर@@ 7094
वरुण 7093
portal 7092
ज़िले 7092
children, 7091
s). 7090
किनारे 7090
सिख 7090
दारी 7088
म्स 7088
विद्यालय 7088
तहसील 7086
voters 7085
पहुंचा@@ 7085
ine, 7084
ising 7084
ut 7084
स्‍तर 7084
mass 7082
power@@ 7082
drugs 7077
चं@@ 7076
जोड़ा 7076
होंगी। 7076
elections, 7075
crop 7072
so. 7072
ahmedabad 7071
ing? 7071
वीजा 7071
देवेंद्र 7069
योग@@ 7069
सशस्त्र 7069
प्रवर्तन 7067
gul@@ 7066
interested 7066
सीसी 7065
05 7062
पाठ्यक्रम 7062
camp 7061
dra@@ 7061
china, 7058
sardar 7057
equity 7056
पवन 7055
सालाना 7055
institution 7054
belongs 7051
2019. 7050
selling 7050
अवगत 7050
चरणों 7048
तटीय 7048
far@@ 7046
सह-@@ 7046
pped 7044
पाल@@ 7044
samples 7043
आर) 7042
ement 7040
currently, 7039
बचत 7037
ine. 7036
सिनेमा 7036
hr@@ 7035
center 7034
सेंसेक्स 7034
मो 7033
रंजन 7033
proved 7032
जयपुर 7032
members. 7030
फा 7030
procedure 7029
ठहराया 7028
चेहरे 7025
रोज 7025
toward 7024
ial 7021
high@@ 7020
ded. 7019
starts 7019
जाओ 7019
‘‘ 7017
constituencies 7016
बीच, 7016
coast 7013
मिसाइल 7011
लें@@ 7008
fake 7006
mode 7005
practices 7005
,"" 7004
ths 7000
our@@ 6999
क्स@@ 6999
जून, 6996
destroyed 6995
वारदात 6995
advance 6993
sharif 6992
सन, 6992
रहें 6989
prophet 6985
यूनियन 6985
mani@@ 6984
इमारत 6984
संख्‍या 6982
work, 6981
पात्र 6981
match. 6980
partners 6978
bhp 6975
hd 6973
हिन्दू 6973
कल्पना 6972
brings 6971
तं@@ 6969
तार 6969
मिलेगी 6969
संवाददाताओं 6969
counsel 6968
raising 6966
formation 6964
lose 6964
स्मिथ 6964
out, 6963
ंट@@ 6963
दाऊद 6962
पाते 6962
मा, 6962
t20i 6959
इजाजत 6958
बेन 6958
बोलते 6956
enforcement 6954
शाही 6954
इंस्टीट्यूट 6952
डै@@ 6952
pil@@ 6950
ईश्वर 6950
dismissed 6945
reference 6942
चंद्र 6941
रेड 6940
बी) 6939
ans, 6938
w, 6938
कार, 6937
ant, 6935
अति@@ 6935
ry, 6933
specified 6933
लिय@@ 6933
व्यस्त 6932
वर्गों 6931
ile 6929
मौजूदगी 6927
अवसरों 6926
parliament. 6925
्यु@@ 6925
2018, 6923
उपलब्धि 6923
भिन्न 6923
analy@@ 6922
s." 6921
कॉन्@@ 6919
actions 6918
memorial 6918
रहो 6917
(of 6915
अखिलेश 6914
fol@@ 6913
रजत 6913
में। 6910
rashtriya 6909
आफ 6909
लुक 6908
दावे 6907
निफ्टी 6906
sion, 6905
citizen 6904
dri@@ 6904
faces 6904
mel@@ 6903
renewable 6903
2002 6900
ब्लैक 6900
सबके 6898
route 6895
रियल 6895
भरने 6894
होंगे, 6894
dialogue 6893
fic@@ 6892
picked 6892
manager 6891
das 6889
उल्@@ 6889
mainly 6888
not. 6888
कौ@@ 6888
20, 6887
तत्कालीन 6886
reli@@ 6885
2004 6884
gs 6884
author@@ 6881
स्थगित 6881
wont 6880
रा, 6880
ary, 6878
जाम 6877
पर्यटकों 6877
generally 6875
तमिल 6874
6: 6873
थीं. 6873
ॉ 6873
follow@@ 6872
greatest 6870
sy@@ 6869
ce 6867
pakistans 6867
इकट्ठा 6867
गरीबी 6867
meaning 6865
ड़ों 6865
der 6864
ors. 6864
संवेदनशील 6864
तार@@ 6863
custody. 6862
रोगियों 6862
father, 6860
fire@@ 6860
dat@@ 6859
क्रिस 6859
nor@@ 6855
sikh 6855
warning 6854
ler 6850
taught 6850
ते। 6849
हराया 6848
भार 6847
छुट्टी 6844
मध्य@@ 6844
helping 6843
संदीप 6842
ऑफर 6841
चंद्र@@ 6841
मां@@ 6841
e's 6840
jas@@ 6840
sound 6840
संतोष 6840
क्रा@@ 6839
बतौर 6839
विपरीत 6838
क्षमा 6837
rivers 6836
phones 6834
ation) 6833
ज्ञा@@ 6833
ठ 6833
deliver 6831
ambassador 6829
tree 6829
अग्रिम 6829
उल@@ 6828
ages 6827
शाह@@ 6826
कामना 6825
truth. 6823
gandhi. 6818
tomorrow 6817
ढा@@ 6816
operational 6812
tourists 6810
dance 6809
evening 6809
feels 6809
दिख@@ 6809
ery 6808
ice 6808
questioned 6808
ute 6808
scheme, 6807
teaching 6807
आर. 6807
भलाई 6807
रेप 6807
celebrate 6805
lived 6805
10,@@ 6804
ker@@ 6804
error 6803
lawyer 6803
ong@@ 6803
दोषियों 6803
gen 6802
ंद 6802
figure 6800
ger@@ 6800
्या@@ 6800
13.@@ 6799
chris 6799
web 6799
environmental 6798
शिविर 6796
farmer 6795
तुझे 6794
न्या@@ 6794
सोचा 6794
causes 6793
मूर्ति 6792
पत्@@ 6791
men, 6789
period. 6789
फिल्में 6788
बचने 6788
राकेश 6788
साम@@ 6788
multi@@ 6787
nia 6787
बद्ध 6787
रॉयल 6787
लकर 6787
बेंगलुरु 6786
fied 6785
माननीय 6785
garh 6782
course, 6780
gain 6779
simply 6777
क्रे@@ 6777
outstanding 6776
invest 6775
ft 6774
sets 6774
pakistan's 6773
believes 6771
सेहत 6771
फ़ि@@ 6769
debt 6768
lalu 6768
unity 6767
हड़ताल 6766
गुरु 6765
पार्टियों 6765
ms. 6762
छोड़ने 6762
20,000 6760
भाव@@ 6760
lay 6759
photo@@ 6758
ट्रेनों 6756
नीलामी 6755
सत्य@@ 6754
ale 6752
nan@@ 6751
ring 6750
foot@@ 6749
सुनने 6748
वर्णन 6747
minority 6744
णा@@ 6743
यह@@ 6742
house, 6741
{@@ 6739
होगा@@ 6738
de, 6735
गणना 6734
जुलाई, 6734
corona 6729
स्प@@ 6729
leg@@ 6728
power. 6728
मारने 6727
draft 6726
shivraj 6726
अंबानी 6726
ration 6725
wo@@ 6725
रावत 6724
interview 6723
गुरु@@ 6723
निक@@ 6723
वजन 6723
establishment 6722
undertaken 6722
गेंदों 6722
अज़ाब 6720
धी 6720
डालने 6719
begins 6717
क्रमश: 6717
लती 6717
modi@@ 6713
port@@ 6713
बुलाया 6713
था? 6712
debate 6709
skills 6709
family, 6708
week, 6708
जय 6705
pointed 6704
मिक 6703
sun 6702
suzuki 6702
अज़ाब 6701
बाइ@@ 6700
micro@@ 6699
pulwama 6699
ya@@ 6695
हैं) 6694
year-old 6691
संयुक्‍त 6691
fields 6690
मारा 6688
वेब 6688
software 6687
पड़@@ 6687
राजकुमार 6687
आराम 6686
khan's 6685
ंगी 6685
गी, 6685
street 6683
न्यायालयों 6683
हक़ 6683
fy 6681
न’ 6680
पहलू 6680
bla@@ 6679
बढ@@ 6679
लक्षण 6677
संग@@ 6676
अंग 6674
बुद्धि 6674
rafale 6673
शों 6672
ns 6671
appreciated 6669
सम्बन्ध 6669
stakeholders 6668
खंड@@ 6665
न्त 6664
lie 6663
problem. 6663
दिए। 6663
mid@@ 6662
hard@@ 6661
heat 6660
cat@@ 6659
प्राप्ति 6659
मय 6659
process. 6657
।@@ 6657
pul@@ 6656
doctor 6655
programme. 6653
बहनों 6653
लगाकर 6653
मणिपुर 6652
others, 6651
print 6651
considering 6650
करनेवालों 6650
2019, 6649
महत्‍वपूर्ण 6649
6gb 6648
york 6648
servants 6647
srinagar 6645
ated, 6643
sabha. 6640
नवा@@ 6638
collected 6634
certificate 6629
import 6629
youths 6626
hc 6625
ned 6625
आवंटन 6624
break@@ 6623
अपना@@ 6623
संपूर्ण 6623
econom@@ 6622
उत्तम 6622
किलो 6622
reaching 6621
"ऐ 6620
fur@@ 6619
saying, 6619
ारा@@ 6619
राष्ट्रपति, 6618
"यह 6617
probably 6617
पहुंच@@ 6615
मुकेश 6615
farm@@ 6614
करना। 6612
sugar 6611
ऊंचाई 6611
fought 6609
post-@@ 6608
w. 6608
डा. 6607
हर्षवर्धन 6606
ticket 6605
पब्लिक 6605
nadu, 6604
s" 6603
जा, 6603
affect 6602
classes 6602
sub-section 6599
तल 6599
रणनीतिक 6599
hence, 6598
खुफिया 6598
कीजिए 6597
पहलुओं 6597
चर@@ 6596
महत्त्वपूर्ण 6595
(a@@ 6594
रफ्तार 6594
जिसको 6592
ideas 6591
ing) 6591
मई, 6591
ves. 6589
aditya 6587
_@@ 6586
कर्ताओं 6586
यल 6586
योग्यता 6585
sensor 6583
currency 6582
payments 6582
sell 6582
5th 6581
id. 6581
straight 6581
बुक 6580
मजबूर 6579
also. 6578
fadnavis 6578
referring 6578
app@@ 6577
first, 6577
फीचर 6575
judgment 6574
prepare 6574
vivo 6574
भूल 6574
तुर्की 6573
tit@@ 6571
ers@@ 6569
गांगुली 6569
निर्दिष्ट 6567
मकान 6566
(j@@ 6565
गरीबों 6565
सिंचाई 6565
pm@@ 6564
inch 6560
करेंगे, 6560
a), 6558
लिया. 6558
14.@@ 6557
hotel 6557
industry. 6557
इस्पात 6557
इलाहाबाद 6556
appealed 6554
(captain), 6553
city, 6553
mit@@ 6553
पूर्व@@ 6552
बाजी 6552
22@@ 6549
ged 6549
praise 6549
poll@@ 6548
टेली@@ 6548
स्टि@@ 6548
stake 6547
घटकर 6547
शमी 6547
होंगे. 6547
chang@@ 6545
%. 6544
bon@@ 6543
गवाही 6542
थोड़ी 6542
निशान 6542
फी 6542
ous@@ 6539
ज्‍यादा 6539
(1@@ 6538
presidential 6538
पीयूष 6538
द्वितीय 6537
नाइ@@ 6537
pa 6536
खनन 6535
जर्@@ 6535
chosen 6534
ias 6534
ous, 6533
सिद्धू 6533
tab@@ 6532
ard@@ 6531
ic, 6529
असली 6528
पांडे 6527
theme 6526
तृणमूल 6523
issues. 6521
ess, 6518
sou@@ 6518
e.@@ 6516
बनना 6516
फ्री 6515
माइ@@ 6513
water, 6511
else 6508
इंटरव्यू 6506
नवाचार 6506
बताया। 6506
देखिए 6504
producer 6502
www.@@ 6500
nic@@ 6499
सुनाई 6497
ement, 6496
हो? 6496
don 6495
डू@@ 6495
sand@@ 6494
chouhan 6493
devotees 6493
शांत 6493
able, 6492
resignation 6492
पंजाब, 6492
tors 6490
framework 6489
खोल 6489
require 6488
खून 6488
fit 6485
कॉन्फ्रेंस 6485
blast 6483
investments 6483
ments, 6483
protesters 6482
भला 6482
memory 6481
लिख@@ 6481
हार@@ 6480
bb@@ 6478
कीमतें 6478
रोका 6478
विफल 6477
that@@ 6476
present, 6475
viol@@ 6475
सुपर@@ 6475
?@@ 6474
celebrations 6474
race 6474
अग्रणी 6474
explo@@ 6473
gdp 6473
करू@@ 6473
े. 6473
201@@ 6471
15, 6470
chapter 6470
sky 6470
injury 6469
रल 6467
करण@@ 6466
बच 6466
penalty 6465
ग्लोबल 6465
शुभ 6463
संपन्न 6462
banned 6460
समृद्धि 6460
reading 6459
गर्म 6459
master 6458
warm 6458
फांसी 6457
an-@@ 6456
शिक्षण 6454
संबद्ध 6454
फ, 6453
व्हाइट 6453
34@@ 6452
पैकेज 6452
आईएस@@ 6451
फिल्@@ 6451
feet 6450
installed 6450
thr@@ 6450
had@@ 6449
retail 6449
telugu 6449
अट@@ 6449
(ई@@ 6446
\\u200d@@ 6446
firing 6445
owned 6445
इस्राएल 6445
मोदी, 6445
व्यक्‍ति 6444
रखें 6442
ं/@@ 6441
emerged 6440
मंजूर 6440
federation 6439
retired 6439
tre@@ 6438
ेंगे, 6435
deep@@ 6434
डाक 6432
दिलों 6432
coastal 6431
गुर@@ 6430
जोड़@@ 6429
rid@@ 6428
cr 6427
gathered 6427
leads 6427
teacher 6427
प्ला@@ 6427
ance@@ 6425
feeling 6425
कंगना 6424
लाइट 6424
दारों 6422
boys 6421
human@@ 6421
हमसे 6420
hindus 6418
monsoon 6418
vic@@ 6418
वाह@@ 6417
हॉकी 6417
144 6416
dil@@ 6416
हुई, 6416
शर्त 6414
school, 6413
os@@ 6412
एप 6411
पढ़ने 6411
2017, 6410
connect 6409
fundamental 6409
problems. 6409
zone 6407
अधिग्रहण 6407
flag 6406
णों 6406
rakesh 6405
कर्मी 6404
उमर 6402
नेवालों 6402
are, 6401
रक्त 6401
done. 6400
गोल्ड 6400
गा. 6399
speci@@ 6397
वाजपेयी 6397
ं-@@ 6396
ऑल 6394
principles 6393
ters, 6392
ized 6391
m) 6391
राजदूत 6389
सकें 6389
times, 6388
लिया, 6388
एनएस@@ 6387
लेखा 6387
participating 6386
report. 6386
ia@@ 6385
आदित्य 6385
reduction 6384
rac@@ 6383
upto 6383
vaccine 6383
किशोर 6383
व्@@ 6383
this? 6382
आया। 6379
कमरे 6379
उतारा 6378
maintained 6377
seats, 6377
dollar 6376
ै 6376
participants 6375
हिदायत 6375
sts, 6373
महेश 6373
ago 6371
sto@@ 6371
every@@ 6369
(bjp) 6367
vital 6367
iron 6366
ter, 6366
abdul 6365
pan 6365
applied 6364
world's 6363
इसलिये 6362
स्टै@@ 6362
akhilesh 6361
sixth 6361
belonging 6360
बताने 6360
tor 6359
समापन 6358
chairman, 6356
ीकरण 6356
sandeep 6354
sector, 6354
सकेगा। 6354
सतत 6354
नें 6353
द्र 6352
nd@@ 6351
बढ़ी 6351
government's 6350
न' 6350
पौ@@ 6350
te, 6349
walk 6348
nrc 6347
pray 6347
abad 6345
हराकर 6345
टु@@ 6344
card. 6341
revised 6341
सिलसिले 6341
patna 6338
स्वी@@ 6338
हुसैन 6334
er's 6332
puri 6332
ded 6331
statements 6331
एंड@@ 6331
scrip@@ 6330
villagers 6330
righteous 6329
मांग@@ 6329
विमानों 6328
तत्व 6327
ranjan 6326
twitter. 6325
बाप 6325
मुर्@@ 6325
historical 6324
पत्रिका 6323
ker 6322
चलाया 6322
र्ट 6321
angel@@ 6320
है| 6320
radio 6319
al) 6318
बच@@ 6318
ढेर 6316
प्राइमरी 6316
शेख 6316
vas@@ 6315
अब्दुल 6314
मुंह 6314
सेंट्रल 6314
examination. 6313
उपचुनाव 6312
पों 6312
कान 6307
खे 6307
गईं। 6307
ments. 6306
desk: 6305
जेएनयू 6305
े) 6305
change. 6304
परंपरा 6304
फंसे 6303
2.5 6302
trac@@ 6302
ably 6300
जीव 6300
सेंट 6299
दिनेश 6298
driving 6297
first. 6297
न्यूज 6296
हार्@@ 6296
अंतर@@ 6295
er) 6294
can't 6291
journalist 6291
बुराई 6291
(t@@ 6289
शून्य 6289
ide 6288
stressed 6288
missile 6287
जाएँगे 6287
पुनः 6287
ago, 6286
निवास 6286
analysis 6284
असल 6284
बल्@@ 6282
ca 6281
directorate 6280
पॉजिटिव 6280
हुये 6280
ट्रेलर 6279
addition, 6278
bud@@ 6278
उद्धव 6278
शंकर 6278
tics 6277
ug@@ 6276
tech 6275
परस्पर 6275
cc 6274
चर्च 6274
मान, 6274
bhushan 6273
नबी 6273
excellent 6268
gujarat. 6268
sin 6268
मार्क 6268
implement 6267
si 6267
ma, 6266
minister's 6265
thoughts 6265
nad@@ 6261
vikas 6260
distributed 6259
ram, 6257
atmosphere 6255
rap@@ 6254
university, 6253
काउंसिल 6253
तरा@@ 6253
फिट 6253
ner@@ 6252
फिल्‍म 6252
appears 6251
bharti 6251
upper 6251
पहुँच 6250
channel 6249
each. 6249
‌@@ 6249
नाम@@ 6248
fighter 6246
level. 6246
whenever 6246
happening 6245
japanese 6245
easily 6243
पर्यटक 6243
निर्माताओं 6241
गई@@ 6240
खड़ी 6239
tiger 6238
tough 6238
इंकार 6238
says, 6237
प्रतिभा 6236
chin@@ 6234
ईरानी 6234
एडमिट 6234
approximately 6233
bowling 6233
चित्र@@ 6233
यादव, 6233
mul@@ 6230
पृष्ठ 6230
row 6229
है- 6229
appe@@ 6228
piyush 6228
ट्री 6227
dual 6226
कामकाज 6224
परिणामस्वरूप 6222
eve 6221
तौ@@ 6221
ate@@ 6220
डों 6220
bronze 6218
numerous 6218
खुला 6217
complaints 6215
friends, 6214
पोर्@@ 6214
joy 6212
जाँच 6212
सलामी 6212
क्रो@@ 6211
४@@ 6211
vit@@ 6210
वाय@@ 6208
त्रिपुरा 6207
भोपाल 6207
बोलने 6206
रस 6206
भरपूर 6204
football 6203
rapid 6203
read@@ 6200
रेडियो 6200
(के 6198
लेन 6198
filled 6197
ith@@ 6196
kat@@ 6196
श्रद्धा 6196
., 6195
dom@@ 6194
अर्थात् 6194
gautam 6193
वाराणसी 6193
अर्थ@@ 6192
golden 6191
wind 6191
he, 6190
क्रिया 6189
विपणन 6189
बीमार 6188
फरवरी, 6185
फोटो@@ 6185
म्प@@ 6184
अम्@@ 6182
लिया@@ 6181
(5@@ 6179
(to 6179
termin@@ 6179
अध्याय 6179
services, 6178
फायर 6177
aimed 6176
बच्चा 6176
fill 6175
pot@@ 6172
lo! 6171
कहा,@@ 6170
america 6169
inspector 6169
improvement 6168
died. 6167
money. 6166
विविधता 6165
इ 6164
yesterday 6162
aged 6161
appl@@ 6160
other@@ 6157
डी) 6155
विश्वविद्यालयों 6155
सीआरपीएफ 6155
क्शन 6154
हीन 6154
ट्रो@@ 6153
रिकार्ड 6152
अस्तित्व 6149
cul@@ 6148
ad, 6145
माम@@ 6145
advantage 6144
अर्पित 6142
(निस) 6141
देशवासियों 6141
thi@@ 6139
कुल@@ 6139
वेंकैया 6139
"in 6137
choice 6137
infection 6137
kl 6137
काट 6137
सा, 6137
allahabad 6135
copy 6134
end. 6134
drink 6133
,7@@ 6132
war. 6130
"if 6129
empowerment 6128
policemen 6128
है।@@ 6127
पुलिसकर्मी 6125
मिले। 6125
2001 6124
door 6124
world@@ 6124
न्द्र 6124
इलेक्ट्रॉनिक 6123
मानवीय 6123
र्ड 6123
upa 6122
पित 6122
ically 6121
lakh. 6119
दिमाग 6119
सिंह@@ 6118
document 6117
रू 6116
yet, 6112
सोनम 6112
सार 6111
founder 6109
ढांचा 6109
आई। 6107
say@@ 6106
uddin 6105
ख़ा@@ 6104
कराए 6103
b.@@ 6102
बनाता 6102
ष्ट@@ 6102
maintenance 6100
शिवराज 6100
agree 6099
लवा@@ 6099
‘मैं 6099
same. 6098
ख्याल 6098
low@@ 6097
stre@@ 6097
लों, 6097
advis@@ 6096
bus@@ 6096
ure 6096
भावनाओं 6096
इंटरनल 6095
कब्जा 6094
समुदायों 6094
डेट 6093
तेरी 6092
गल@@ 6091
नियत 6091
surface 6090
notified 6089
solutions 6089
कलाकारों 6089
गणराज्य 6088
contains 6087
tru@@ 6087
स्कीम 6087
ingly 6086
ट्यू@@ 6084
ट्रै@@ 6084
पंजीकृत 6084
determined 6083
bhar@@ 6080
life@@ 6080
zz@@ 6080
bank@@ 6079
involving 6079
मानकों 6079
seeks 6078
105 6076
endra 6076
younger 6076
करों 6076
मुसलमान 6076
chi@@ 6075
then. 6075
कल्@@ 6075
नाइट 6075
wake 6074
शैक्षिक 6074
triple 6069
हानि 6069
regulatory 6068
wife, 6068
सदैव 6068
ेंट 6068
"हम 6067
ंच@@ 6067
स्पे@@ 6067
संस्कृत 6066
dig@@ 6065
यता 6064
d-@@ 6062
पंच@@ 6062
बुरे 6062
singer 6061
thanks 6061
forum 6060
प्रताप 6059
बंदरगाह 6059
advice 6057
owner 6056
pivotal 6056
लाइव 6056
chand 6052
ants. 6051
smith 6050
चित 6048
प्रारूप 6048
aar@@ 6047
consecutive 6047
there, 6047
दौड़ 6047
ज़ा@@ 6047
ong 6046
रिटर्न 6046
शेट्टी 6046
ter. 6045
अरुणाचल 6045
ton 6044
सीखने 6044
कमांडर 6041
किंतु 6040
dropped 6039
weapons 6039
अवस्था 6039
मूल्‍य 6039
फर्जी 6038
gate 6037
iaf 6035
अस@@ 6035
actual 6034
leaves 6034
द्वार 6032
मामूली 6032
वह@@ 6032
सपना 6032
स्थलों 6032
spotted 6031
आईएम@@ 6031
happens 6030
32@@ 6028
emerging 6027
putting 6027
possibility 6025
देखता 6024
0, 6023
wh@@ 6023
flo@@ 6022
mahesh 6022
islam@@ 6020
विद्यार्थी 6020
ट्रि@@ 6019
thanked 6017
आदान-प्रदान 6015
partys 6014
(f@@ 6011
unknown 6011
रूसी 6011
dinesh 6009
federal 6009
धे 6009
chemical 6008
gardens 6008
एक्शन 6005
दीन 6004
पढ़@@ 6004
director@@ 6003
ess. 6003
मोड 6003
animals 6002
ती। 6002
नार@@ 6002
bagged 6001
har, 6001
नाय@@ 5999
स्मारक 5999
african 5998
dc 5998
उत्तराखण्ड 5998
फर 5998
डाले 5997
44@@ 5995
spo@@ 5993
forget 5992
popul@@ 5992
lets 5990
दिला@@ 5989
एंगे। 5987
जबरदस्त 5987
ड्र@@ 5985
सत@@ 5985
pati@@ 5984
लिहाज 5984
दिखाता 5983
deeply 5982
communities 5981
faithful 5981
sh 5981
avail 5980
ious 5980
ps@@ 5980
रिया@@ 5980
approached 5978
jun@@ 5978
morning. 5978
एनआरसी 5978
verma 5977
एनडीए 5977
16.@@ 5976
window 5976
covering 5975
style 5975
पर्व 5975
market. 5973
high-@@ 5972
जाएगी. 5972
फाइ@@ 5971
meant 5970
government@@ 5969
vir@@ 5969
tem@@ 5968
निरीक्षण 5968
order. 5967
नोएडा 5967
विकास, 5967
सल@@ 5967
जिन्@@ 5966
pic@@ 5965
लापता 5965
finished 5964
overseas 5964
ency 5962
opposite 5962
writer 5962
jawaharlal 5960
दया 5960
देखे 5960
minutes 5958
moon 5957
बुला@@ 5957
economy. 5956
india: 5955
length 5954
खुली 5954
पशु 5954
aries 5953
gal@@ 5952
टरी 5952
पी, 5950
सन@@ 5950
with@@ 5948
ता-@@ 5948
प्रदर्शनी 5946
il, 5945
sensitive 5943
quit 5942
विज्ञापन 5942
ded, 5941
shri@@ 5941
स्थि@@ 5941
़ 5940
may, 5939
sort 5939
fiscal 5937
पथ 5937
cy@@ 5936
regions 5936
वं@@ 5936
सॉफ्टवेयर 5936
uddhav 5934
el. 5931
ement@@ 5931
बोले 5931
अपनाने 5930
अमल 5930
वितरित 5930
kerala, 5929
जू 5929
रिक 5929
weak@@ 5928
sanctioned 5926
extension 5925
china. 5924
closely 5924
etc 5923
poverty 5923
करवाने 5923
paying 5922
plane 5922
प्रीमियर 5922
light@@ 5921
support. 5921
निदेशालय 5921
ipc 5920
अनुदान 5920
उत्तर@@ 5920
mining 5919
requires 5919
फार्@@ 5919
मसीहियों 5917
जौहर 5916
rah@@ 5915
sonam 5915
जुट 5914
बिता@@ 5914
resid@@ 5913
इच्छुक 5913
over. 5911
test@@ 5911
isnt 5908
पहुँचा 5908
पढ़@@ 5908
museum 5907
proof 5907
ज़ी 5907
आईपी@@ 5906
प्रोग्राम 5903
christ 5900
ठहरा@@ 5900
जिनसे 5899
लिख 5898
bid 5896
convention 5896
steve 5896
मल 5896
church 5895
mac@@ 5895
moral 5895
preparations 5894
इटली 5894
za 5893
15.@@ 5892
कुं@@ 5892
वर्ती 5891
bhai 5890
\""@@ 5889
अनुवाद 5889
ministerial 5888
अनुपात 5888
mostly 5887
extra 5885
अल्पसंख्यक 5885
जरूरतों 5885
राज्यमंत्री 5885
satellite 5884
causing 5882
भेजी 5882
bit@@ 5880
kes@@ 5880
add@@ 5879
completion 5879
कुर्@@ 5878
statue 5877
अकादमी 5877
producing 5876
worst 5876
tweet 5875
रचना 5875
hi, 5874
memorandum 5872
बाग 5872
eas@@ 5870
obama 5869
आईटी@@ 5869
joshi 5868
झटका 5868
मौत, 5867
ताएं 5866
ena 5864
toss 5863
एक्टिव 5860
trained 5859
रहीं 5859
scheme. 5858
सद@@ 5858
begun 5857
cb@@ 5857
grief 5857
lucknow 5857
yed 5857
उपयोगी 5856
4,000 5855
seed 5855
postmortem. 5854
करेगा, 5854
करो, 5854
reservation 5853
possible. 5851
जेम्स 5849
प्रतिस्पर्धा 5849
युवकों 5849
batt@@ 5848
list@@ 5848
निकलने 5848
ines 5847
जब@@ 5847
अर्थात 5846
ए-@@ 5846
(आर@@ 5845
2003 5845
trophy 5845
allows 5843
part@@ 5842
दिया@@ 5842
eye 5841
percentage 5841
polic@@ 5841
cra@@ 5840
]. 5839
mark@@ 5839
slogans 5838
ज़रूर 5838
ble@@ 5837
prayer 5837
tion) 5837
कराना 5837
chairperson 5836
गुनाह 5836
ek@@ 5835
rank 5835
honda 5834
travelling 5834
meteorological 5833
000 5832
location 5832
साजिश 5832
way@@ 5831
समन्वय 5831
मल@@ 5830
pak 5828
ti, 5828
सम्‍मेलन 5828
innovative 5826
oper@@ 5826
पड़ने 5826
हथियारों 5826
ered 5823
उद्देश्‍य 5823
presently 5822
निर@@ 5822
diwali 5819
listen 5819
सतह 5819
faith@@ 5817
चौथी 5817
टी-@@ 5817
il. 5816
ग्रस्त 5816
साधन 5813
,4@@ 5812
di, 5812
hours, 5811
tmc 5811
later. 5809
बढ़ता 5809
योजना@@ 5809
,5@@ 5807
ani@@ 5804
नर्@@ 5804
सशक्त 5804
194@@ 5803
स्थिरता 5803
पोस्टर 5802
stories 5801
दोहरा@@ 5801
concluded 5800
उत्पीड़न 5800
अल-@@ 5799
क़ा@@ 5799
peaceful 5798
कृष्णा 5798
चम@@ 5798
ure, 5797
पुरा@@ 5797
ji, 5795
competitive 5794
ement. 5794
represented 5794
requirements 5794
roll 5794
अंतर्राष्‍ट्रीय 5794
तू@@ 5793
रहे. 5793
17.@@ 5791
winners 5791
लगते 5790
अता 5789
जटिल 5789
ed) 5788
संग्रहालय 5788
उतना 5787
मायावती 5787
2015-16 5786
resulted 5784
tel@@ 5781
ऑफिशियल 5780
doesn't 5779
कॉम 5779
सच्चा 5779
son. 5778
पैरा@@ 5777
बनकर 5776
condolences 5775
ures 5774
प्रक्रियाओं 5772
यहीं 5771
लंबा 5771
ster@@ 5770
willing 5770
धाराओं 5770
जीते 5769
ट्रैक 5769
२ 5769
pace 5766
institutes 5764
मंत्री, 5763
कांस्य 5762
खबरें 5762
हिंदुस्तान 5762
alert 5761
ग्रामीणों 5761
मतदाता 5761
स्टूडेंट्स 5761
ण्ड@@ 5760
drop 5759
maritime 5759
उत्‍@@ 5759
दुष्कर्म 5759
विभाजित 5758
connection. 5757
कार्तिक 5757
रें@@ 5755
bed 5754
caste 5754
सफलतापूर्वक 5754
डेब्यू 5753
learned 5752
ेगी। 5752
monthly 5750
shah@@ 5750
।। 5750
निभाई 5748
जनजातीय 5747
ड़ा, 5747
आईआईटी 5746
फडणवीस 5746
sn@@ 5744
,8@@ 5742
crops 5742
politics. 5742
university. 5742
led. 5741
घटनाएं 5741
बहाल 5740
reserved 5739
लड़के 5738
""" 5737
क़ 5737
ata 5736
honoured 5736
ned. 5736
गौरव 5736
उपलब्धता 5735
सीमाओं 5733
सला@@ 5732
ड़ी 5732
es' 5731
अपडेट 5731
गारंटी 5731
inde@@ 5730
चार्ज 5730
seem 5728
report, 5727
कनेक्शन 5727
300@@ 5726
8gb 5726
सौदे 5726
#44. 5725
कृति 5725
agar@@ 5724
दशकों 5724
regul@@ 5722
स्टील 5722
...@@ 5720
मासिक 5719
death, 5718
measure 5718
mukesh 5718
jointly 5717
not, 5717
विवादित 5716
रहमान 5715
interesting 5714
करे@@ 5714
sions 5713
पेड़ 5712
शवों 5711
सदस्यता 5711
eu@@ 5710
perfect 5710
torque 5710
खरीदा 5710
फाउंडेशन 5710
8mp 5709
storage. 5709
जाधव 5706
विधि@@ 5706
wal, 5705
fying 5703
homes 5703
admission 5701
inter-@@ 5701
उत्कृष्ट 5701
रण@@ 5701
स्टेशनों 5700
अनुसरण 5699
ज़ी@@ 5699
earned 5698
eshwar 5698
थीं, 5698
ख) 5697
अंग@@ 5696
क्षण 5696
-day 5695
विक 5695
sport 5694
स्त्र@@ 5694
दूर@@ 5692
concept 5691
medi@@ 5691
qualcomm 5690
tribunal 5688
मुख@@ 5688
ख़बर 5687
बलिदान 5687
रखती 5687
परिभाषित 5686
run@@ 5684
whats 5683
jail. 5681
result, 5681
ure@@ 5681
अधिकारिता 5681
जंग 5681
inflation 5680
2014, 5678
ner 5678
संतुलन 5678
सेटअप 5678
ord@@ 5677
presidents 5676
पेशेवर 5674
बैक 5674
व्या@@ 5674
club 5673
एव@@ 5673
beneficiaries 5672
बन्दों 5670
lake 5669
experienced 5667
ri, 5667
केन्‍द्र 5667
नैतिक 5667
प्लेटफॉर्म 5666
नन 5665
प्रकाशन 5665
resigned 5664
enterprises 5663
4g 5662
conservation 5662
kids 5662
malik 5662
dates 5657
functioning 5657
प्रभार) 5657
ambi@@ 5656
lit@@ 5655
आत्म@@ 5655
निग@@ 5654
रसायन 5654
see@@ 5653
models 5651
ley 5649
सौंपा 5649
ang 5648
relation 5647
एँ@@ 5647
अक्तूबर 5646
कट 5645
kir@@ 5644
wherein 5644
मंत्रालय, 5644
जैन 5643
मतदाताओं 5643
bihar. 5642
contain 5642
pandey 5642
violation 5642
प्लास्टिक 5642
विमानन 5641
fathers 5640
highlighted 5639
विभाजन 5638
soil 5635
होता। 5634
फायदे 5632
शास्त्र 5632
guided 5631
दर्शाता 5631
अब्दुल्ला 5629
विवेक 5629
again, 5626
daughters 5626
खातों 5626
तुममें 5626
पहुंचकर 5626
education. 5623
,9@@ 5622
clash 5622
newly 5622
some@@ 5621
academy 5620
संस्था@@ 5620
किम 5617
associate 5615
game. 5615
respond 5615
tension 5615
रुप@@ 5615
species 5614
ade 5613
capable 5613
असफल 5613
माइक्रो@@ 5613
hardik 5612
sms 5611
sentence 5610
trailer 5610
रिहा 5609
हवाला 5609
अपराधों 5607
साक्षात्कार 5607
टेलीविजन 5605
स्टी@@ 5605
ravindra 5603
आउट@@ 5603
जाए@@ 5603
लाइफ 5602
निया@@ 5601
let@@ 5600
set@@ 5600
काले 5598
suspected 5597
गणतंत्र 5596
wasnt 5594
टेनिस 5593
व्यव@@ 5593
्‍@@ 5593
फ़ 5593
r, 5591
venture 5589
जाएँ 5589
pt@@ 5588
dealing 5587
pain 5587
करो। 5587
कार्बन 5587
साक्षियों 5587
सकेंगे। 5586
warned 5585
hall 5584
meets 5584
inn@@ 5581
बोला 5581
temples 5580
सहकारी 5580
losing 5579
ब्लॉक 5578
सूर्य 5578
centre, 5577
ple@@ 5577
कहाँ 5577
men. 5576
widely 5576
business. 5575
champions 5575
deeds 5575
धर्@@ 5575
५@@ 5573
will@@ 5572
बेचने 5572
बेस 5570
हितधारकों 5570
p.@@ 5568
बरा@@ 5568
यहूदी 5567
reviewed 5566
दायित्व 5566
vel@@ 5564
फुटबॉल 5564
लाते 5564
jai 5563
ther@@ 5563
ओ, 5563
सिद्धांतों 5563
cle@@ 5561
investigations 5561
liber@@ 5561
ie 5560
scene 5560
करवा 5560
interim 5559
performing 5559
kumar. 5558
तरह, 5558
overs 5557
गांधी, 5556
सके@@ 5556
baby 5552
sanitation 5552
advisory 5551
आर्मी 5551
ani, 5550
न: 5549
,999. 5548
लम 5548
efficient 5547
allocation 5546
जोन 5546
रोकथाम 5545
डीसी 5544
prayers 5542
prescribed 5542
मानने 5542
storm 5540
पदार्थों 5540
बरी 5540
रहा@@ 5540
रीति 5539
facts 5538
पाय@@ 5538
fort 5537
एकजुट 5537
110 5536
नाबालिग 5535
रूम 5535
village. 5534
तलाशी 5534
properties 5533
returning 5533
author 5532
ets. 5532
jet 5531
पुलिसकर्मियों 5531
६@@ 5531
उठ@@ 5530
kangana 5529
motorcycle 5529
सुधारों 5529
hal 5528
अगला 5528
‘हम 5528
corridor 5526
enhanced 5525
tag@@ 5525
अंतरिम 5525
कमल 5525
package 5523
band 5520
alised 5519
लना 5519
सहारा 5519
nand@@ 5518
12. 5517
tom 5517
पश्चात् 5517
सुरक्षाबलों 5517
figures 5516
कनेक्टिविटी 5516
खुश@@ 5516
reducing 5515
मनाने 5515
vice-president 5514
18.@@ 5513
सोना 5513
,6@@ 5512
तुमपर 5512
मुख्‍य 5512
crossed 5511
19.@@ 5510
5000 5510
polls. 5510
wise. 5510
baba 5509
fies 5508
opens 5506
साहिब 5505
tells 5504
निम्न 5503
14, 5502
recognised 5502
bil@@ 5501
comprises 5501
persons. 5501
तेरा 5501
नायक 5500
junior 5499
परिणामों 5497
भंडारण 5497
marked 5496
e," 5495
implementing 5495
therein 5494
singh@@ 5493
वा, 5493
election. 5492
department, 5490
लैंड, 5490
एचडीएफसी 5489
शांतिपूर्ण 5488
ties, 5487
ढ़ 5487
प्रिंट 5487
evening. 5486
no, 5486
satan 5486
tweeted. 5486
आपसे 5484
belong 5483
moreover, 5483
डिप्टी 5483
अनुमानित 5482
friends. 5481
शीर्षक 5481
penal 5479
सीख 5479
मसले 5478
लगा। 5477
elements 5476
passes 5476
entertainment 5474
फसलों 5474
scam 5473
tribute 5473
ure. 5473
ik@@ 5472
ज़ाहिर 5472
ap 5470
न्यायाधीशों 5470
बीएस@@ 5470
ada 5469
balls 5469
कदमों 5469
region, 5468
lim@@ 5467
इजाफा 5466
कपड़े 5466
leaders, 5465
ंग्@@ 5465
जाएं 5465
राजस्थान, 5465
equipped 5464
बाधा 5464
मजदूरों 5464
रुचि 5464
५ 5463
maintaining 5462
ड-@@ 5462
नकारात्मक 5461
sisters 5459
seat. 5457
तलाक 5456
posi@@ 5455
rani 5455
सुशील 5454
nal@@ 5453
flipkart 5452
सीसी@@ 5452
दरअसल 5451
definitely 5450
ef@@ 5450
एसबीआई 5450
tributes 5447
3) 5446
न्यूयॉर्क 5446
11, 5443
circumstances 5443
nation, 5443
साक्ष्य 5443
नाकाम 5441
जलाशयों 5440
fir@@ 5439
accordance 5438
la, 5438
धों 5437
हरियाणा, 5437
[ 5436
ght, 5436
ground@@ 5436
आए@@ 5436
contributed 5435
expanded 5435
इंडस्ट्री 5435
clu@@ 5434
observ@@ 5434
targeted 5434
caa 5433
ye@@ 5432
भे@@ 5432
condition. 5431
premium 5431
project. 5431
tion: 5431
turns 5430
होंडा 5430
class@@ 5429
"there 5428
axis 5428
locations 5428
कैफ 5427
"क्या 5426
launches 5424
bin 5423
school. 5422
आयी 5422
बचपन 5422
ेंगे. 5422
06 5421
wearing 5421
माफ 5421
novel 5420
ys@@ 5419
भग@@ 5418
ble. 5417
ah, 5416
front, 5416
मार्केट 5415
directors 5414
remote 5414
sch@@ 5413
जूनियर 5413
तल@@ 5413
friend@@ 5411
sed, 5411
जेट 5411
ladakh 5410
sex 5410
territories 5410
ush@@ 5410
क्ला@@ 5410
हाइ@@ 5410
patel, 5409
services. 5409
जैव 5408
धारी 5408
आईसीआईसीआई 5407
एम) 5407
डेंट 5407
students, 5406
फेर 5405
सियों 5405
identi@@ 5404
party's 5404
person. 5404
वेस्ट 5404
फॉर्@@ 5403
hun@@ 5402
struggle 5402
ities. 5401
nit@@ 5401
ties. 5401
swami 5400
180 5399
alized 5399
coalition 5399
ml@@ 5399
sim@@ 5399
skin 5399
अलर्ट 5399
ies. 5398
industry, 5398
delay 5397
directions 5397
discharged 5397
role. 5396
sion@@ 5395
का। 5394
magistrate 5392
sciences 5392
धोखाधड़ी 5392
विनोद 5392
हूँ, 5392
bir 5391
hence 5390
milit@@ 5390
consultation 5389
खी 5389
पर) 5389
extent 5388
gathering 5388
झील 5388
kas@@ 5387
chur@@ 5385
termed 5385
अला@@ 5385
०@@ 5385
applicable 5383
supports 5383
umb@@ 5383
अधिसूचित 5383
रूपए 5382
लते 5382
गिनती 5381
more. 5380
नकदी 5380
बताता 5380
ire 5379
acy 5378
chain 5378
गहलोत 5378
पत्रों 5378
मोटरसाइकिल 5378
शिमला 5378
isation 5377
zed 5377
जेपी 5376
सेन 5376
controversy 5375
store 5374
कभी-कभी 5374
बहादुर 5374
damaged 5373
वर्ष@@ 5373
160 5372
7th 5372
ad. 5372
asi@@ 5372
mention 5372
organizations 5372
time@@ 5372
वैकल्पिक 5372
roles 5370
tom@@ 5370
लेफ्टिनेंट 5370
squ@@ 5369
nab 5368
हादसा 5368
दुखद 5367
गेम 5366
ल्ट 5366
दोष 5364
मनोरंजन 5364
राजन 5364
तब@@ 5363
हां, 5363
10वीं 5362
अनुबंध 5362
नों, 5362
पत्र@@ 5362
विंग 5361
alli@@ 5360
medicine 5360
rent 5360
writ@@ 5359
करें@@ 5359
गईं 5359
33@@ 5358
er: 5358
मास्क 5358
gupta, 5357
एमएसएमई 5357
ऑस्ट्रेलियाई 5357
वर, 5357
(एफ@@ 5356
14. 5356
customs 5355
focused 5354
ministries 5354
2016, 5350
threatened 5350
पाप 5350
प्रसन्नता 5350
स्पिनर 5350
12, 5349
hot 5348
sting 5348
क्षति 5348
ठी 5348
expansion 5346
motion 5346
initially 5344
आयुष 5344
पन@@ 5343
rice 5342
sacred 5342
said.""" 5342
injuries. 5341
2020-21 5340
condemned 5340
need@@ 5340
लेंस 5340
europe 5339
secret 5338
here@@ 5337
मायने 5336
मक@@ 5335
रियो 5335
कप्तानी 5334
breaking 5333
medals 5333
चिंतित 5333
परीक्षाओं 5333
australia, 5332
ond@@ 5332
combined 5331
jee 5331
says. 5331
two-day 5329
combat 5328
स्वर्ग 5328
(a) 5327
बैंड 5327
हैरान 5327
(3) 5323
ras@@ 5323
consideration 5322
sum 5321
iit 5320
दवाओं 5320
प्रतिबंधित 5320
aspect 5319
ंडी 5319
nir@@ 5318
talked 5318
चपेट 5318
फ़ैसला 5318
kur@@ 5316
airtel 5315
constant 5314
relatives 5313
bi 5312
प्स 5312
मिशेल 5312
atory 5310
हर्@@ 5309
country@@ 5308
ver, 5306
hit@@ 5305
लिखने 5305
drawn 5304
बीमारियों 5304
acted 5303
secured 5302
प्रसंस्करण 5302
हीरो 5302
congregation 5300
learnt 5300
struck 5300
02 5298
रोजाना 5298
nur@@ 5296
स्नातक 5296
गेट 5295
युवती 5295
लौटने 5295
सब्सिडी 5295
counting 5292
plastic 5290
सह 5289
ले। 5288
'% 5287
affordable 5287
maj@@ 5287
भारत@@ 5287
दिसंबर, 5284
blessings 5283
lying 5283
मीटिंग 5282
instagram. 5281
इबराहीम 5281
rawat 5280
variety 5279
मछली 5279
prosperity 5278
खेलना 5278
भेदभाव 5278
ements 5277
विलय 5277
999 5276
decline 5276
मद@@ 5276
suggestions 5273
was@@ 5273
subsequently 5272
washington 5272
एमएस@@ 5272
सकल 5272
सित 5272
सेनाओं 5272
chan@@ 5270
divine 5270
चैंपियनशिप 5270
महल 5269
शिक्षा@@ 5269
हट 5269
ets, 5267
बात@@ 5267
बढ़ 5267
समानता 5267
4th 5265
(w@@ 5264
universal 5264
मानता 5264
din@@ 5263
failure 5263
प्रि@@ 5263
यानि 5262
fired 5261
dy 5260
wall 5260
निचले 5260
श्रमिकों 5259
custom@@ 5258
deposit 5257
hind@@ 5256
respectively 5256
बिंदु 5256
लेख@@ 5256
cancelled 5255
वाड़ा 5255
स्कूली 5255
डी, 5254
लेक्@@ 5254
aver@@ 5253
know@@ 5252
भुवनेश्वर 5252
स्टीव 5251
esh@@ 5250
gro@@ 5250
rain@@ 5250
load 5249
घड़ी 5249
जोड़ 5249
बैं@@ 5249
machine 5248
टेक्नोलॉजी 5248
subhash 5247
१९@@ 5247
इसरो 5246
एंगे 5246
अखबार 5244
commander 5243
instructions 5243
secretaries 5243
(l@@ 5241
disc@@ 5241
entrance 5241
बढ़@@ 5240
दिलचस्पी 5239
भट@@ 5239
मारी 5239
mandatory 5238
fru@@ 5236
ful, 5236
team@@ 5236
केट 5236
सर, 5235
president. 5234
radi@@ 5234
पीछा 5234
visa 5233
hs 5232
s! 5232
राजनैतिक 5232
आकाशों 5231
बीज 5231
(आ@@ 5230
side, 5230
एकत्र 5229
शिरकत 5229
kar. 5228
टा, 5227
नात्मक 5227
पूछ@@ 5227
मेह@@ 5227
goals 5226
ha, 5226
trees 5226
de. 5225
requirement 5224
ज़ि@@ 5224
company, 5222
less@@ 5221
rajasthan. 5220
शिप 5220
उपभोक्ताओं 5219
चाहिए@@ 5218
महाराष्ट्र, 5218
लैंड@@ 5218
स्त्रियों 5218
नसीहत 5217
ini 5216
एसी 5216
जें@@ 5216
स्टा@@ 5215
examples 5214
(ic@@ 5213
stayed 5212
allah@@ 5211
एफसी 5211
मज़बूत 5211
वंश 5211
good@@ 5210
उस@@ 5210
उत्‍तर 5209
फोर्स 5208
aam 5207
09 5206
cooperative 5205
kap@@ 5205
सिया@@ 5205
परियोजनाएं 5203
बिहारी 5202
anger 5201
kinds 5201
उत्साह 5201
संजीव 5200
root 5198
ians 5197
माँ@@ 5197
सचिवालय 5196
bhag@@ 5195
charging 5195
titled 5195
बिल्@@ 5195
संवाददाता 5195
स्पेस 5195
ठा 5194
suv 5193
िये 5193
falling 5192
jal 5192
अनुपालन 5192
parti@@ 5191
hes 5190
irrigation 5190
killed. 5189
san 5189
health, 5188
आई, 5188
वास 5188
angels 5187
fielded 5187
ा, 5184
manual 5183
ग्रीन 5183
भी। 5183
कविता 5182
bank. 5180
fruits 5180
quick 5180
सामुदायिक 5180
13: 5178
march, 5178
मंड@@ 5178
vari@@ 5177
बी, 5177
वंचित 5177
उसपर 5176
ेगा 5176
mechanism 5175
come. 5174
conferred 5174
टूट 5174
करवा@@ 5173
सीए@@ 5173
हैं- 5172
ia. 5171
laundering 5171
deny 5170
household 5170
मनुष्यों 5170
टने 5169
मास 5169
स्टोर 5168
अवॉर्ड 5167
दिल्ली@@ 5167
समझा@@ 5167
seri@@ 5166
असाधारण 5166
टें@@ 5163
निराश 5163
बंदी 5163
carbon 5162
side. 5162
papers 5161
करी 5161
पद्धति 5161
sunday. 5160
ट्रस्ट 5160
नामों 5160
anda 5159
counter 5159
sri@@ 5159
झूठे 5158
टॉर्क 5158
दिलचस्प 5158
हताहत 5157
ऑटो@@ 5156
suffer 5155
नाथन 5154
ब) 5154
factory 5153
ters. 5153
साइबर 5153
ganguly 5152
नतीजा 5152
पारिवारिक 5152
अंतर्@@ 5151
नोटबंदी 5151
डल 5150
hits 5149
करण, 5149
पहुंचाया 5149
goddess 5148
tered 5148
exit 5146
ants, 5143
फैल 5143
फैलाने 5143
ry. 5142
गेंदबाजों 5142
सकी 5142
सरा@@ 5142
gained 5141
उन्होने 5141
twice 5140
website. 5140
before. 5138
yourself 5138
fu@@ 5137
pon@@ 5137
कवि 5137
know. 5135
आवा@@ 5135
academ@@ 5133
forgive 5133
नकद 5133
साथियों 5132
यूसुफ 5131
log@@ 5130
ेंगी 5130
ib@@ 5129
nominated 5128
raja 5128
attack@@ 5127
दल@@ 5126
2mp 5125
jal@@ 5125
केन 5124
train@@ 5123
(provisional) 5122
ट्रेनिंग 5122
ast 5121
भौतिक 5121
सरकार, 5121
punjab@@ 5120
week@@ 5120
book@@ 5119
इस्लामिक 5119
followers 5118
starred 5118
agenda 5117
truth@@ 5117
ham 5116
ne 5114
teach 5114
करे, 5114
टाइम्स 5114
धित 5114
issu@@ 5113
sahib 5113
sidhu 5111
courses 5110
घट@@ 5108
डायरेक्ट 5108
प्रशिक्षित 5107
friday. 5105
abroad 5104
conflict 5104
songs 5102
अख्तर 5102
फर्क 5102
जितेंद्र 5101
30, 5100
kid@@ 5100
mc 5100
लांच 5100
believers 5099
black@@ 5099
niti 5099
एकड़ 5099
alternative 5098
square 5097
खेलते 5097
नम 5097
सितंबर, 5097
नीरव 5096
areas, 5095
gn@@ 5095
उपासना 5093
tro@@ 5092
shops 5091
एमएस 5091
fs 5090
इंडोनेशिया 5089
जाएं। 5088
absolutely 5087
predic@@ 5086
कैं@@ 5086
pras@@ 5085
झग@@ 5085
46@@ 5083
filmmaker 5083
uri 5083
backed 5081
योजनाएं 5081
जर@@ 5080
फ़्@@ 5080
joining 5079
motor@@ 5079
sending 5079
ur, 5079
अनुराग 5079
articles 5078
well@@ 5078
घाट 5077
घाटे 5076
uni@@ 5074
क्स, 5074
दूतावास 5074
indo-@@ 5073
आवंटित 5073
फें@@ 5073
ic. 5072
बार-बार 5072
cho@@ 5070
ज़रिए 5070
fc 5069
hero 5069
messages 5069
saved 5069
रोगी 5069
विजय@@ 5069
सूरत 5069
सीबी@@ 5068
mr@@ 5067
brah@@ 5066
wheat 5066
सीएस@@ 5066
cm@@ 5065
गम 5065
संबंध@@ 5065
वीडियो@@ 5064
shut 5063
उन्नत 5063
assembly. 5061
दा, 5061
coll@@ 5060
constituency. 5060
mic@@ 5060
grown 5059
tap@@ 5058
jud@@ 5057
कड़े 5057
* 5056
टेबल 5055
अगस्त, 5054
पस 5054
प्रणालियों 5054
रता 5053
championship 5052
honble 5052
mobil@@ 5052
ता) 5052
five-@@ 5051
short@@ 5051
प्राथमिकी 5051
bet@@ 5050
loving 5050
ture 5050
पटा@@ 5050
ones. 5048
punjab. 5048
efficiency 5047
integral 5047
ratio 5047
inst@@ 5045
killed, 5045
place, 5045
sr@@ 5045
इंडिया, 5045
गले 5045
मेहता 5044
वैध 5044
सफेद 5043
selfie 5042
चाल 5042
दे। 5041
isro 5040
bang@@ 5039
if@@ 5038
singapore 5038
totally 5038
vast 5038
vijay@@ 5038
2011-12 5037
tradition 5037
ved. 5037
sti@@ 5036
to. 5036
अश्विन 5035
तत्वों 5034
बैडमिंटन 5033
(जी@@ 5032
जातियों 5032
बचे 5032
गंज 5030
04 5029
nomination 5029
मेन 5029
sindhu 5028
film@@ 5027
सुजुकी 5026
jehovah. 5025
ori@@ 5025
छात्रा 5025
est@@ 5024
अमरिंदर 5024
diseases 5023
keeps 5023
नाबाद 5023
produces 5022
भजन 5022
centuries 5021
literature 5021
merciful. 5021
डो 5021
ks, 5020
public@@ 5020
2015. 5019
formal 5019
ेंगी। 5019
सिक्किम 5018
expression 5017
positions 5017
दिखाते 5017
सचिव, 5016
ben 5015
automatic 5014
tive, 5014
एचडी 5014
islam 5013
transmission 5013
मांगा 5013
hari 5012
swachh 5012
है,@@ 5012
manipur 5011
max 5011
mt 5011
भूमि@@ 5011
lok@@ 5010
गतिविधि 5010
फैला 5010
college, 5009
island 5009
त्व 5008
settled 5007
वल@@ 5007
explained 5006
merely 5006
निशानियाँ 5006
ंदा 5005
आयुष्मान 5005
न. 5005
mitchell 5004
खाड़ी 5004
चन 5004
chair@@ 5003
matthew 5003
nick 5003
1999 5002
क्ल@@ 5002
allowing 5001
lives. 5001
sabha, 5001
violent 5001
कें@@ 5001
isolated 5000
method 5000
दलित 4998
2016. 4997
solid 4997
protesting 4996
searching 4996
peak 4995
bike 4994
क्लास 4994
ॉर्@@ 4994
plac@@ 4992
shikhar 4992
thi 4992
ड़ने 4992
1,5@@ 4991
wear 4991
दिलाने 4991
क्ट 4989
hosted 4988
wan 4987
दुनियाभर 4987
ारि@@ 4987
pap@@ 4986
principle 4986
रौ@@ 4986
वैक्सीन 4986
आभार 4985
कहो, 4985
जिंग 4985
विवादों 4985
7) 4984
disbelie@@ 4983
होगा? 4983
friendship 4982
azad 4981
miss 4981
आपत्ति 4980
नृत्य 4979
coordination 4978
जख्मी 4978
assam, 4977
लत 4977
प्रतीत 4976
winter 4975
प्रॉ@@ 4975
नड्डा 4974
्रा@@ 4974
burden 4973
eventually 4973
zing 4973
उर्वरक 4973
एगा। 4973
off. 4972
tally 4971
thereby 4971
तोमर 4970
nay@@ 4969
सुनकर 4969
after@@ 4968
hn@@ 4968
मिंग 4968
लगती 4968
युद्ध@@ 4967
commission@@ 4965
haz@@ 4965
उत्सव 4964
जहन्नुम 4964
स्तान 4964
ें. 4964
tin@@ 4963
history. 4960
name. 4960
} 4959
झा 4959
depth 4958
posed 4958
कॉरपोरेट 4958
समझता 4958
materials 4957
सच्ची 4957
grew 4955
moh@@ 4955
phil@@ 4955
दस्तावेजों 4955
शर्तों 4955
visits 4954
कॉर्@@ 4954
तियाँ 4954
expand 4953
इला@@ 4953
15. 4952
अर्जित 4952
ज्ञात 4952
नवीकरणीय 4951
विविध 4951
(amendment) 4950
javadekar 4949
निभाने 4949
scope 4948
generate 4947
अधिवक्ता 4946
फुल 4945
funding 4944
वी. 4944
ds, 4943
transactions 4943
abdullah 4942
jain 4942
sen 4942
timely 4942
जांच@@ 4942
inclusive 4941
factor@@ 4940
मानो 4940
2018. 4938
पक्ष@@ 4938
acquisition 4937
k-@@ 4936
अस्थायी 4936
दीवार 4936
मजिस्ट्रेट 4936
4) 4935
पैर 4935
स’ 4935
blessed 4934
दुबई 4933
ना) 4933
परिवर्तित 4933
जानना 4932
exhibition 4931
restrictions 4931
ब्राजील 4931
जानवरों 4929
together, 4927
arg@@ 4926
त्रा@@ 4926
्यू@@ 4926
वैसा 4924
kapoor. 4923
–@@ 4922
तालिबान 4921
cour@@ 4919
taxes 4919
ना. 4919
o-@@ 4918
कानपुर 4918
boo@@ 4917
भी) 4917
रुपया 4917
dutt 4916
meh@@ 4916
virtual 4916
जॉ@@ 4916
pair 4915
true. 4915
बाबत 4914
चीज़ 4913
धू@@ 4913
ेगी 4913
handle 4912
लगाना 4912
area, 4911
purposes 4911
ways. 4911
काफ़ी 4911
वादियों 4911
bowler 4910
घटक 4909
लेगा 4909
ese 4908
ministry, 4908
पेयजल 4908
ियर 4908
समर्थक 4907
continuing 4906
फास्ट 4906
grand@@ 4905
ok@@ 4905
wickets. 4905
अनि@@ 4905
धारणा 4905
सनी 4905
company. 4903
auction 4902
hill 4902
अपराधियों 4902
पेपर 4902
fre@@ 4901
सांस 4901
controlled 4900
devices 4900
these, 4900
अकबर 4900
आडवाणी 4900
इंदौर 4900
चाय 4900
पृष्ठभूमि 4900
प्रतिमा 4900
“मैं 4900
driven 4898
स्वामित्व 4898
poly@@ 4896
regularly 4896
प्रीमियम 4896
rup@@ 4895
hat@@ 4893
information. 4893
sacrifice 4893
मारपीट 4893
shoot 4892
constantly 4891
gor@@ 4891
bengal. 4890
garden 4889
ss 4888
thing. 4887
wil@@ 4887
bbl 4886
medic@@ 4886
well-@@ 4886
ministry. 4885
recognized 4884
गिरने 4884
जितनी 4884
researchers 4883
age@@ 4882
आशीष 4882
buses 4881
jap@@ 4881
st-@@ 4881
क्ष 4880
हित@@ 4880
market@@ 4879
(k@@ 4877
harmony 4877
500@@ 4876
pride 4874
--@@ 4873
निहित 4873
मजदूर 4873
ites 4871
विंडो 4871
appearing 4870
audience 4870
नू 4870
explain 4869
सुर@@ 4869
pakistan@@ 4868
warner 4868
ओवर@@ 4868
खट्टर 4868
बंग@@ 4868
hu 4867
mayor 4867
heaven 4865
पूर्ति 4865
ट्रॉफी 4864
कीय 4863
obtained 4862
districts. 4861
sheet 4861
wave 4861
prote@@ 4860
destroy 4858
परवाह 4858
color 4857
पहाड़ी 4857
security. 4856
2.0 4855
violence. 4855
बाधित 4855
शक्तिशाली 4855
hike 4854
to, 4853
you? 4853
गा? 4852
दृढ़ 4852
तान 4851
bid@@ 4850
season. 4850
सिंग@@ 4850
2014. 4849
alism 4849
que 4849
ना-@@ 4849
पूर्ण@@ 4849
बाल@@ 4849
बगैर 4848
सहज 4848
टेक्@@ 4847
पुराना 4847
पिंग 4846
निष्कर्ष 4844
-led 4843
farmers, 4843
here's 4843
prison 4843
आवश्यकताओं 4843
thereafter, 4842
congress-@@ 4841
electronics 4841
trend 4841
नियामक 4841
honor 4840
starrer 4840
unidentified 4840
2014-15 4839
उधर 4839
यें 4839
agre@@ 4838
categories 4838
order, 4838
जीडीपी 4836
सेवक 4836
8) 4835
पैन 4835
(for 4834
effects 4834
रहित 4833
consumers 4832
home, 4832
ourselves 4832
कालेज 4832
बिलियन 4832
साइंस 4832
centre. 4831
imports 4831
monday. 4831
raksha 4831
जवा@@ 4829
रेखांकित 4829
द) 4828
प्रो 4828
michael 4827
बों 4827
,000@@ 4825
31, 4825
long@@ 4824
चौथा 4824
वासी 4824
immense 4823
हसन 4823
eth@@ 4822
earthquake 4821
stress 4821
स्पेन 4821
मंत्रालयों 4820
mixed 4819
discipl@@ 4818
letters 4818
प्ले 4818
मददगार 4818
suitable 4817
ऋषि 4816
मन्@@ 4816
खुदरा 4815
डिया 4815
ंका 4814
लेती 4814
job. 4813
ocean 4813
premises 4813
where@@ 4813
डें@@ 4813
पत@@ 4813
बनाए। 4813
(और) 4812
finding 4811
pain@@ 4811
tickets 4811
अति 4811
cer@@ 4810
happened. 4810
useful 4810
consumption 4809
uttarakhand, 4809
mig@@ 4807
छू@@ 4807
स्तरों 4807
institutional 4806
हॉल 4805
jeet 4804
pin@@ 4804
view@@ 4804
य-@@ 4804
लड़ाकू 4804
समस्त 4804
coun@@ 4803
सीरिया 4803
months, 4802
campus 4801
convicted 4801
pc 4801
wards 4801
कांत 4801
मिलना 4801
solve 4800
अपमान 4800
अपराधी 4800
बांध 4800
(ये 4799
gopal 4799
गुज@@ 4799
ईमानदार 4798
activists 4797
ily 4797
डी. 4796
पहुँचा@@ 4795
सर्वे 4795
floor 4794
team, 4794
vinod 4794
lock@@ 4793
लाल@@ 4793
७@@ 4793
उपग्रह 4792
पाकर 4791
सभा@@ 4791
ऑफ़ 4790
मिस्र 4790
हॉस्पिटल 4790
april, 4789
प्री@@ 4789
dry 4788
ऐंड 4788
ities 4787
प्रभावशाली 4787
direc@@ 4786
मचा 4786
histor@@ 4785
जन्म@@ 4785
32gb 4784
are. 4784
गोपाल 4784
है-@@ 4784
we're 4783
taliban 4782
z, 4782
काओं 4782
गी. 4782
smaller 4781
stable 4780
अन्य@@ 4779
touched 4777
देगी। 4777
फोर्@@ 4775
अमृतसर 4774
विदेशों 4774
addresses 4772
lac@@ 4772
open@@ 4772
thursday. 4772
cast@@ 4771
cher@@ 4771
pawan 4771
pleasure 4771
west@@ 4771
इत्यादि 4771
factors 4769
हिंसक 4769
(स्वतंत्र 4767
achieving 4767
सेवन 4767
21, 4766
board. 4766
03 4765
officer, 4765
pac@@ 4765
अजीत 4765
दे, 4765
शिक्षा, 4765
spreading 4764
visitors 4764
aff@@ 4763
continuous 4763
hydro@@ 4763
धीरे-धीरे 4762
media, 4761
क्रांति 4761
‘यह 4761
ago. 4760
coverage 4760
कैटरीना 4760
जंगल 4760
graduate 4759
ener@@ 4757
बल्लेबाजों 4757
मील 4757
gh 4756
tical 4755
results. 4754
कियों 4754
गर्मी 4753
challenged 4752
made. 4752
vid@@ 4752
कार्यरत 4752
मंडी 4752
ens@@ 4751
स्थानांतरित 4751
dangerous 4750
चयनित 4750
fail@@ 4749
has@@ 4749
अब, 4749
asks 4748
त्वरित 4748
बानी 4748
मानवता 4746
reports, 4745
विजेताओं 4745
= 4743
counter@@ 4743
estate 4743
main@@ 4743
olympics 4743
शोषण 4743
11. 4742
infected 4742
valu@@ 4742
inaugurate 4741
indigenous 4741
tol@@ 4741
आयु@@ 4741
ध्‍यान 4741
नाटक 4741
पड़ेगा। 4741
abraham 4740
bsf 4740
बताए 4740
रेंज 4740
ami 4739
li 4739
lif@@ 4739
यक 4739
four-@@ 4738
ship, 4738
उत्साहित 4738
चक्र 4738
पोत 4738
ranked 4736
road. 4735
vice-@@ 4735
ट्री@@ 4735
delhi@@ 4734
group, 4734
dear 4733
previously 4733
करनेवाला 4733
raw 4731
बौद्ध 4730
watching 4728
attending 4727
fel@@ 4727
activities. 4726
sla@@ 4726
उपमुख्यमंत्री 4725
गे। 4725
ण्ड 4725
entering 4724
organic 4724
ol 4722
tional 4722
साथ@@ 4722
छापेमारी 4721
manner. 4720
ue 4720
सैकड़ों 4720
स्नैपड्रैगन 4720
(6@@ 4719
गुमराह 4719
gri@@ 4718
sd@@ 4718
पाकिस्‍तान 4718
मोर्@@ 4718
bio@@ 4717
ain 4716
attempts 4716
रण 4716
thir@@ 4714
venkaiah 4714
पहलों 4714
रोशन 4714
डांस 4713
रेटिंग 4713
cricket@@ 4712
harm 4712
ons, 4712
sharma. 4712
चलती 4712
oppo 4711
shan@@ 4710
लाभार्थियों 4710
लिटी 4710
opener 4709
पक 4709
हुए. 4709
bharat@@ 4708
कोर्इ 4708
सिरे 4708
turning 4707
ारो@@ 4706
07 4705
wisdom 4705
क्षकों 4705
भविष्यवाणी 4705
हिम्मत 4705
50-@@ 4702
defined 4702
g) 4702
constitution. 4701
आदर 4701
फायरिंग 4699
med 4698
समर्थकों 4698
"""the 4697
expert 4696
ign@@ 4696
adam 4694
ep 4694
function. 4694
पुरा 4694
functions 4693
आकर्षक 4692
मी, 4691
संवर्धन 4691
communications 4690
drama 4690
माइकल 4690
चढ़ा@@ 4688
चावल 4688
हरे 4688
kaif 4687
सचमुच 4687
jaipur 4685
test. 4685
यूनाइटेड 4685
ambedkar 4684
मच 4684
communal 4683
कार्यशाला 4682
ot 4681
service. 4681
समुचित 4681
motors 4680
सिंधु 4680
सज़ा 4679
volume 4678
नदियों 4678
मानवाधिकार 4678
representative 4677
प्रतिशत) 4677
a.@@ 4676
padma 4676
शर्@@ 4676
interaction 4675
that? 4675
दिवंगत 4675
द-@@ 4674
अध्‍यक्ष 4673
केंद्र@@ 4673
कैसी 4673
क्यो@@ 4673
देनी 4672
approves 4671
ation: 4671
ids 4671
सीधी 4671
list. 4670
गल 4670
bihari 4669
j, 4669
wid@@ 4669
peace, 4668
featured 4666
nirav 4666
ऊंची 4666
पीसी 4666
लेखन 4663
सरकार@@ 4663
धारक 4662
व्‍यापार 4662
सईद 4661
आख़िरत 4660
ट्रम्प 4660
interior 4658
तस्वीरों 4657
नागपुर 4657
anurag 4656
crowd 4656
ram. 4656
bis@@ 4655
this@@ 4654
गर@@ 4654
गुण@@ 4654
लगे। 4653
dum@@ 4652
yas@@ 4652
technology. 4651
एका@@ 4651
लेखा@@ 4651
टाइगर 4650
increase. 4649
ips 4649
truth, 4649
differences 4648
दिवाली 4648
ken@@ 4647
डीआर@@ 4647
।""" 4647
-1 4646
20. 4646
कक्ष 4646
पंडित 4646
environment, 4645
brics 4644
ist, 4644
taken. 4644
ने-@@ 4644
control. 4643
ics, 4643
nagar, 4643
commit 4642
attached 4641
पीएस@@ 4641
offence 4640
कर्म@@ 4640
लिखकर 4640
25, 4638
links 4638
visible 4638
sir 4637
zero 4636
पढ़ें: 4636
चोटें 4635
फ़ा@@ 4635
मोर्चा 4635
जाएंगी। 4634
त्योहार 4634
bond 4633
enhancing 4633
विधिक 4633
occup@@ 4632
मधु@@ 4632
aadmi 4631
seventh 4631
फील्ड 4631
फुटेज 4631
hem@@ 4630
broken 4628
conveyed 4628
45@@ 4627
belief 4627
security, 4627
six@@ 4627
गुज़@@ 4627
हमलावर 4627
ils 4626
शनल 4626
छे@@ 4625
down, 4624
pit@@ 4624
end, 4623
minister@@ 4623
जाए. 4623
द्वि@@ 4623
energy, 4622
games. 4622
person, 4622
डरते 4622
रिश्तों 4622
स्वीकृत 4622
कमा@@ 4621
fit@@ 4620
ee 4619
iii 4619
पाया। 4618
fro@@ 4617
replaced 4616
justice. 4615
stability 4615
क्लो@@ 4615
anta 4614
450 4613
घू@@ 4613
blo@@ 4612
dia 4611
आन्ध्रप्रदेश 4611
ऑफिसर 4611
tournament. 4610
मृ@@ 4610
"a 4609
७ 4609
impl@@ 4608
इसीलिए 4608
5g 4607
iv@@ 4607
प्रबंधक 4607
हूं@@ 4607
domin@@ 4606
myself 4606
मला@@ 4606
supporters 4605
सबका 4605
अजित 4604
प्रतिभागियों 4604
प्रिय 4604
मेक 4604
ford 4601
ृ@@ 4601
context 4600
कोटा 4600
खों 4599
(टी@@ 4598
\\xa0 4598
ize 4598
wala 4597
ber 4596
how@@ 4596
back, 4595
pm. 4595
x, 4595
धनराशि 4595
सुदृढ़ 4595
इस्तीफे 4594
राणा 4594
sushil 4593
इंडियंस 4593
नामित 4593
mix 4592
मलेशिया 4592
society, 4591
गहराई 4591
त्वचा 4591
मंदिरों 4591
show. 4590
ऑन 4590
क्त 4590
chhattisgarh, 4589
khal@@ 4589
tiwari 4589
तारी@@ 4589
conference. 4588
किरण 4588
बजाज 4588
gift 4586
भीषण 4586
ow@@ 4585
आएगा। 4585
bomb 4584
obey 4584
नमूनों 4582
इनसे 4580
ख्@@ 4580
ड़ियों 4580
साहस 4580
mw 4578
बीएचपी 4577
an's 4576
अप्र@@ 4576
आद@@ 4576
preparing 4575
pti. 4575
varanasi 4575
आदि@@ 4575
एसयूवी 4575
तला@@ 4575
फूड 4575
वाकई 4575
humans 4574
mankind 4574
गुप्त 4574
likes 4573
was, 4573
धर@@ 4573
vin@@ 4572
रहे, 4572
excellence 4571
superstar 4570
महोदय 4570
शौ@@ 4570
ism. 4569
आरोपित 4568
तैयारियों 4568
reform 4567
महंगाई 4567
साय@@ 4567
ung 4566
इसपर 4566
पकड़ने 4566
मुंबई, 4566
constable 4565
otherwise 4565
recognition 4565
उठाना 4565
घोष 4565
लो, 4565
एम्स 4564
"he 4562
bigger 4562
diplomatic 4562
negoti@@ 4562
quickly 4562
believers, 4561
cad@@ 4561
ary@@ 4560
norms 4560
2017. 4559
ps. 4559
नगर, 4559
लोगो 4557
गढ़@@ 4556
चना 4556
ब्लू 4556
यी@@ 4555
तिक 4554
मास्टर 4554
संस्कार 4554
अभाव 4552
शक़ 4552
हेक्टेयर 4552
एनडी@@ 4551
knowing 4550
kr@@ 4550
traders 4550
धारण 4550
absence 4549
taste 4549
कारा@@ 4549
गें 4549
jehovah, 4548
रेस 4547
रखें। 4546
रूट 4546
agriculture, 4545
journalists 4545
winner 4545
एडी@@ 4545
बकाया 4545
glad 4544
thing@@ 4544
राजद 4544
shraddha 4543
८@@ 4543
gross 4542
चैंपियन 4542
निष्@@ 4540
पाँच 4540
स्पीकर 4540
odisha, 4539
होंगी 4539
140 4538
कलीसिया 4538
direction. 4537
sentenced 4537
cameras 4536
muk@@ 4536
them: 4536
उर्फ 4535
गेहूं 4535
कड़ा 4534
nr@@ 4533
representing 4533
एंटी@@ 4533
मोटर्स 4533
be. 4532
spending 4532
लक्ष्यों 4532
ft@@ 4531
les, 4531
pray@@ 4531
releases 4531
retirement 4530
increases 4529
painful 4529
दक्षता 4529
निर्देशों 4529
माध्यमिक 4529
captured 4528
जापानी 4527
सन्‌ 4527
chandigarh, 4526
channels 4526
reservoirs 4526
them? 4526
कंप@@ 4526
्स 4526
75@@ 4525
प्रतीक्षा 4525
सकेगा 4525
chaudhary 4524
house@@ 4524
ii@@ 4524
priv@@ 4523
smo@@ 4523
बाई 4523
ari, 4521
saturday. 4521
stu@@ 4521
awar@@ 4520
hong 4520
savings 4520
import@@ 4519
phone. 4519
cri@@ 4518
fraud 4518
neighbouring 4518
post. 4518
आईपीसी 4518
abad, 4517
vac@@ 4517
ambani 4516
cla@@ 4515
1% 4514
ऊ 4514
bill@@ 4513
maybe 4513
मुक्ति 4513
personnel, 4512
भगत 4512
attitude 4511
एमसी@@ 4511
मूल@@ 4511
pat 4510
ps, 4510
दृ@@ 4509
encouraged 4508
medicines 4508
there's 4508
vish@@ 4508
आरपी@@ 4507
सौंपी 4507
tuesday. 4506
करोड़ों 4506
hair 4505
sheikh 4505
कम्@@ 4504
जोश 4504
13. 4503
bought 4503
i's 4503
pass@@ 4503
preet 4503
aiims 4502
sunny 4502
ular 4502
करी@@ 4501
बताती 4501
'हम 4500
mam@@ 4500
tea 4500
bills 4499
jurisdiction 4499
management, 4499
गुजरात, 4499
स' 4499
अपहरण 4498
रखो 4498
beauty 4497
treat 4497
वादे 4497
involvement 4496
unit@@ 4495
announce 4494
period, 4494
रवि@@ 4494
ff 4493
ks. 4493
देवगन 4493
नूह 4493
नाज़िल 4492
camp@@ 4490
भूटान 4490
सहयोगियों 4490
pratap 4489
केएल 4489
चुन@@ 4489
lord! 4488
तकों 4488
though, 4487
आएगी। 4487
(o 4486
पारदर्शिता 4486
promises 4485
shak@@ 4485
conven@@ 4484
eted 4484
wrote: 4484
ख़िलाफ़ 4484
पेरिस 4484
बुकिंग 4484
mind. 4483
road, 4483
इरादा 4483
त्तर 4482
हुड्डा 4481
engagement 4480
लक्ष्मी 4480
सिफारिशों 4480
पासवान 4479
विचारधारा 4479
places. 4478
अधिकरण 4478
advisor 4476
ank@@ 4476
माध्‍यम 4475
सावधान 4475
achievements 4474
ama 4474
do, 4474
summ@@ 4474
अपेक्षित 4474
गू@@ 4474
भंडार 4474
entitled 4473
june, 4473
sanskrit 4473
इराक 4473
महिला@@ 4473
जीती 4471
दिनांक 4471
backward 4470
cinema 4470
themselves. 4470
नारेबाजी 4470
bowlers 4469
wished 4469
सुपरस्टार 4469
grateful 4468
वोटिंग 4468
mill@@ 4467
बी. 4467
suit 4466
wonderful 4466
अपर 4466
इंड@@ 4466
कर्तव्य 4466
जिनको 4466
अवसंरचना 4465
department. 4464
पड़ती 4464
format 4463
ge. 4463
120@@ 4461
ora 4461
step@@ 4461
स्ट्र@@ 4461
gains 4460
statement, 4460
success@@ 4460
भावी 4460
2% 4459
अफ्रीकी 4459
नवंबर, 4459
पोस्ट@@ 4458
मार्शल 4458
रजिस्ट्रेशन 4458
fal@@ 4457
ization 4457
joe 4457
represent 4457
pandemic. 4456
pha@@ 4455
वायु@@ 4455
संवेदना 4455
08 4454
tically 4454
bajaj 4452
gha@@ 4452
ism, 4452
controversial 4450
hyundai 4450
rishi 4450
yog@@ 4450
भूत 4449
ses@@ 4448
अरोड़ा 4448
नाज़िल 4448
प्पा 4448
फ्रे@@ 4448
beneficial 4447
things, 4447
ेगा। 4446
duties 4445
holder 4445
innov@@ 4445
september, 4445
दोस्ती 4445
output 4444
portion 4444
ट्रेड 4444
बाबू 4443
haryana. 4442
lt 4442
summer 4442
images 4441
says: 4441
दलील 4441
qur@@ 4440
sites 4440
पंजाबी 4440
demise 4439
pho@@ 4439
resolved 4439
रहें। 4439
rer 4438
गतिविधियां 4438
चार्जिंग 4438
टॉम 4438
पसंदीदा 4438
assist 4437
kolkata, 4437
night, 4437
valid 4437
मेजबानी 4437
समझना 4437
praised 4436
() 4435
1,8@@ 4435
लाहौर 4435
हंगामा 4435
batsmen 4434
journal 4434
20.@@ 4433
सीएए 4433
afghan 4432
imag@@ 4432
qualified 4432
thereafter 4432
ved, 4432
एन. 4432
भू-@@ 4432
’, 4432
कॉलेजों 4431
नंद 4431
ages. 4430
buildings 4430
अर 4429
इक्विटी 4429
फार्म 4429
makers 4428
saving 4428
deser@@ 4427
messengers 4426
significantly 4426
आईए@@ 4426
नमाज़ 4424
शरण 4424
डोर 4423
प्रत्य@@ 4423
मरे 4421
6,000 4420
exactly 4419
rav@@ 4419
महोत्सव 4419
हुईं 4419
नजदीक 4418
रिलीज़ 4418
त्ता 4417
closer 4416
king, 4416
देखो 4416
displayed 4415
shakti 4415
tensions 4415
शक्‍ति 4415
सेना@@ 4415
24, 4414
locals 4413
लोड 4413
provision@@ 4412
मेजर 4412
संभावनाओं 4411
९ 4411
nu@@ 4410
हुई@@ 4410
जवाहरलाल 4409
पाटिल 4409
लास 4409
सुधार@@ 4409
reaches 4408
जैविक 4406
टिक्स 4406
तै@@ 4406
नियो@@ 4406
consists 4405
gandhi@@ 4405
सीमा@@ 4405
amar@@ 4404
kim 4404
mine 4404
wrong. 4404
committee, 4403
dav@@ 4403
kind@@ 4402
lowest 4402
हालिया 4402
ately 4401
subsequently, 4401
success. 4401
नाते 4401
क्रिया@@ 4400
news. 4399
इस्लामी 4399
न्द 4399
क्षि@@ 4398
क्‍या 4398
19, 4397
arora 4397
उत्पादक 4397
जाएगा@@ 4397
16, 4396
segment 4395
संतुष्ट 4394
avi@@ 4393
rajendra 4393
िंग 4393
prince 4390
जला@@ 4390
जाएँ@@ 4390
investigate 4389
अपनाया 4389
question@@ 4388
अभिव्यक्ति 4388
रिमांड 4387
ver. 4385
shift 4384
लगाया। 4384
expressing 4383
gad@@ 4383
herself 4383
weak 4383
तरण 4383
reiterated 4382
किले 4382
जोरदार 4382
cris@@ 4381
replace 4381
:% 4380
जडेजा 4380
माल्या 4380
alization 4379
korean 4378
पांचवें 4378
fun@@ 4377
संज्ञान 4377
emotional 4376
उपलब्धियों 4376
ट्रैफिक 4373
द्रा 4373
मात 4373
सिखा@@ 4373
खरीद@@ 4370
गहन 4370
broadcasting 4369
u.s. 4368
धीरे 4368
withdraw 4367
ब्यू@@ 4367
dark 4366
ashwin 4365
primarily 4365
ईसाई 4365
len@@ 4364
talent 4364
tive. 4360
कथा 4360
शान 4360
watch@@ 4359
मिजोरम 4359
kun@@ 4358
mayawati 4357
shetty 4357
आधार@@ 4357
सुख@@ 4357
महबूबा 4356
mega 4355
जीने 4355
assigned 4354
क्‍स 4354
लव 4354
airlines 4353
contained 4353
दबा@@ 4353
यूजर 4353
पड़ताल 4352
व्यापारिक 4352
यो 4351
15,000 4349
preliminary 4349
anti 4347
crew 4347
office, 4347
chit@@ 4346
किस्म 4346
2017@@ 4345
harassment 4345
निवासियों 4344
शह@@ 4344
cop@@ 4343
lands 4343
एलि@@ 4343
गुलाम 4343
नग@@ 4343
प्रतिकूल 4342
रु 4342
ay. 4340
cp@@ 4340
hou@@ 4340
अप्रैल-@@ 4340
चौके 4340
'मैं 4339
gol@@ 4339
correct 4338
transportation 4338
critic@@ 4337
mere 4337
mol@@ 4337
तैयारियां 4337
basket 4336
जितने 4336
मौलिक 4336
रोधी 4336
customer 4335
sight 4335
एगी 4335
18, 4334
es," 4334
ज़िम्मेदारी 4334
congratulate 4333
नुसार 4333
enjoyed 4332
legislature 4332
अधिकृत 4332
board, 4331
road@@ 4331
नेक 4331
shipping 4330
खींच@@ 4330
appro@@ 4329
generated 4329
complain@@ 4328
rrb 4328
कश्मीरी 4328
चलन 4328
ists, 4327
कने 4327
instance, 4326
ises 4326
tis 4326
तैनाती 4326
निकायों 4326
सकती। 4326
eu 4325
टिस 4325
हेड@@ 4325
declaration 4324
24.@@ 4323
नाराज 4323
ay, 4322
cells 4322
subsidy 4322
happen. 4321
साइड 4321
anyone. 4320
contrac@@ 4320
stones 4320
capit@@ 4319
wind@@ 4319
पॉवर 4319
ारे 4319
ek 4318
j. 4318
religion. 4318
मुलायम 4318
वासियों 4318
ज़ा 4318
flying 4317
मानसून 4317
(u@@ 4315
2015, 4315
eminent 4314
possession 4313
चार्@@ 4312
islands 4311
raped 4311
आक्रमण 4311
कड़@@ 4311
हल@@ 4311
15th 4310
badal 4310
screen@@ 4310
ंदर 4310
सावधानी 4310
ok 4309
parties. 4309
rend@@ 4308
विनिमय 4308
di 4307
ms, 4307
suff@@ 4307
प-@@ 4307
zo@@ 4306
चिकित्सकों 4306
gov@@ 4305
persons, 4305
wash 4305
i: 4304
secretariat 4304
एलईडी 4304
खिलाड़ी 4304
noida 4302
wherever 4302
आजीविका 4302
firms 4301
members, 4301
भाषा@@ 4301
विनय 4301
कारक 4300
रहा, 4300
सैमसंग 4300
design@@ 4299
संभावनाएं 4299
मिली@@ 4298
सपने 4298
जीव@@ 4297
function@@ 4296
खेली 4296
ishing 4295
older 4294
दुकान 4294
broad 4292
बान 4292
alisation 4291
k.@@ 4291
कोर्@@ 4290
बिहार, 4290
contributions 4289
क्‍त 4289
africa, 4288
जसप्रीत 4287
सतीश 4287
16. 4286
एन्@@ 4286
बुमराह 4286
industri@@ 4284
general, 4283
nokia 4283
द्व@@ 4283
पाठ@@ 4283
akhtar 4282
glory 4282
smriti 4282
sub 4282
दुखी 4282
स्रोतों 4282
assault 4281
इंडिया@@ 4281
guarantee 4280
lap@@ 4280
गणेश 4280
shel@@ 4279
bangladesh, 4278
खन्ना 4278
समस्याएं 4278
and. 4277
namely 4277
update 4277
ऑर्@@ 4277
cel@@ 4276
महासागर 4276
मतों 4275
feed 4274
rating 4274
temple, 4274
tho@@ 4274
एटी@@ 4273
दुआ 4273
वि‍@@ 4273
nab@@ 4272
धारा@@ 4272
board@@ 4271
गाना 4271
(भाषा) 4269
effectively 4269
पहा@@ 4269
मद्रास 4269
शील 4269
३ 4269
,000. 4268
irani 4268
एयरटेल 4268
कर्नाटक, 4268
pretty 4265
vol@@ 4265
काल@@ 4265
ग्री@@ 4265
intended 4264
"our 4263
बढ़ाना 4263
alis@@ 4262
everybody 4262
hai 4262
टाइप 4262
keen 4261
offences 4261
sanc@@ 4261
declare 4260
तत्@@ 4260
नहीं) 4260
बारा@@ 4260
इजरायल 4259
स्ता 4259
bal 4258
lik@@ 4258
लिक 4258
dic@@ 4257
metal 4257
won't 4257
धम@@ 4257
शक्तियों 4257
permitted 4256
5) 4255
प्याज 4255
विज्ञप्ति 4255
proposals 4254
आनन्द 4254
गहरे 4254
निशानी 4254
सोचते 4254
पर्रिकर 4253
counsel@@ 4252
emphasis 4251
said@@ 4251
manage 4250
peopl@@ 4250
वाद@@ 4250
sonakshi 4249
अंदाज 4249
दिव@@ 4249
ac 4248
achievement 4248
couldnt 4247
date. 4247
वु@@ 4247
jn@@ 4246
shape 4246
शिया 4246
जावड़ेकर 4245
लॉ 4245
सड़क 4245
conversation 4244
kol@@ 4244
trouble 4243
गोगोई 4243
religi@@ 4242
resources, 4242
wood 4242
americ@@ 4241
ayush 4240
minus 4240
voted 4240
स्‍ट 4240
chennai, 4239
shi 4239
नीतिगत 4239
ceremony. 4238
yan 4238
त्रों 4238
संधि 4238
dam 4237
amaz@@ 4236
बनता 4236
inaugural 4233
travel@@ 4233
छक्के 4233
जुड़@@ 4233
750 4232
सम्‍@@ 4231
wrote, 4230
31st 4229
associ@@ 4228
claiming 4228
जीन 4228
-2 4227
अनुग्रह 4227
अफ@@ 4227
चरित्र 4227
स्वाभाविक 4226
108 4224
amended 4224
withdrawal 4224
फर्म 4224
attack, 4223
शाह, 4223
cyber 4222
treat@@ 4222
सोनाक्षी 4222
accidents 4221
ऑयल 4221
निर्वाचित 4221
प्रसारित 4221
-17 4219
arri@@ 4219
suggest 4219
बाँ@@ 4219
1,6@@ 4218
tal 4218
tripura 4218
आएंगी। 4218
त्व@@ 4218
फोर्ड 4218
ges 4217
शास्त्री 4217
led@@ 4216
दोनो 4216
55@@ 4215
existence 4215
losses 4215
आई. 4215
microsd 4214
resulting 4214
आरक्षित 4214
इलेवन 4214
another. 4213
book, 4213
ऑप्शन 4213
shukla 4212
you're 4212
बेंच 4212
22, 4211
monitor 4211
तौबा 4211
बढ़िया 4211
australia. 4210
लिस 4210
champion 4209
hindi, 4209
story. 4209
४ 4209
independ@@ 4207
sees 4207
झो@@ 4207
elder 4206
led, 4206
महामहिम 4206
fastest 4205
rock@@ 4205
एगी। 4205
प्रकरण 4205
कच्‍चे 4204
काला 4204
रों, 4204
जन्@@ 4203
ण) 4203
burning 4202
hospit@@ 4202
3.5 4201
duo 4201
kisan 4201
छोड़ 4201
ड़ने 4201
(ह@@ 4200
signing 4200
yes 4200
फिटनेस 4200
विरूद्ध 4200
सेस 4200
northeast 4199
october, 4199
basis. 4198
wednesday. 4198
अध्‍यक्षता 4198
उधर, 4198
एकदम 4198
फ्रा@@ 4198
मित 4198
adv@@ 4197
belie@@ 4197
eds 4197
मस्तिष्क 4197
inqu@@ 4196
tenure 4196
jasprit 4195
narayan 4195
ठिकाना 4194
province 4193
सीबीएसई 4193
launching 4191
मेघालय 4191
thing, 4190
प्रयुक्त 4190
conver@@ 4189
aside 4188
conspiracy 4188
ms@@ 4188
दह@@ 4188
बो 4188
ator@@ 4187
fruit 4187
market, 4187
policy, 4187
ईस्ट 4187
लड़@@ 4187
शिकायतों 4187
kashmiri 4185
25,000 4184
designated 4184
fitness 4184
1,7@@ 4183
glass 4183
jharkhand, 4183
mission, 4183
ordin@@ 4183
committee. 4182
rail@@ 4182
sem@@ 4182
fire, 4181
ईमेल 4180
mosque 4179
र्र@@ 4179
exp@@ 4178
allocated 4177
bse 4177
gi 4177
दें, 4177
eless 4175
yam@@ 4175
अक्टूबर, 4175
achiev@@ 4174
ली-@@ 4174
ते. 4173
संत 4173
ati, 4172
piece 4172
मंदी 4172
लीक 4172
bhopal 4171
pt 4171
vad@@ 4171
अपने-अपने 4171
removal 4170
नतीजों 4169
30,000 4168
community. 4168
john@@ 4168
बारी 4168
सलाम 4168
104 4167
जानकर 4167
imprisonment 4166
pure 4166
अध@@ 4166
आया@@ 4166
कबीर 4165
civilian 4164
ence@@ 4164
ट्रां@@ 4163
फोकस 4163
डिवाइस 4162
10-@@ 4161
संध्या 4161
alias 4160
promis@@ 4160
अमेरिका, 4160
पकड़े 4160
श्रेय 4160
साफ़ 4160
lot. 4159
patil 4159
ship. 4159
जन, 4159
त्याग 4159
दाता 4159
सना 4159
सन् 4159
father. 4158
rum@@ 4158
unveiled 4158
श्वर 4158
आधारशिला 4155
%, 4154
ila 4154
khans 4154
इबादत 4153
मुहम्मद 4153
grievances 4152
पढ़ा@@ 4152
acquired 4151
(एजेंसी) 4150
workshop 4149
्‍य@@ 4149
sleep 4148
worthy 4148
क्रियान्वयन 4148
सूचीबद्ध 4148
introduction 4147
soci@@ 4147
destination 4146
hopes 4146
ture, 4146
observe 4145
विशेष@@ 4145
3gb 4144
bihar@@ 4144
internation@@ 4144
fear@@ 4143
activ@@ 4142
(क) 4141
judg@@ 4141
ses, 4141
कारगर 4141
p-@@ 4140
reasonable 4140
इल 4140
मिले@@ 4139
सत्तारूढ़ 4138
kabir 4137
अकसर 4137
करेंगी। 4137
भंग 4137
integrity 4136
slo@@ 4136
अमीर 4136
न्यायपालिका 4136
पिछ@@ 4136
दृष्टि@@ 4135
earlier. 4134
क्रम@@ 4134
युवराज 4133
purpose. 4132
कोर्स 4132
ड़ी@@ 4131
सीपी@@ 4131
business@@ 4130
fan 4130
क्वा@@ 4130
रखा। 4130
engine@@ 4129
moto 4128
operate 4128
questioning 4128
संभालने 4128
ahmad 4127
eff@@ 4127
प्रभा@@ 4127
emphasized 4126
अनाज 4126
क्री@@ 4126
aishwarya 4125
ax@@ 4125
ड्यूटी 4125
हल्की 4125
ements. 4124
forecast 4124
ght. 4124
आदिवासी 4124
गोल@@ 4124
grounds 4123
supplies 4123
use. 4123
हिंदुओं 4123
folk 4121
report@@ 4121
नेवाली 4121
मुफ्ती 4121
(19@@ 4120
loo@@ 4120
advani 4119
mission@@ 4119
डालते 4119
audio 4118
इंतजाम 4118
स्थितियों 4118
हेल्थ 4118
ality. 4116
call@@ 4116
exact 4116
तता 4115
मिश्रण 4114
हटा@@ 4114
क्लि@@ 4113
तह@@ 4113
pleased 4112
gap 4111
टकर 4111
फे 4111
हान 4111
1/@@ 4110
pertaining 4110
rules, 4110
अमर 4110
रविशंकर 4110
वोटों 4110
1996 4109
एआई 4109
lady 4108
rana 4108
liquor 4107
responding 4107
teach@@ 4107
ums 4107
करना@@ 4107
पतरस 4107
रखकर 4107
exist@@ 4106
आईडी 4106
कराया। 4105
जी) 4105
पुरूष 4105
शंस 4105
key@@ 4104
conc@@ 4103
ds. 4103
grants 4103
lal@@ 4102
residential 4102
bay 4101
oun@@ 4100
president's 4100
top@@ 4100
पॉलि@@ 4100
छोड़ा 4099
पासपोर्ट 4099
ira 4098
stranded 4098
आंशिक 4098
हाई@@ 4098
fly 4097
pilgrims 4097
ves@@ 4097
डिफेंस 4097
राजनयिक 4097
लित 4097
7: 4096
चैम्पियनशिप 4096
मुआवजा 4096
संघीय 4096
22.@@ 4095
odi@@ 4095
इनाम 4095
त्रा 4095
-वि@@ 4093
corpor@@ 4093
preparation 4093
categor@@ 4092
ni 4091
salary 4091
घाटा 4091
बोस 4091
६ 4091
wara 4090
त्रुटि 4090
स्पोर्ट्स 4090
हराम 4090
ge, 4089
migrant 4089
sir@@ 4089
थोड़े 4089
.the 4088
rio 4087
निर्दलीय 4087
servic@@ 4086
मिलेंगे। 4086
९@@ 4086
arab@@ 4085
chemicals 4085
queen 4085
गां@@ 4085
17, 4084
23.@@ 4084
मेट 4084
contested 4083
ers' 4083
know, 4083
pak@@ 4083
represents 4083
votes. 4083
december, 4082
examine 4082
challengers 4081
sharp 4081
anything. 4080
canada 4080
hate 4080
hyderabad, 4080
organiz@@ 4080
people's 4079
धातु 4079
gold, 4078
jews 4077
ma. 4077
stal@@ 4077
अनुचित 4077
hen@@ 4076
king. 4076
hindustan 4075
introduce 4075
औरतों 4075
dalit 4073
nadda 4073
sts. 4073
क्षे@@ 4073
पीड़ितों 4073
सकता. 4073
fle@@ 4072
towns 4072
रेन 4072
स्पष्टीकरण 4072
कुरैशी 4071
रहा. 4071
decades 4070
i.e. 4070
stream 4070
बृहस्पतिवार 4070
ground. 4069
brid@@ 4068
ith 4068
iy@@ 4068
lic@@ 4068
her, 4067
पढ़ 4067
नफरत 4066
मुख्‍यमंत्री 4066
fix@@ 4065
points. 4065
गी। 4064
शरी@@ 4063
rit@@ 4062
दिल@@ 4062
बिक 4062
गर्भवती 4061
ेंग@@ 4061
cru@@ 4060
extensive 4060
डालकर 4060
ब्रिक्स 4060
afraid 4059
in-charge 4059
निभाते 4059
मालदीव 4059
innings. 4056
vand@@ 4055
differen@@ 4054
hell 4054
model@@ 4054
आगरा 4054
ज्ञ@@ 4054
650 4053
july, 4053
situation, 4053
इयों 4053
यरूशलेम 4053
विकासशील 4053
du 4052
fish 4052
tou@@ 4052
लक्ष्‍य 4052
विभाग, 4052
23, 4051
agreements 4051
apur 4051
kills 4051
समी@@ 4051
lawyers 4050
टेशन 4050
profession@@ 4049
256gb 4048
courage 4048
mail 4046
केन्द्रों 4046
बह 4045
17. 4043
committees 4043
ः@@ 4043
कमीशन 4043
बैठकों 4043
सिवाय 4043
crime. 4042
november, 4042
karnataka. 4041
stocks 4041
identification 4040
अतीत 4040
वेल 4040
different. 4039
strikes 4039
आईपी 4038
तथ्यों 4038
बाज़ 4038
rak@@ 4036
आयतें 4036
bomb@@ 4035
क्रमशः 4035
निष्पक्ष 4035
aus@@ 4034
ंच 4034
नाश 4034
engage 4033
com 4032
kak@@ 4032
इंस्पेक्टर 4032
रेशन 4032
disbelieve 4031
आवाजाही 4031
तकरीबन 4031
वित्‍तीय 4031
ौर 4031
airports 4030
april-@@ 4030
hd+ 4029
ब्रेक 4029
इन्कार 4028
श्रेणियों 4028
four@@ 4027
jawans 4027
month@@ 4027
ssc 4027
इरफान 4027
विक्रम 4027
eating 4025
jd(u) 4025
employee 4024
estimates 4024
floods 4024
journal@@ 4024
sourav 4024
चर्@@ 4024
disease. 4022
spac@@ 4022
आव@@ 4022
शुक्ला 4022
coaches 4021
1,4@@ 4020
statistics 4020
नीत 4020
शख़्श 4020
accused, 4019
studying 4019
अधिकार@@ 4019
खनिज 4019
ied 4018
preaching 4018
अवधारणा 4018
—@@ 4018
ela 4017
ams 4015
ion 4015
rul@@ 4015
सर्वर 4015
faculty 4014
ences 4013
l) 4013
pc@@ 4013
खपत 4013
account@@ 4012
निर्माण, 4012
बने। 4012
सेल्@@ 4012
imp@@ 4011
नींद 4011
ise. 4010
जीएस@@ 4010
विद्या 4010
(जो 4009
400@@ 4009
anim@@ 4008
कामयाबी 4008
locked 4007
dro@@ 4006
ga 4006
यि@@ 4006
ी-@@ 4006
मज़@@ 4004
chose 4003
मेले 4003
cleared 4002
diverse 4002
तो) 4002
गार@@ 4001
विद्यालयों 4001
neet 4000
paise 4000
आम@@ 4000
democracy. 3999
कारण, 3999
actively 3998
count 3998
legislation 3998
उपायुक्त 3998
culture, 3996
h) 3996
securities 3996
usa 3996
native 3995
पुत्रा 3995
exc@@ 3994
leaders. 3994
long-term 3994
अक्ष@@ 3994
एंड्रॉयड 3994
आलोक 3993
understand@@ 3992
बोर्@@ 3992
दोष@@ 3991
two. 3990
जं@@ 3990
matches. 3989
जूझ 3989
सीई@@ 3989
gehlot 3987
regulations 3987
श्रमिक 3986
commonwealth 3985
newspaper 3985
ry@@ 3985
stronger 3985
उद्देश्यों 3985
khan@@ 3984
अकाली 3984
उपक्रम 3984
47@@ 3983
object 3982
ंप@@ 3982
आंखों 3982
सकेंगे 3982
households 3981
डब्ल्यू 3981
officials. 3980
ail@@ 3979
vers 3979
जयशंकर 3979
ening 3977
चीज़ों 3977
पेन 3976
लेनदेन 3976
jadeja 3974
practical 3974
khattar 3973
पंत 3973
grade 3972
group. 3972
kill@@ 3972
दय 3972
रेल@@ 3972
21st 3971
indicated 3971
wad@@ 3971
वाणी 3971
shortage 3970
अध्या@@ 3970
शर@@ 3970
asserted 3969
mehbooba 3969
डिस्@@ 3969
वाशिंगटन 3969
op 3968
deemed 3967
स्ट्रीट 3967
august, 3966
क्षमताओं 3966
बाला@@ 3966
ities, 3965
pick 3965
technological 3965
आकर्षण 3965
13, 3964
containing 3964
lpg 3962
param@@ 3962
कमिश्नर 3962
farming 3961
religion, 3961
transparency 3961
adopt 3960
etc.@@ 3960
shu@@ 3960
sup@@ 3960
27.@@ 3959
businesses 3959
correc@@ 3959
dep@@ 3959
ओं@@ 3959
वस्तु@@ 3958
fashion 3957
आखिरकार 3957
उदार 3957
its, 3956
कद@@ 3956
गणमान्य 3956
धैर्य 3956
वाने 3956
mother, 3955
right@@ 3955
ass 3954
post-mortem. 3954
प्रतिशत), 3954
(ख) 3953
कार्यालयों 3953
खरी@@ 3953
प्रीत 3952
सौदा 3951
movies 3950
sidharth 3950
दिक्कत 3950
citing 3949
mens 3949
वसूली 3949
विजन 3949
announces 3948
george 3948
परिदृश्य 3948
aria 3947
ky 3947
les. 3947
अनुभवी 3947
जताते 3947
प्रशंसकों 3947
ans. 3946
precious 3946
स्थ 3946
membership 3945
ट्रॉ@@ 3944
]@@ 3943
आज@@ 3943
फोरम 3943
विध@@ 3943
dera 3942
issue, 3942
experiences 3941
purchased 3941
started. 3941
stating 3941
will, 3941
आपात 3941
बुद्ध 3941
भूमिकाओं 3941
deals 3940
ect 3939
which, 3939
आश्वस्त 3939
खर@@ 3939
पीवी 3939
2018@@ 3938
bollywood. 3938
largely 3938
मार्गों 3938
लगी। 3938
shiva 3937
test, 3937
trinamool 3937
गए@@ 3937
द्य@@ 3936
excise 3934
hrd 3934
navjot 3934
संरक्षक 3934
fat@@ 3933
head, 3933
केल 3933
धिक 3933
bowl 3932
vil@@ 3932
तीव्र 3932
मुम्बई 3932
लिए) 3932
-19 3931
डिस्क 3931
मिर्@@ 3931
समकक्ष 3931
tex@@ 3930
des 3929
foot 3929
भागने 3929
लॉग 3929
समाप्ति 3929
निवारण 3928
यूहन्‍ना 3928
iled 3927
officials, 3927
words, 3927
प्रयोजन 3927
सेज 3926
2013-14 3925
पीएस 3925
aaron 3924
e! 3924
टन, 3924
acres 3923
cotton 3923
प्रकोप 3923
मीट्रिक 3923
(200@@ 3922
परिजन 3922
30-@@ 3921
`@@ 3921
nations. 3921
क्षा 3920
बें@@ 3920
email 3919
pping 3919
science, 3919
studied 3919
refers 3918
एनआईए 3918
ball@@ 3917
habit@@ 3917
सर्वोत्तम 3917
arabia 3916
hin@@ 3916
protected 3916
urge 3914
अवार्ड 3914
1984 3913
symptoms 3913
understood 3913
bak@@ 3912
sul@@ 3912
मान्य 3912
20th 3911
project, 3911
tennis 3911
बसों 3911
हिस्@@ 3911
ke. 3910
जाएगी, 3910
वली 3910
सिम 3910
cham@@ 3909
enemy 3909
january, 3909
odis 3909
whosoever 3909
क्वार्टर 3909
ala, 3908
help. 3908
mut@@ 3908
cup. 3907
oce@@ 3907
उपज 3907
edge 3906
inform 3906
दिग्विजय 3906
पाना 3906
रे, 3906
समर्पण 3906
escape 3905
ici@@ 3905
labourers 3905
level, 3905
sush@@ 3905
जनजाति 3905
बदौलत 3905
विंदर 3905
इंजीनियर 3904
collective 3903
fees 3903
overcome 3903
tremendous 3903
थल 3903
यक़ीनन 3902
birds 3901
psalm 3901
punishment. 3901
rat 3901
पीसी@@ 3901
हारी 3901
ref@@ 3900
telling 3900
किट 3900
जहा@@ 3900
(v@@ 3899
composed 3899
इस्@@ 3899
क्या? 3899
factor 3898
छी@@ 3898
occur 3897
रहेगी 3897
griev@@ 3896
marry 3896
significance 3895
starring 3895
jason 3894
comment@@ 3893
trip 3893
सका। 3893
points, 3892
ush 3892
israel, 3891
methods 3891
ny 3891
आरम्भ 3891
दिलाया 3891
ble, 3890
आएगा 3890
गे, 3890
फ्री@@ 3890
ace 3889
alone. 3889
eli@@ 3889
ates, 3888
ce, 3888
families. 3888
shop@@ 3888
ते-@@ 3888
प्रयोगशाला 3888
सिय@@ 3888
is) 3887
syed 3887
दर्दनाक 3887
सुविधा@@ 3887
6) 3886
e." 3886
आधा 3886
ancy 3885
नारे 3885
मूल्य@@ 3885
सभाओं 3885
whol@@ 3884
आत्मनिर्भर 3884
spec@@ 3883
सर्किट 3883
amendments 3882
मत्ती 3882
मांस 3882
cong@@ 3881
shrine 3881
आमदनी 3881
atomic 3880
handling 3880
निपटान 3880
setup 3879
चुन 3879
मुख 3879
clinical 3878
immediately. 3878
kerala. 3878
mou@@ 3878
sig@@ 3878
nec@@ 3877
tomar 3877
संस्थागत 3877
covers 3876
एसएस@@ 3876
responded 3875
school@@ 3875
बन्द 3875
anna 3873
वर्जन 3873
1998 3872
behavi@@ 3872
overs. 3872
नी) 3872
रब! 3872
gy@@ 3870
twenty 3870
अड्डा 3870
चीन, 3870
मीर 3870
सहे@@ 3870
luc@@ 3869
mighty 3869
आईएस 3869
आधारभूत 3869
ख़ास 3869
जोड़े 3869
governing 3868
madras 3868
आँ@@ 3868
(एच@@ 3867
men's 3867
सान 3867
instruc@@ 3866
ख, 3866
डरा@@ 3866
व्याख्या 3866
attract 3865
poster 3865
politic@@ 3864
एजुकेशन 3864
latter 3863
examinations 3862
कस 3862
arrive 3861
joseph 3861
justice, 3861
lock 3861
commun@@ 3860
ब्रै@@ 3860
सी-@@ 3860
इम्@@ 3859
दमकल 3859
पट्@@ 3859
50% 3858
round@@ 3858
दुरुपयोग 3858
fied. 3857
monetary 3857
suspect 3857
शक्ति@@ 3857
संघ@@ 3857
ियों@@ 3857
mass@@ 3855
origin@@ 3855
जायजा 3855
reveal 3854
पहुँच@@ 3854
सुनते 3854
(as 3853
temporary 3853
क' 3853
छेड़छाड़ 3853
map 3852
टूर 3852
बंधन 3852
मतभेद 3852
समावेशी 3852
हिट 3852
away, 3851
hussain 3851
दो-दो 3851
प्रदीप 3851
uts 3850
equivalent 3848
mir@@ 3848
subsequent 3848
sai 3847
एंग@@ 3847
aring 3846
cap 3846
ड) 3846
सेवानिवृत्त 3846
intention 3845
rama 3845
नाथ@@ 3845
मांगों 3845
activist 3844
appreciation 3844
"my 3843
heres 3843
में. 3843
mount 3842
टर्मिनल 3842
व्यवस्थित 3842
ined 3841
श्रेष्ठ 3840
संरक्षित 3840
सतर्क 3840
हन 3840
‘‘मैं 3840
rock 3839
संख्या@@ 3839
ana, 3838
emerg@@ 3838
वाल, 3838
asha 3837
excited 3837
janhvi 3837
कुंजी 3837
(अनंतिम) 3836
flagship 3836
gogoi 3836
आवश्‍यक 3836
राजेंद्र 3836
एकदिवसीय 3835
रोशनी 3835
19. 3834
parliament, 3834
rival 3834
ऊपरी 3834
मुनाफा 3834
​@@ 3834
sources, 3833
बटन 3833
मेडल 3833
(7@@ 3832
शॉ@@ 3832
greek 3831
series, 3831
८ 3831
changed. 3830
ideal 3830
फुट 3830
cumulative 3829
date, 3828
stream@@ 3828
शोधन 3828
150@@ 3827
muslim@@ 3827
regime 3826
स्टिक 3825
rehabilitation 3824
revelation 3824
2013. 3823
ltd. 3823
मित्रों 3823
deleg@@ 3822
खासतौर 3822
kers 3821
punjabi 3821
satisfaction 3821
गुजर 3821
language. 3820
ain. 3819
pandya 3819
एम्@@ 3819
mandi 3818
विधेयक, 3818
speaks 3817
उठाते 3817
कुमारी 3817
दा) 3817
धीमी 3817
distinguished 3816
नर, 3816
शशि 3816
किस्@@ 3815
चिकित्सक 3815
पोस्टमॉर्टम 3815
26.@@ 3814
child. 3814
पॉलिसी 3814
फौरन 3814
map@@ 3813
नवीनतम 3813
growth. 3811
जादू 3811
पान 3811
मुख्य@@ 3811
जुटाने 3810
boun@@ 3809
communic@@ 3809
fdi 3809
मिया@@ 3809
olog@@ 3808
मेजबान 3808
asset 3807
उतर 3807
क्रू@@ 3807
यां 3807
लूट 3807
continuously 3806
ect@@ 3806
endeav@@ 3806
inspiration 3806
its. 3805
settlement 3805
सब्@@ 3805
लापरवाही 3804
bowl@@ 3803
fallen 3803
right, 3803
मैने 3803
screening 3802
वास@@ 3802
pool 3801
ura@@ 3800
event, 3799
mountain 3799
outcome 3799
push 3799
sive 3799
फिलि@@ 3799
साधा 3799
history, 3798
prof@@ 3798
क्षतिग्रस्त 3798
reject 3797
फैशन 3797
रवि 3797
ation? 3796
मौतें 3796
akh@@ 3795
combination 3795
health@@ 3795
संगत 3795
दिल्ली-@@ 3794
1.0@@ 3793
flu@@ 3793
block@@ 3792
enabled 3792
selec@@ 3792
slammed 3792
गीता 3792
हिं@@ 3791
:30 3790
कुमाऊँ 3790
विष@@ 3790
africa. 3789
christ@@ 3789
hold@@ 3789
manufacture 3789
session. 3789
zation 3789
टियों 3789
sikkim 3788
आधे 3788
दीक्षित 3787
action, 3786
mission. 3786
service, 3786
celebrating 3785
tool 3785
ईसा 3785
तन@@ 3785
amritsar 3784
worldwide 3784
dharmendra 3783
दमदार 3783
kohli, 3782
ani. 3781
convey 3781
दिलीप 3781
faith. 3780
नवजोत 3780
वस्त्र 3780
(एक 3779
predicted 3779
सिर@@ 3779
shelter 3778
ग्राफ 3778
ग्‍@@ 3778
छात्राओं 3778
भव्य 3778
मल्होत्रा 3778
ders 3777
profile 3777
sukh@@ 3777
सितम्बर 3777
(आईसी@@ 3776
लीला 3776
jack@@ 3775
saina 3775
do? 3774
deposits 3773
o) 3773
आस-पास 3773
श्रीदेवी 3773
infrastructure, 3772
peace. 3772
प्रमाणपत्र 3772
सुलझाने 3772
28, 3771
vajpayee 3771
worker 3771
roh@@ 3770
monday, 3769
brief 3768
hrithik 3768
recently. 3768
तालमेल 3768
ब्रो@@ 3768
यों, 3768
25.@@ 3767
ce. 3767
explore 3767
hosts 3767
position. 3767
चैन 3767
2010-11 3766
bho@@ 3766
कर्नल 3766
क्ली@@ 3766
यक़ीनन 3766
highlights 3765
तालिका 3764
26, 3763
an) 3763
are: 3763
compliance 3763
डिस्काउंट 3763
criticised 3762
cricketers 3761
dist@@ 3761
ements, 3761
personally 3761
quar@@ 3761
sed@@ 3761
4% 3760
airport. 3760
verily, 3760
छठे 3760
1990 3759
arab 3759
better. 3759
pv 3759
ँ, 3759
67@@ 3758
गणित 3758
मेगावाट 3758
entrepreneur@@ 3757
लायक 3757
mishra, 3756
प्रासंगिक 3756
ग्राउंड 3755
बुर्@@ 3754
raman@@ 3753
जिंदा 3753
विशेषता 3753
cred@@ 3752
itself. 3752
पकड़ा 3752
स्‍थापित 3752
%s 3751
creative 3751
cycl@@ 3751
paris 3751
उद्यमों 3751
बीएसएफ 3751
gain@@ 3750
hidden 3750
क’ 3750
judgement 3749
moves 3749
yu@@ 3749
अन्यथा 3749
क्षा@@ 3749
बस्ती 3749
complaint. 3748
shami 3748
ऋ-ऊण्श्छ्ष्-@@ 3748
dignitaries 3747
east@@ 3747
poet 3747
sinha, 3747
survived 3747
wicked 3747
अनंत 3747
किया? 3747
फल@@ 3747
समर्थित 3747
1-0 3746
nis@@ 3746
चलो 3746
ड्यू@@ 3746
राजकीय 3746
go. 3743
आवासीय 3743
forgiveness 3742
wives 3742
>> 3741
ains 3741
commission, 3740
smartphones 3740
substantial 3740
processes 3739
एहसास 3739
पुरस्‍कार 3739
सरकारें 3738
cargo 3737
ones, 3736
research, 3736
एसएमएस 3736
argument 3735
economy, 3735
mall@@ 3735
झड़प 3735
नियोजन 3735
3000 3734
abl@@ 3734
कॉरपोरेशन 3734
मैनेजर 3734
साम्राज्य 3734
undertaking 3733
जीता। 3733
crash 3732
mary 3732
eg@@ 3731
throw 3731
त्र, 3731
पंक्ति 3730
ठो@@ 3729
मिल्@@ 3729
available. 3728
form. 3728
platforms 3728
presentation 3728
अभियुक्त 3728
मैनेजमेंट 3728
're 3727
अनुप्रयोग 3727
राधा 3727
vik@@ 3726
एमसी 3726
buying 3725
हौ@@ 3725
मारकर 3724
शोर 3724
oo@@ 3723
ार्थ@@ 3723
इस्लामाबाद 3722
गायब 3722
भ 3722
equally 3721
poor@@ 3721
postmortem 3721
station, 3721
गार्ड 3721
जायेगी। 3721
देश, 3721
माया 3721
मेहरबान 3721
agar 3720
army, 3720
regulation 3720
ओम 3720
निर्णायक 3720
फरमा@@ 3720
ences. 3719
mind@@ 3719
para 3719
्यों 3719
12: 3718
display. 3718
msme 3718
फार@@ 3718
स्कू@@ 3718
18. 3717
ide. 3717
टाई 3717
himself. 3716
इरा@@ 3716
registering 3715
फूल 3715
mines 3713
rare 3713
चाहिये। 3713
akbar 3712
mid-@@ 3712
probing 3712
spot, 3712
अनुमोदन 3712
bod@@ 3711
radha 3711
लाकर 3711
aya 3710
food, 3710
hide 3710
prem 3710
sent@@ 3710
targets 3710
बाग@@ 3710
collec@@ 3709
force. 3709
sham@@ 3709
आवाज़ 3709
जावेद 3709
bumrah 3708
desi@@ 3708
did@@ 3708
imagine 3708
ईमानदारी 3708
कार्यभार 3708
२००@@ 3708
encouraging 3707
neg@@ 3707
ordinary 3707
wag@@ 3707
system@@ 3706
राउत 3706
discount 3705
hil@@ 3705
शियल 3705
arrangement 3704
guid@@ 3704
slow 3704
works. 3704
आईएएस 3704
कमलनाथ 3703
यूं 3703
द्ध@@ 3702
सरो@@ 3700
सर्विसेज 3700
component 3699
danger 3699
delhi's 3699
earth@@ 3699
अबतक 3699
camps 3698
withdra@@ 3698
counterpart 3697
das@@ 3697
ट्वि@@ 3697
chair 3696
protec@@ 3696
rescued 3696
उजागर 3696
कही। 3696
मणि@@ 3695
(भी) 3694
go, 3694
inten@@ 3694
ंगा@@ 3694
एटीएम 3694
undertake 3693
walking 3693
एकत्रित 3693
गियरबॉक्स 3693
विश्@@ 3693
सतर्कता 3693
हें 3693
operated 3692
slow@@ 3692
क़्@@ 3692
प्रमोशन 3692
ray 3691
8th 3690
forces. 3690
founded 3690
ise, 3690
विद्यमान 3690
processor 3689
उत्सर्जन 3689
mountain@@ 3688
batch 3687
breaks 3687
height 3687
paired 3687
death@@ 3686
disputes 3686
smt. 3686
tly 3686
निवेशक 3686
परे 3686
(independent 3685
जौ@@ 3685
jonas 3683
उपबंधों 3683
mani 3682
डेरा 3682
बालों 3682
blamed 3681
जुड़े 3681
हुंडई 3681
margin 3680
ses. 3680
पहुंची। 3680
मियों 3680
verses 3679
youtube 3679
बैन 3679
heart@@ 3678
चिंताओं 3678
tweeted, 3677
yuvraj 3677
सामर्थ्य 3677
father@@ 3676
scoring 3676
लिंग@@ 3676
वार, 3676
") 3675
post-mortem 3675
लेगा। 3675
(जे@@ 3674
inputs 3674
kis@@ 3674
प्रोटोकॉल 3674
बॉल 3674
सोसाइटी 3674
body, 3673
greatly 3673
py@@ 3673
सिद्ध@@ 3673
dip 3672
kum@@ 3672
nanak 3672
pacific 3672
(संशोधन) 3671
थरूर 3671
मेमोरी 3671
रजिस्टर 3671
28.@@ 3670
3% 3670
afric@@ 3670
ka, 3670
ranking 3670
चिन्@@ 3670
सौरव 3670
heed 3669
लय@@ 3669
iranian 3668
ज़ोर 3668
पन्@@ 3668
वार्ड 3668
agit@@ 3667
mr.@@ 3667
sher@@ 3667
औषधि 3667
ling@@ 3666
प्रेम@@ 3666
j&k 3665
windows 3665
परेड 3665
ैर 3665
65@@ 3664
field. 3664
polls, 3664
आदम 3664
संगठित 3664
abuse 3663
hra 3663
म्प 3663
engineer 3662
उतार 3662
सिक्@@ 3662
az 3661
c), 3661
crimes 3660
issues, 3660
उद@@ 3660
गुमराही 3660
programme, 3659
sa, 3659
पुनर्वास 3659
ज-@@ 3658
ist. 3657
tribes 3657
आईडी@@ 3657
जन-@@ 3656
सृजित 3656
29, 3655
bsnl 3655
gang 3655
mountains 3655
rc@@ 3655
5mp 3654
bose 3654
नज@@ 3654
मुसीबत 3654
angry 3653
award. 3653
brain 3653
मुझ@@ 3653
27, 3652
घ 3651
ensured 3650
hd@@ 3650
आग@@ 3650
जार@@ 3650
पांड@@ 3650
फ्लाइट 3650
limits 3649
vag@@ 3649
याकूब 3649
kil@@ 3648
torment 3648
wild 3648
wr@@ 3648
इन्होंने 3648
करतारपुर 3648
नेकी 3647
नेस 3647
bonds 3646
futures 3646
kane 3646
umar 3646
ल्ल@@ 3646
ीं 3646
ack@@ 3645
transformation 3645
खेल@@ 3645
artificial 3644
friday, 3644
विटामिन 3644
ios 3643
धोखा 3643
मूलभूत 3643
flat 3642
shashi 3642
14: 3641
(तो 3640
thes@@ 3640
lifted 3638
morning, 3638
mothers 3638
मंत्री@@ 3638
mufti 3637
खेत 3637
सर्च 3636
released. 3635
पेमेंट 3635
मरी@@ 3635
30. 3634
village, 3634
auto@@ 3633
टी. 3632
सुर्खियों 3632
firmly 3631
reason@@ 3631
दुर्गा 3631
दुश्मन 3631
palace 3630
pattern 3630
षी 3630
सोचने 3630
aries. 3629
strengthened 3629
tweet, 3629
आक्रामक 3629
एल्@@ 3629
ग्रह 3629
जनक 3629
जाल 3629
जोधपुर 3629
jadhav 3628
जमीनी 3628
वाड्रा 3628
से। 3628
again@@ 3627
love. 3627
फं@@ 3627
pages 3626
projects. 3626
speak@@ 3626
terminal 3626
अंडमान 3626
21. 3625
default 3625
pursue 3625
समर्थ 3625
अत्याचार 3624
पंकज 3624
मेयर 3624
साध@@ 3624
डील 3623
संक्षिप्त 3623
साहब 3623
alok 3622
rence 3621
अर्जी 3621
छत 3621
depends 3620
his@@ 3620
pric@@ 3620
cut@@ 3619
ex 3619
noble 3619
recalled 3619
कॉफी 3619
ट्रेनें 3619
entirely 3617
policy. 3617
ताज 3617
साई@@ 3617
dead, 3616
officially 3616
बीएस 3616
सांख्यिकी 3616
सांप्रदायिक 3616
abhi@@ 3615
matter, 3615
own@@ 3615
dubai 3614
राकांपा 3614
(is@@ 3613
parrikar 3613
umesh 3613
ऑर्डर 3613
समितियों 3613
170 3612
unprecedented 3612
नक 3612
mal 3611
पसन्द 3611
बदमाशों 3611
सानिया 3611
हिमा@@ 3611
11: 3610
2,0@@ 3610
cell@@ 3610
ऊँ@@ 3609
ज़े 3609
तिहाई 3609
फरी@@ 3609
तीस 3608
दावों 3608
स्वदेशी 3608
career. 3607
ssp 3607
ख़ुद 3607
कमाल 3606
तना@@ 3606
ared 3605
circuit 3605
receipt 3605
subjects 3605
चक 3604
borders 3603
lakh, 3603
terrorism. 3603
वेल@@ 3603
256 3602
केन्द्रित 3602
grace 3601
reflect 3601
isha@@ 3600
knowledge. 3600
let's 3600
renowned 3600
ओवैसी 3600
able@@ 3599
box@@ 3599
celsius 3599
ped@@ 3599
नजदीकी 3599
faster 3598
ndrf 3598
आहार 3598
कना@@ 3598
कारी@@ 3598
थै@@ 3598
स्टन 3598
6th 3597
badminton 3597
ick@@ 3597
क्षेत्र, 3597
जोकि 3596
यूरो 3596
सुधारने 3596
(दुनिया 3595
administered 3595
ईमानदारों 3595
रत्न 3595
\@@ 3594
ट्रांस@@ 3593
दुष्@@ 3593
ऐश्वर्या 3592
व्‍यवस्‍था 3592
nodal 3591
vegetables 3591
बेंगलुरू 3590
मेगा@@ 3590
25. 3589
good, 3589
home@@ 3589
ports 3589
लीन 3589
वियतनाम 3589
heart. 3588
worshi@@ 3588
अतिरिक्‍त 3588
बताना 3588
सैयद 3588
pro-@@ 3587
ंप 3587
connecting 3586
food. 3586
staying 3586
आचरण 3586
आशय 3586
allied 3585
operation. 3585
क्षित 3585
नानक 3585
पीटर 3585
mos 3584
name, 3584
rti 3584
stolen 3584
करेगा. 3584
नागर 3584
si, 3583
हॉलीवुड 3583
extreme 3582
th-@@ 3582
पारदर्शी 3582
greeted 3581
joins 3581
presided 3581
se) 3581
supposed 3581
उद्यमियों 3581
elders 3580
motiv@@ 3580
progress. 3580
एससी@@ 3580
णु 3580
पुकार@@ 3580
विराम 3580
frame 3579
चेहरा 3579
संभाल 3579
hand. 3578
moment. 3578
shah. 3578
सदा 3578
symbol 3577
पूर्वा@@ 3577
ili@@ 3576
commanded 3574
missions 3574
अपलोड 3574
बर्बाद 3574
audit 3573
sett@@ 3573
राव@@ 3573
lieutenant 3572
sha 3572
अब्बास 3572
क्रॉ@@ 3572
लेन-देन 3572
strive 3570
ट्स@@ 3570
दूत 3570
conclusion 3569
fam@@ 3569
inter 3569
आस@@ 3569
परिभाषा 3569
great@@ 3568
library 3568
kin@@ 3567
satish 3567
tari@@ 3567
teh@@ 3567
कम्पनी 3567
पर्वत 3567
शरीक 3567
murder. 3565
robert 3565
vikram 3565
schools, 3564
raids 3563
vacant 3563
(pm@@ 3562
boards 3562
c.@@ 3562
happy. 3562
सेवकों 3562
cooper@@ 3561
यूपीए 3561
रणदीप 3561
evil@@ 3560
interview. 3560
our. 3560
उपयोगकर्ता 3560
hindu@@ 3559
jav@@ 3559
voter 3559
ली. 3559
sends 3558
पॉल 3558
ame 3557
number. 3557
omar 3557
trials 3557
मल्@@ 3557
मुखिया 3557
ष्ट 3557
embassy 3556
अंसारी 3556
सिंगल 3556
्यो@@ 3556
disha 3555
telangana, 3555
तेज@@ 3555
स्पर्धा 3555
स्पॉट 3555
(एल@@ 3554
brigade 3554
qual@@ 3554
इस्‍तेमाल 3554
जॉर्ज 3554
legislat@@ 3553
militant 3553
जीवन@@ 3553
वकीलों 3553
6% 3552
ken 3552
ंगों 3552
आशा@@ 3552
वाना 3551
व्यापारी 3551
हटाया 3551
behaviour 3550
creat@@ 3550
हं@@ 3550
celebrities 3549
प्रो. 3549
ministers, 3548
तम@@ 3548
ir, 3547
करूंगा। 3547
निम्@@ 3547
culture. 3546
lad@@ 3546
nationwide 3546
नान 3546
assembly, 3544
long-@@ 3544
pant 3544
prestigious 3544
russia, 3544
वर्धन 3544
स्टॉ@@ 3544
11th 3543
40,000 3543
pregnant 3543
उच्‍च 3543
एनआर@@ 3543
obtain 3542
खुल 3542
मंत्र@@ 3542
surrounding 3541
मुकदमे 3541
रचनात्मक 3541
ओवरों 3540
गुवाहाटी 3540
hub 3539
rad@@ 3539
दाय@@ 3539
ाई 3539
arts 3538
believing 3538
gandhi's 3538
er? 3537
interven@@ 3537
satisfied 3537
smooth 3537
चलाई 3537
बपतिस्मा 3537
वी, 3537
े? 3537
originally 3536
plot 3536
समय, 3536
ख़ा@@ 3536
२०@@ 3536
am: 3535
ented 3535
स्मरण 3535
devo@@ 3534
मैक@@ 3534
beaten 3533
disp@@ 3533
help@@ 3533
rounds 3533
मुना@@ 3533
daughter. 3532
johar 3532
चारा 3532
behold, 3531
रिश्ता 3531
blocks 3530
cli@@ 3530
inspec@@ 3530
ual 3530
swar@@ 3529
पर्दे 3529
hat 3528
three-match 3528
पुतिन 3528
व्‍यक्‍त 3528
gandhis 3527
protecting 3526
गायक 3526
israel@@ 3525
glo@@ 3524
parking 3524
प्प@@ 3524
atives 3523
किसने 3523
aj 3522
royals 3522
चम्मच 3522
देगी 3522
नाएं 3522
सूच@@ 3522
टेलीफोन 3521
98@@ 3520
arrests 3520
change, 3520
entrepreneurship 3520
lest 3520
नाओं 3520
फेंक 3520
invitation 3519
jewellery 3519
बेच 3519
वही@@ 3519
celebration 3518
काला@@ 3518
निकले 3518
influ@@ 3517
kartarpur 3517
अश्@@ 3517
शुभ@@ 3517
hooda 3516
खोला 3516
मार्टिन 3516
साढ़े 3516
feder@@ 3515
किफायती 3515
everything. 3514
minds 3514
stabil@@ 3514
प्रोटीन 3514
अकेला 3513
कालीन 3513
सुरक्षा, 3513
gender 3512
km@@ 3512
moderate 3512
will. 3512
अभिनव 3512
शिक्षित 3512
balls. 3511
gratitude 3511
soon, 3511
विश्‍व@@ 3511
सबक 3511
blame 3510
gging 3510
visit@@ 3510
कमर 3510
ख़र्च 3510
जश्न 3510
प्राप्@@ 3510
dy@@ 3509
अंश 3509
फिर@@ 3509
स्‍थापना 3509
winder 3508
मार्ग@@ 3508
हैं।@@ 3508
सब्र 3507
randeep 3506
उतार@@ 3506
दरअसल, 3506
मिश्रित 3506
kanpur 3505
match, 3505
निर्वा@@ 3505
brother@@ 3504
temple. 3504
thak@@ 3504
yahweh 3504
पढ़े 3504
लें, 3504
indore 3503
ेंगे@@ 3503
dig 3502
ज़र 3502
appa 3501
bow@@ 3501
सुख 3501
wheel@@ 3500
चों 3500
भा 3500
mishap 3499
तापूर्ण 3499
लॉजी 3499
\""""" 3498
hill@@ 3498
workers, 3498
1993 3497
depending 3497
no.@@ 3497
urgent 3497
us? 3497
use, 3497
फायदेमंद 3497
बोले- 3497
ड़ते 3496
पूछने 3496
forming 3495
much. 3495
ranaut 3495
गिरा@@ 3495
बराबरी 3495
वाइड 3495
t20@@ 3494
pose 3493
मुंबई: 3493
संतुलित 3493
हालॉकि 3493
background 3492
metres 3492
ras 3492
woman. 3492
एसटी@@ 3492
भागवत 3491
175 3490
dur@@ 3490
mulayam 3490
कबूल 3490
च्छ@@ 3489
नसी@@ 3489
एनएच@@ 3488
कहकर 3488
किलो@@ 3488
विडियो 3488
हैः 3488
grow@@ 3487
संन्यास 3487
dar 3485
dealt 3485
mother@@ 3485
वती 3485
संस्‍थान 3485
mann 3484
particip@@ 3484
sud@@ 3484
वाइस 3484
ome@@ 3483
progres@@ 3483
प्रस्तुति 3483
करवाई 3482
मती 3482
cattle 3481
बौद्धिक 3481
र्न 3481
शाली 3481
ऑपरे@@ 3480
हरित 3480
invite 3479
machines 3479
आन@@ 3479
उद्यमिता 3479
उमेश 3479
एंट्री 3479
गृह@@ 3479
तरी@@ 3479
समय-समय 3478
developments 3477
arti@@ 3476
lear@@ 3476
question. 3476
tools 3476
छुटकारा 3476
मराठी 3476
9th 3475
appreci@@ 3475
dg@@ 3475
edi@@ 3475
इन-@@ 3475
-to-@@ 3474
borne 3474
bran@@ 3474
ज़े@@ 3474
xi@@ 3473
झे@@ 3473
पल्@@ 3473
feelings 3472
follows 3472
fy@@ 3472
h-@@ 3472
सशक्तिकरण 3472
footage 3471
काली 3471
राउंड 3471
‍ 3471
adjoining 3470
myanmar 3470
politician 3470
लें. 3470
integration 3469
night@@ 3469
valuable 3469
स्वि@@ 3469
appreciate 3468
intellectual 3468
अंकित 3468
म्यांमार 3468
cops 3467
md 3467
अद@@ 3467
इवेंट 3466
लेशन 3466
line. 3465
state@@ 3465
आरएस@@ 3465
$ 3464
shed 3464
प्राण 3464
बनाया। 3464
शौचालय 3464
1,9@@ 3463
congres@@ 3463
त्‍व 3463
शिशु 3463
हरभजन 3463
ईवीएम 3462
grain 3461
plan. 3461
release. 3461
आवश्‍यकता 3461
बच्च@@ 3461
mar 3460
sav@@ 3460
त्य@@ 3460
प्रौद्योगिकियों 3460
ंकन 3458
लियां 3458
khanna 3457
waters 3457
मौतों 3457
समे@@ 3457
book. 3456
your@@ 3456
देशी 3456
(पीएम@@ 3455
impro@@ 3455
तरफ़ 3455
लह@@ 3455
हकदार 3455
criticism 3454
महि@@ 3454
सफ@@ 3454
cyclone 3453
em 3453
नाक 3453
careful 3452
micro 3452
धार 3452
(विकेटकीपर), 3451
oldest 3451
vers@@ 3451
yourselves 3451
घटनाक्रम 3451
burnt 3450
england, 3450
shop 3450
ners 3449
ther 3449
उड़ा@@ 3449
ढ़ी 3449
विन 3449
्‍या@@ 3449
arrang@@ 3448
important. 3448
जे. 3448
पट्टी 3448
हेड 3448
1971 3447
abbas 3447
hus@@ 3447
अब@@ 3447
ध, 3447
arrives 3446
regarded 3446
पात 3446
सूक्ष्म 3446
1992 3445
58@@ 3445
has, 3445
input 3445
kartik 3445
स्क 3445
(ओ@@ 3444
24. 3444
telephone 3444
गें@@ 3444
पुरम 3444
भेद 3444
"you 3443
dead@@ 3442
mizoram 3442
"o 3441
jon@@ 3441
आश्चर्य 3441
बर्ग 3441
यू) 3441
सम्पूर्ण 3441
kho@@ 3440
quantity 3440
unbelievers 3440
टी-20 3440
पौधों 3440
arrival 3439
302 3438
59@@ 3438
exclusive 3438
reporting 3438
cow 3437
जोस 3437
mechan@@ 3436
shortly 3436
suspension 3436
utt@@ 3436
गार्@@ 3436
गुस्सा 3436
entrepreneurs 3435
benef@@ 3433
फ़ी@@ 3433
appearance 3432
es/@@ 3432
jp 3432
चूक 3431
श्रद्धालुओं 3431
surpris@@ 3430
udd@@ 3430
जीत@@ 3430
साइकिल 3430
appoint 3429
ded@@ 3429
interrog@@ 3429
swe@@ 3429
ज़ुल्म 3429
agra 3428
ons. 3428
sign@@ 3428
clean@@ 3427
गोरखपुर 3427
नार 3427
जरा 3426
-member 3425
गुणों 3425
car. 3424
minorities 3424
चुप 3424
repe@@ 3423
thin@@ 3423
गिल 3423
टुक@@ 3421
2012-13 3420
mund@@ 3420
top-@@ 3420
आशीर्वाद 3420
पलट 3420
सोनी 3419
eco@@ 3418
ide, 3418
tiv@@ 3418
विनिर्दिष्ट 3418
alist 3417
bowled 3417
तीं 3416
सख्ती 3416
chances 3415
अग्र@@ 3415
परंपरागत 3415
gran@@ 3414
laugh@@ 3414
lrb 3414
owners 3414
petitions 3414
टीकाकरण 3414
रखरखाव 3414
कहे 3413
गाय 3413
रूपरेखा 3413
वरिष्‍ठ 3413
milli@@ 3411
vadra 3411
build@@ 3410
यथा@@ 3410
iah 3409
servant 3409
चैनलों 3408
वां@@ 3408
सिर्फ़ 3408
earn 3407
ee@@ 3407
found@@ 3407
x. 3407
सके. 3407
employed 3406
अंडर@@ 3406
determine 3405
discovered 3405
parties, 3405
2030 3404
69@@ 3404
la. 3404
दुकानों 3404
बढ़े 3404
बालक 3404
legislators 3403
win. 3403
mod@@ 3402
programs 3402
tar 3402
tomorrow. 3402
तकनी@@ 3402
व्यावहारिक 3402
ask@@ 3401
inclusion 3401
ness@@ 3401
चैलेंजर्स 3401
drivers 3400
roshan 3400
परे@@ 3400
राष्‍ट्र 3400
वर्चुअल 3400
cleanliness 3399
surprised 3399
क्यों? 3398
दीर्घकालिक 3398
हां 3398
6.5 3397
japan, 3397
चाहिये 3397
acid 3396
fication 3396
wife. 3396
कारावास 3396
कॉलिंग 3396
पूर्@@ 3396
amazing 3395
online. 3395
भली-भाँति 3395
रा-@@ 3395
.... 3394
inj@@ 3394
mone@@ 3394
operation@@ 3394
reaction 3394
tioned 3394
1500 3393
aging 3393
character@@ 3393
sty 3393
संयोजन 3393
आईएफ@@ 3392
विमर्श 3392
believers. 3391
business, 3391
low-@@ 3391
thakur, 3391
alleging 3390
evid@@ 3390
lift 3390
realize 3390
veer 3390
wage 3390
क्ति@@ 3390
पीडीपी 3390
मुख्यमंत्रियों 3390
-21 3389
freight 3389
graph@@ 3389
unlimited 3389
sequ@@ 3388
worried 3388
उपन्यास 3388
gradu@@ 3387
sensor. 3387
नत 3387
्रे@@ 3387
borrow@@ 3386
doubles 3386
woman, 3386
एस्@@ 3386
षण 3386
ud 3385
नरेश 3385
century, 3384
goa, 3384
urg@@ 3384
व्यापारियों 3384
jay 3383
revolution 3383
soft 3383
आए, 3383
auc@@ 3382
parents. 3382
sick@@ 3382
speedy 3382
न्य@@ 3382
माँग 3382
ल्यू@@ 3382
financing 3381
relationship. 3381
russi@@ 3381
pnb 3380
privilege 3380
realise 3380
दयालुता 3380
(mo@@ 3379
agar, 3379
flow@@ 3379
workers. 3379
धारकों 3379
नवम्बर 3379
adap@@ 3378
wildlife 3378
गड़@@ 3378
acceptable 3377
tackle 3377
town@@ 3377
दयावान 3377
बौ@@ 3377
लकड़ी 3377
alive 3376
connections 3376
rankings 3376
प्रकार, 3376
stoc@@ 3375
sunrisers 3375
जाह्नवी 3375
नूर 3375
रूपों 3375
pos@@ 3374
उ 3374
कांग्रेस, 3374
भड़@@ 3374
वर्णित 3374
सदर 3374
31.@@ 3373
ारी@@ 3373
‘‘हम 3373
serves 3372
गेल 3372
झि@@ 3372
पट 3372
प्लांट 3372
integr@@ 3371
aman 3370
wai@@ 3370
पुन: 3370
यूट्यूब 3370
(क@@ 3369
alleg@@ 3369
babu 3369
child@@ 3369
est, 3369
भागीदार 3369
allotted 3368
pel@@ 3368
process, 3368
भै@@ 3368
सचिवों 3368
offic@@ 3367
known. 3366
leela 3366
'the 3365
bhagat 3365
products, 3365
ude 3365
प्रतिष्ठा 3365
मोर्चे 3365
उड़ानों 3364
त। 3364
माँग@@ 3364
लख@@ 3364
लाय@@ 3364
आगमन 3363
organis@@ 3362
suddenly 3362
til@@ 3362
अधिकारी, 3362
गाय@@ 3361
बनाती 3361
शिय@@ 3361
editor 3360
force, 3360
manufactured 3360
shock 3360
डीएम@@ 3360
jar@@ 3359
kab@@ 3359
stly 3359
नज़@@ 3359
भौगोलिक 3359
corner 3358
only. 3358
ted@@ 3358
कथन 3358
क़ा@@ 3358
क़ौम 3358
div@@ 3357
origin 3357
portra@@ 3357
samaj 3357
आत्मविश्वास 3357
प्रिया 3357
राष्ट्रमंडल 3357
शुक्रिया 3357
ब्रिज 3356
जागरूक 3355
दगी 3355
duc@@ 3354
रुपये, 3353
1,3@@ 3352
compl@@ 3352
seemed 3352
wed 3352
वफादार 3352
converted 3351
jaishankar 3351
unlike 3351
रु. 3350
सदियों 3350
हटकर 3350
establishing 3349
lord@@ 3349
transparent 3349
vivek 3349
अद्यतन 3349
खाई 3349
युगल 3349
branches 3348
citizens. 3348
knowledge, 3348
za@@ 3348
andaman 3347
lots 3347
दिसम्बर 3347
पा, 3347
पोल 3347
लिए. 3346
au 3345
आंसू 3344
congratulations 3343
delhi-@@ 3343
ya. 3343
शेखर 3343
arising 3342
wit@@ 3342
जित 3342
बढ़ाई 3342
भ्र@@ 3342
(10@@ 3341
daniel 3341
राष्ट्रों 3341
devgn 3340
sik@@ 3340
कोरोनावायरस 3340
judiciary 3339
que@@ 3339
tied 3339
एसआईटी 3339
2017) 3338
ं? 3338
delayed 3337
edly 3337
nagpur 3337
मुस्लिमों 3337
दर्जे 3336
ेगा, 3336
bhuvneshwar 3335
हुए@@ 3335
gates 3334
तस्करी 3334
स्‍थान 3334
हर, 3334
(and 3333
annu@@ 3333
army. 3333
gather 3333
फाय@@ 3333
ार्थी 3333
enabling 3332
एनआई@@ 3332
कारा 3332
जाइ@@ 3332
chinas 3331
'यह 3330
diff@@ 3330
martin 3330
settle 3330
statutory 3330
टीसी 3330
yesterday. 3329
प्रोडक्शन 3329
leg 3328
applic@@ 3327
ganesh 3327
options. 3327
scar@@ 3327
इंडस्ट्रीज 3327
कांफ्रेंस 3327
संपादक 3327
more@@ 3326
restore 3326
tric@@ 3326
मुमकिन 3326
निकाले 3325
answers 3324
fishermen 3324
सामरिक 3323
सिलेंडर 3323
environment. 3322
fulfil 3322
y," 3322
इनपुट 3322
झू@@ 3322
नमूने 3322
निकासी 3322
निकोबार 3322
bond@@ 3321
pip@@ 3321
एंगल 3321
एक्‍@@ 3321
ltd, 3320
personality 3320
repeatedly 3320
गिरी 3320
deficit 3319
pm: 3319
transform@@ 3319
maiden 3318
surveillance 3318
widespread 3318
खोले 3318
पैरा 3318
emo@@ 3317
फ़र@@ 3317
विद 3317
manufacturers 3316
aayog 3315
abo@@ 3315
architecture 3315
fun 3315
holders 3315
ously. 3315
कोट 3315
जानवर 3315
वर्ड 3315
ins, 3314
आंक@@ 3314
ड़ी, 3314
blind 3313
favourite 3313
leader, 3313
naik 3313
dwar@@ 3312
havent 3312
ज्योति 3312
हस्‍ताक्षर 3312
हिल 3312
bearing 3311
involves 3311
डुअल 3311
मरियम 3311
विद्या@@ 3311
सटीक 3311
bhupinder 3310
nic. 3310
objectives 3310
pankaj 3310
छाया 3310
पैदल 3310
रुपये) 3310
हर्ष 3310
‘भारत 3310
bed@@ 3309
rid 3309
secular 3309
updates 3309
कुरान 3309
डेमोक्रेटिक 3309
द्ध 3309
यहूदियों 3309
230 3308
processor. 3308
rajasthan@@ 3308
welfare, 3307
अल्पसंख्यकों 3307
लॉन्च, 3307
hypo@@ 3306
पढ़ें- 3306
10: 3305
afghanistan, 3305
ates. 3305
paradi@@ 3305
rajeev 3305
यौ@@ 3305
constitution, 3304
heading 3304
hik@@ 3304
employ@@ 3303
जिला@@ 3303
दुःख 3303
पिक्@@ 3303
स: 3303
ो, 3303
diversity 3302
ned, 3302
rishabh 3302
सन्तान 3302
2012. 3301
bachchan, 3301
crow@@ 3301
kon@@ 3301
99.@@ 3300
nobel 3300
debit 3299
mem@@ 3299
ट्रिपल 3299
ड्रि@@ 3299
पीटीआई 3299
भूख 3299
रही@@ 3299
लेस 3299
expect@@ 3298
rein@@ 3298
जेसन 3298
पशुओं 3298
हेलीकॉप्टर 3298
answ@@ 3297
instructed 3297
भुग@@ 3297
discipline 3296
तमिलनाडु, 3296
दरें 3296
स्ट्रे@@ 3296
14th 3295
agarwal 3295
stan@@ 3295
100% 3294
athletes 3293
पाता 3293
2019@@ 3292
discrimin@@ 3292
tures 3292
छू 3292
bound@@ 3291
comfort 3291
lay@@ 3291
सिलसिला 3291
collector 3290
rooms 3290
revol@@ 3289
कल्‍याण 3289
कॉरिडोर 3289
ट्रांसफर 3289
dilip 3288
जानती 3288
ढ़ 3288
mehta 3287
owing 3287
sudden 3287
transaction 3287
दि 3287
casualties 3286
long. 3286
paswan 3286
डाइ@@ 3286
interest. 3285
ऊंचे 3285
kk@@ 3284
इंसानों 3284
फ्र@@ 3284
सृ@@ 3284
१९९@@ 3284
ashes 3283
consider@@ 3283
machinery 3283
twitter, 3283
वार) 3283
questions. 3282
israeli 3281
wish@@ 3281
एडमिरल 3281
कैम@@ 3281
ट्राइ@@ 3281
मन्दिर 3281
dna 3280
ghulam 3280
hasnt 3280
present@@ 3279
vitamin 3279
प्रस्‍ताव 3278
हल्के 3278
hoped 3277
ज़िक्र 3277
सुझा@@ 3277
paradise 3276
गवाहों 3276
स्‍व@@ 3276
mirac@@ 3275
nadu. 3275
tun@@ 3275
ताल 3275
mate 3274
productivity 3274
highlights: 3273
thrown 3273
मचा@@ 3273
सीख@@ 3273
ability. 3272
set. 3272
मछुआरों 3272
hyderabad. 3271
manag@@ 3271
उड्डयन 3271
ख़ान 3271
टिकल 3271
मुद्@@ 3271
ances, 3270
variants 3270
रोन 3270
compare 3269
एट 3269
ऑडियो 3269
कांस्टेबल 3269
ते? 3269
निकल@@ 3269
पूर्वानुमान 3269
challeng@@ 3268
destruction 3268
prabhu 3268
skilled 3268
उतनी 3268
दरवाजे 3268
देखा। 3268
adi 3267
considerable 3267
अली@@ 3267
टकराव 3267
पहाड़ 3267
115 3266
harbhajan 3266
intervention 3266
manife@@ 3266
zar@@ 3266
कोल 3266
फ्रें@@ 3266
साकार 3266
brazil 3265
bund@@ 3265
न्न@@ 3265
मिनी 3265
57@@ 3264
@ 3264
yatra 3264
हिंद 3264
(up@@ 3263
covenant 3263
hes@@ 3263
jd(s) 3263
sania 3263
survi@@ 3263
पाकिस्तान, 3263
completed. 3262
knight 3262
miles 3262
ach 3261
easier 3261
exist 3261
he's 3261
उठ 3261
देवता 3261
सचेत 3261
हस्तियों 3261
finds 3260
prosecution 3260
धिकार 3260
blocked 3259
pandey, 3259
विकास@@ 3259
specifications 3258
li, 3257
बॉम्बे 3257
voluntary 3256
अन्त 3256
डीएसपी 3256
दफ्तर 3256
saying: 3255
​​@@ 3255
कमांड 3254
examined 3253
famil@@ 3253
pandit 3253
soldier 3253
आस 3253
माबूद 3253
43@@ 3252
clin@@ 3252
gun 3252
ological 3252
गॉ@@ 3252
रेज 3252
रोगों 3252
adviser 3251
appropri@@ 3251
laying 3251
डेवलपमेंट 3251
ड्रा@@ 3251
हराया। 3251
maker 3250
rapidly 3250
कॉन 3250
ट्स, 3250
लंबाई 3250
सिल 3250
स्को 3250
momentum 3249
sworn 3249
yas 3249
अत्या@@ 3249
महमूद 3249
"मुझे 3248
autonomous 3248
diver@@ 3248
execution 3247
रघु@@ 3247
sung 3246
ढ़@@ 3246
apost@@ 3245
capital. 3245
data, 3245
disclosed 3245
warm@@ 3245
उछाल 3245
components 3244
expenses 3244
अपेक्षाकृत 3244
जैक 3244
परिषद् 3244
मज़ा 3244
मानव@@ 3244
acharya 3243
इका@@ 3243
कामगारों 3243
च्च@@ 3243
जी. 3243
पाल, 3243
(e@@ 3242
lankan 3242
ology, 3242
बर्फबारी 3242
path. 3241
cricket, 3240
investigated 3240
lottery 3240
oli 3240
spectrum 3240
झुठलाया 3240
techn@@ 3239
एफआई@@ 3239
महिमा 3239
हज@@ 3239
calcul@@ 3238
extra@@ 3238
mighty, 3238
tim 3238
कैलाश 3238
गुजरा@@ 3238
तेजस्वी 3238
तोड़ने 3237
साहेब 3237
सुनी 3237
सोसायटी 3237
मरम्मत 3236
comfortable 3235
रहीं। 3235
राजनीति@@ 3235
(भाजपा) 3234
conditions. 3234
खंडन 3234
प्रमाणित 3234
फैलने 3234
हर्ष@@ 3234
bahadur 3233
ours 3233
प्रस्तु@@ 3233
साह@@ 3233
allegations. 3232
arm 3232
fortun@@ 3232
kin 3232
manifest 3232
राष्ट्रवादी 3232
शत्रु 3232
aling 3231
गढ 3231
बंगाल, 3231
जरी 3230
प्रतिद्वंद्वी 3230
ये। 3230
chil@@ 3229
ound, 3229
एग्जाम 3229
सोच@@ 3229
host@@ 3228
slated 3228
ण-@@ 3228
पुलि@@ 3228
clarified 3227
अनुभवों 3227
कहेंगे, 3227
रांची 3227
antly 3226
जिसमे 3226
site. 3224
कांग्रेस-@@ 3224
figu@@ 3223
final. 3223
mt@@ 3223
qualify 3223
malaika 3222
stil@@ 3222
वास्तविकता 3222
masjid 3221
ंश 3221
इंड 3221
("@@ 3220
114 3220
chandigarh: 3220
conference, 3220
happen@@ 3220
बू 3220
msp 3219
pdp 3219
recording 3219
29.@@ 3218
bagh 3218
bright 3218
strang@@ 3218
टिम 3218
audi@@ 3217
मेंट्स 3217
certificates 3216
come, 3216
lun@@ 3216
max@@ 3216
पथ@@ 3216
charge) 3215
finish 3215
notices 3215
आदत 3215
आदेशों 3215
instrument 3214
recognize 3214
कोयले 3214
ध्वनि 3214
companys 3213
forests 3213
ha. 3213
रोज़ी 3213
nse 3212
prevailing 3212
अनुपम 3212
products. 3211
tender 3211
pacer 3210
छा 3210
शान्ति 3210
जाएंगे. 3209
टैंक 3209
सस्ता 3209
,' 3208
france, 3208
ईं 3208
चार, 3208
जाये। 3208
102 3207
2013, 3207
ers: 3207
yadav. 3207
sanctions 3206
vodafone 3206
february, 3205
i've 3205
nabi 3205
serious. 3205
yuzvendra 3205
बॉडी 3205
्‍य 3205
khur@@ 3204
रजनीकांत 3204
forthcoming 3203
fulfilled 3203
sh. 3203
sixes 3203
targeting 3203
मैग्@@ 3203
drawing 3202
food@@ 3202
hari@@ 3202
m.@@ 3202
tat@@ 3202
ंकी 3202
अा@@ 3202
0,000 3201
abroad. 3201
half-@@ 3201
istic 3201
nt@@ 3201
qureshi 3201
अफसर 3201
पार्किंग 3201
const@@ 3200
promoted 3200
panic 3199
व्यक्तित्व 3199
zer@@ 3198
एडि@@ 3198
शब्@@ 3198
cycle 3197
neighbours 3197
अभिया@@ 3197
loves 3195
nb@@ 3195
non@@ 3195
by-@@ 3194
dmk 3194
केन्द्र@@ 3194
देखेंगे 3194
io@@ 3193
om, 3193
refin@@ 3193
लड़कों 3193
keeper 3192
spinner 3192
कांग्रेसी 3192
त्रिपाठी 3192
companies, 3191
बैठ 3191
किये। 3190
भंसाली 3190
संस्@@ 3190
saf@@ 3189
निरस्त 3189
पढ़ा 3189
2009-10 3188
dad@@ 3188
अंत@@ 3188
परिश्रम 3188
century. 3187
web@@ 3187
कार्यान्वित 3187
गिरा 3187
मेल@@ 3187
हता@@ 3187
kish@@ 3186
ree 3186
sony 3186
ब्लू@@ 3186
ox@@ 3185
calendar 3184
les@@ 3184
railways, 3183
dependent 3182
चहल 3182
ठी@@ 3182
तले 3182
bmw 3181
competi@@ 3181
conscious 3181
divisional 3181
फेडरेशन 3180
बजाय, 3180
complained 3179
operations. 3179
बावजूद, 3179
बेटियों 3179
रनौत 3179
durga 3178
leader. 3178
marshal 3178
अभूतपूर्व 3178
पुस्तकों 3178
rol@@ 3177
toler@@ 3177
अन्दर 3177
ऋतिक 3177
पिक्सल 3177
terrorism, 3176
tra 3176
नमक 3176
रने 3176
परिचय 3175
शहीदों 3175
discharg@@ 3174
refer 3174
टक 3174
रियों 3174
nam 3173
नॉर्थ 3173
population. 3172
घे@@ 3172
(or 3171
admiral 3171
anywhere 3171
indonesia 3171
ग्रिड 3171
संपदा 3171
(4) 3170
hang@@ 3170
row@@ 3170
ईएस@@ 3170
डॉट 3170
रिपोर्@@ 3170
सेना, 3170
हल्@@ 3170
get@@ 3169
tes 3169
उच्च@@ 3169
कवि@@ 3169
कुमारस्वामी 3169
consistent 3168
thee, 3168
आयरलैंड 3168
bs@@ 3167
pulled 3167
render 3167
tion? 3167
उदार@@ 3167
कृत्रिम 3167
(including 3166
battery. 3165
madan 3165
philosophy 3165
व्यवस्था@@ 3165
dream@@ 3164
nutrition 3164
जाएंग@@ 3164
संस्थान, 3164
sci@@ 3163
fall@@ 3162
legendary 3162
word. 3162
नक्@@ 3162
inform@@ 3161
reveals 3161
used. 3161
काने 3161
डिय@@ 3161
closing 3160
और, 3160
वृत्@@ 3160
lead@@ 3159
बत 3159
मुक़ाबले 3159
हटाए 3159
remain@@ 3158
डीएस 3158
abol@@ 3157
अभिन्न 3157
देसाई 3157
guards 3156
09.@@ 3155
absolute 3155
ji. 3155
regist@@ 3155
updated 3155
तेलुगू 3155
मिया 3155
रोमांचक 3155
शोधकर्ताओं 3155
08.@@ 3154
68@@ 3154
alo@@ 3154
amoled 3154
chancellor 3154
forgiving, 3154
representation 3154
आईं 3154
खी@@ 3154
ज़ो@@ 3154
bag 3153
अद्भुत 3153
च्‍@@ 3153
पटेल, 3153
den 3152
nature. 3152
अंततः 3152
वश 3151
collision 3150
institutions, 3150
ज़ों 3150
पहने 3150
सदस्‍य 3150
dreams 3149
islamabad 3149
usb 3149
ठे 3149
बन्दगी 3149
effici@@ 3148
generations 3148
victor@@ 3148
1991 3147
फ़िल्@@ 3147
मलाइका 3147
tham@@ 3146
घं@@ 3146
दो-@@ 3146
threats 3145
vulnerable 3145
टीएमसी 3145
पाएंगे। 3145
लेनी 3145
javed 3144
r) 3144
specifically 3144
तोड़@@ 3144
प्या@@ 3144
everlasting 3143
nath@@ 3143
other, 3143
बर्फ 3143
विज्ञान, 3143
शे 3143
centr@@ 3142
dd@@ 3142
stak@@ 3142
vir 3142
चलना 3142
याद@@ 3142
gall@@ 3141
interacted 3141
iraq 3141
khand@@ 3141
past. 3141
rais@@ 3141
stages 3141
तूने 3141
122 3140
electrical 3140
ranks 3140
tig@@ 3140
क्षक 3140
वेयर 3140
germany, 3139
गिरकर 3139
ai, 3138
happ@@ 3138
ion@@ 3138
mineral 3138
professionals 3138
trou@@ 3138
आजम 3138
कार्या@@ 3138
परिचित 3138
प्रबंध@@ 3138
apar@@ 3137
insul@@ 3137
laboratory 3137
मजाक 3137
योग्य@@ 3137
संस्‍था@@ 3137
जरुरत 3136
रैंक 3136
‎@@ 3136
amy 3135
pag@@ 3135
pooja 3135
roman 3135
टैग 3135
process@@ 3134
agitation 3133
ऐक्@@ 3133
बर्दाश्त 3133
मांगने 3133
वेट 3133
सूरज 3133
celsius. 3132
nagaland 3132
घातक 3132
मुखी 3132
bangladesh. 3131
cylinder 3131
mess@@ 3131
एनएम 3131
ग्रेड 3131
डेबिट 3131
रोक@@ 3131
seeds 3130
stum@@ 3130
नहीं? 3130
स्‍था@@ 3130
69.@@ 3129
boundary 3129
zi@@ 3129
अक्@@ 3129
(उस 3128
inner 3128
sc) 3128
(i) 3127
1997 3127
ke, 3127
mistak@@ 3127
lahore 3126
nationals 3126
repeated 3126
लैब 3126
वैरिएंट 3126
ality, 3125
anointed 3125
disciples 3125
remarkable 3125
gradually 3124
ढो@@ 3124
धर्मों 3124
वीरेंद्र 3124
scholars 3123
पास@@ 3123
महागठबंधन 3123
रैना 3123
07.@@ 3122
institutions. 3122
recommendation 3122
कवरेज 3121
हुआ@@ 3121
constitute 3120
ड़े@@ 3120
तलवार 3120
catch 3119
टें 3119
प्रस्तावों 3119
elec@@ 3118
uae 3118
रिश्वत 3118
श्रे@@ 3118
hitting 3117
kes 3117
marathi 3117
politicians 3117
tionally 3117
जारी, 3117
सूर@@ 3117
asia, 3116
streets 3116
vehicle. 3116
आईएएनएस 3116
तंग 3116
नींव 3116
मजदूरी 3116
संक्रमितों 3116
bjp@@ 3115
follows: 3115
होली 3115
lers 3114
ron@@ 3114
serv@@ 3114
पौधे 3114
फर्स्ट 3114
ome 3113
धक 3113
ारा, 3113
फ़ो@@ 3112
bing 3111
clashes 3111
method@@ 3111
parents, 3111
ro 3111
vis 3111
कब्@@ 3111
suspects 3110
अड्डों 3110
षा 3110
1980 3109
adoption 3109
deadly 3109
pressed 3109
उधार 3109
पूरक 3109
महासभा 3109
gay@@ 3108
video. 3108
कैदियों 3108
devi@@ 3107
nationalist 3107
pd@@ 3107
possess 3107
पने 3107
ishant 3106
split 3106
आभारी 3106
झटके 3106
बरसा@@ 3106
धे@@ 3105
नाजुक 3105
answered 3104
succ@@ 3104
tuesday, 3104
टेल 3104
d.@@ 3103
excep@@ 3102
provid@@ 3102
defense 3101
separ@@ 3101
धान@@ 3101
naz@@ 3100
walked 3100
अमे@@ 3100
स्वचालित 3100
civic 3099
recall 3099
v, 3099
banks, 3098
faul@@ 3098
finals 3098
ur. 3098
ग्रि@@ 3098
पारि@@ 3098
माय@@ 3098
संतान 3098
साई 3098
हज़ार 3098
ency. 3097
relative 3097
yiel@@ 3097
क्‍योंकि 3097
तस@@ 3097
1.2 3096
innocent 3096
nh@@ 3096
panchayats 3096
r.@@ 3096
घटा@@ 3096
engines 3095
pran@@ 3095
आरडी@@ 3095
वेस्ट@@ 3095
restricted 3094
v) 3094
कम्युनि@@ 3094
बचाया 3094
-e-@@ 3093
airline 3093
bullet 3093
centers 3093
गण 3093
गौरी 3093
जेडीएस 3093
तु 3093
बस@@ 3093
pris@@ 3092
प्रचलित 3092
सेक्@@ 3092
जस@@ 3091
पंचायतों 3091
chou@@ 3090
कुमार@@ 3090
प्रतिस्पर्धी 3090
dedication 3089
divide 3089
els, 3089
himalayan 3089
नीति@@ 3089
1,500 3088
cities. 3088
clearance 3088
deliver@@ 3088
first@@ 3088
procedures 3088
trin@@ 3088
अदा@@ 3088
चुना@@ 3088
नशे 3088
पूर्वोत्‍तर 3088
भक्त 3088
aksha@@ 3087
ky@@ 3087
raj, 3087
ग-@@ 3087
तकलीफ 3087
लीय 3087
characters 3086
indicate 3086
public. 3086
कड़ी 3086
मस@@ 3086
हस्त@@ 3086
ियम 3086
112 3085
love, 3085
mind, 3085
आरंभिक 3085
(कि 3084
isis 3084
push@@ 3084
sty@@ 3084
05.@@ 3083
inx 3083
ंडे@@ 3083
मुद्रास्फीति 3083
वधि 3083
सितारे 3083
सीखा 3083
aji 3082
hospitals. 3082
जड़ 3082
प्रत्‍येक 3082
यूनानी 3082
स्ट्राइक 3082
12,@@ 3081
bengali 3081
sak@@ 3081
जिहाद 3081
धरना 3081
हू 3081
2012, 3080
hills 3080
riots 3080
surprise 3080
डाली 3080
निभाया 3080
creates 3079
extending 3079
intense 3079
mother. 3079
pulses 3079
session, 3079
सरी 3079
-in-@@ 3078
see, 3078
निराशा 3078
1995 3077
ेंगे? 3077
bow 3076
expres@@ 3076
feb 3076
ning. 3076
tdp 3076
wari 3076
ंगल 3076
औलाद 3076
डालर 3076
consequences 3075
onto 3075
डीजी@@ 3075
णि@@ 3075
बढ़ा@@ 3075
fighters 3074
गति@@ 3074
ज़्यादातर 3074
2gb 3073
expectations 3073
norm@@ 3073
तिया@@ 3073
स्टाइल 3073
protocol 3072
submission 3072
w) 3072
कालिक 3072
किराया 3072
फुट@@ 3071
बुद्धि@@ 3071
मानहानि 3071
मृत्यु@@ 3071
रॉबर्ट 3071
लगे, 3071
विश्वसनीय 3071
चन्द 3070
सिसोदिया 3069
shocked 3068
कृष्ण@@ 3068
कैपिटल 3068
सातवें 3068
4.5 3067
cool@@ 3067
expensive 3067
geo@@ 3067
install@@ 3067
uting 3067
नम@@ 3067
बोल@@ 3067
श्य@@ 3067
हत्याकांड 3067
'll 3066
consequ@@ 3066
fish@@ 3066
चौक 3066
बहरहाल, 3066
brow@@ 3065
item 3065
kha 3065
lon@@ 3065
saturday, 3065
tick@@ 3065
पत 3065
मीरा 3065
शांति@@ 3065
हक़ 3065
dan@@ 3064
ines, 3064
snow 3064
syn@@ 3064
destin@@ 3063
vigilance 3062
रमन 3062
स्पी@@ 3062
ali. 3061
data. 3061
उर्दू 3061
छ 3061
ज़रूर 3061
confirmation 3060
symbol@@ 3060
आजकल 3060
एपी@@ 3060
एसी@@ 3060
कृषि, 3060
परिस्थिति 3060
रस्@@ 3060
हाँ 3060
अय्यर 3059
दादा 3059
asser@@ 3058
landing 3058
क्वालकॉम 3058
चुनने 3058
ड्राइ@@ 3058
सनराइजर्स 3058
bac@@ 3057
chandrababu 3057
specially 3057
states/uts 3057
आतंक 3057
इन्हीं 3057
defeat@@ 3056
दखल 3056
वाहक 3056
commission. 3055
engineers 3055
trum@@ 3055
नैशनल 3055
पूल 3055
प्रभार 3055
लौटा 3055
ambitious 3054
educ@@ 3054
चले@@ 3054
चिं@@ 3054
टीज 3054
=@@ 3053
वृक्ष 3053
व्‍यव@@ 3053
azam 3052
labs 3052
इलेक्ट्रॉनिक्स 3051
मिक्स 3051
opposing 3050
relationships 3050
wav@@ 3050
ब्रह्@@ 3050
माइक 3050
1947 3049
nil@@ 3049
शय 3049
convic@@ 3048
फरहान 3048
109 3047
प्रेषित 3047
मतगणना 3047
beg@@ 3046
ta, 3046
का-@@ 3046
23. 3045
ahmed@@ 3045
video, 3045
अज@@ 3045
definition 3044
fri@@ 3043
जाये 3043
रौशन 3043
अंतर-@@ 3042
इरादे 3042
fast@@ 3041
robust 3041
salt 3041
उत्कृष्टता 3041
ming 3039
photograph@@ 3039
temperatures 3039
प्रत्या@@ 3039
फीट 3039
बैठा 3039
06.@@ 3038
relatively 3038
एँगे 3038
equality 3037
pays 3037
remark@@ 3037
unfortunate 3037
त्या@@ 3037
meghalaya 3036
space, 3036
अनुशासन 3036
तियों, 3036
मेशन 3036
21.@@ 3035
clear@@ 3035
complaint, 3035
contribu@@ 3035
farooq 3035
impressive 3035
theat@@ 3035
बायोपिक 3035
श्रॉफ 3035
7.5 3034
ashed 3034
ck@@ 3034
वज@@ 3034
fail 3033
ranging 3033
helicopter 3032
कदापि 3032
पुनर्गठन 3032
all-rounder 3031
दर्शक 3031
लौह 3031
2017: 3030
bill. 3030
chow@@ 3030
fulfill 3030
accessible 3029
election, 3029
चलकर 3029
१०@@ 3029
kashmir@@ 3028
प्रक्रिया@@ 3028
मध्यस्थता 3028
मॉड@@ 3028
chandigarh. 3027
sunday, 3027
tune 3027
टाल 3027
9-@@ 3026
auspicious 3026
movement. 3026
(a 3025
distribu@@ 3025
textiles 3025
एनडीआरएफ 3025
व्यक्ति@@ 3025
स्‍त 3025
seas@@ 3024
tran@@ 3024
bhand@@ 3023
बेटों 3023
रासायनिक 3023
fed 3022
schem@@ 3021
ju 3020
tank 3020
हिमालय 3020
aur 3019
building. 3019
outbreak 3019
कपास 3019
2-0 3018
crimin@@ 3018
flowing 3018
light. 3018
remembered 3018
अपशिष्ट 3018
ज्ञ 3018
राजू 3018
सेक्स 3018
(एनसी@@ 3017
107 3017
incl@@ 3017
lag@@ 3017
!@@ 3016
(18@@ 3016
novel@@ 3016
transgres@@ 3016
कारोबारियों 3016
13th 3015
fif@@ 3015
jewish 3015
kovind, 3015
obe@@ 3015
tac@@ 3015
अवतार 3015
30.@@ 3014
difficulties 3014
indic@@ 3014
nai@@ 3014
prasad, 3014
कोशिकाओं 3014
लची@@ 3014
ibrahim 3013
severely 3013
राशि@@ 3013
petitioner 3012
plo@@ 3012
progressive 3012
punish@@ 3012
retained 3012
पंचायती 3012
develop@@ 3011
grac@@ 3011
चालकों 3011
काशी 3010
येदियुरप्पा 3010
episode 3009
करु@@ 3009
चंद्रशेखर 3009
kapoor's 3008
nov 3008
simil@@ 3008
wani 3008
मैनुअल 3008
8: 3007
ट्रायल 3007
पुनर्विचार 3007
jer@@ 3006
एं. 3006
normally 3005
ता? 3005
धन, 3005
पथराव 3005
genuine 3004
occupied 3004
लहर 3004
सेशन 3004
सोचना 3004
स्टैंडर्ड 3004
disputed 3003
expo 3003
marriage. 3003
forces, 3002
दिखाएँ 3002
निष्पादन 3001
सहवाग 3001
ration@@ 3000
scriptures 3000
प्रवृत्ति 3000
रहमत 3000
kilometres 2999
our, 2999
yat@@ 2999
गुल@@ 2999
म्यू@@ 2999
collabor@@ 2998
riders 2998
stan 2998
कठिनाई 2998
लूत 2998
(8@@ 2997
disposal 2997
vi, 2997
vidhan 2997
 के 2997
चिन्ह 2997
1956 2996
faith, 2996
malaysia 2996
उत्पादकता 2996
लक्ष्मण 2996
less. 2995
theatre 2995
(फाइल 2994
अजहर 2994
प्रयोगशालाओं 2994
accorded 2993
commonly 2993
gue 2993
t? 2993
actor@@ 2992
rao, 2992
resurrec@@ 2992
किताबें 2992
पटरी 2992
पटियाला 2992
सिस्ट@@ 2992
taj 2991
vinay 2991
ूर 2991
beating 2990
reverse 2990
अभियोजन 2990
क: 2990
keral@@ 2989
पायदान 2989
bec@@ 2988
developmental 2988
log 2988
mandir 2988
एसिड 2988
जिया 2988
बढ़ोतरी 2988
समु@@ 2988
2009, 2987
oth@@ 2987
रहीम 2987
20-@@ 2986
bestowed 2986
bhu@@ 2986
jum@@ 2986
news, 2986
आईफोन 2986
ताप 2986
नी-@@ 2986
विकेटकीपर 2986
mg 2985
के। 2985
नक@@ 2985
निमंत्रण 2985
निशा@@ 2985
म्य 2985
princ@@ 2984
अक@@ 2984
(की 2983
jerusalem 2983
डू 2983
dairy 2982
घटना@@ 2982
dab@@ 2981
invested 2980
sind@@ 2980
tvs 2980
गढ़, 2980
जुटे 2980
डेयरी 2980
apps 2979
enquiry 2979
मिन@@ 2979
मिला. 2979
मोदी@@ 2979
लयों 2979
लिखते 2979
10% 2978
dgp 2978
ते) 2978
बिं@@ 2978
माइक्रोएसडी 2978
‘‘यह 2978
bird 2977
colleagues 2977
disbelievers 2977
governors 2977
rajan 2977
tum@@ 2977
प्रयोजनों 2977
(from 2976
nathan 2976
pura 2976
होती। 2976
affairs. 2975
mob 2975
routes 2975
स्तंभ 2975
%1 2974
19th 2974
ec 2974
ren 2974
एमटी 2974
मस्@@ 2974
communist 2973
उन्हों 2973
कलकत्ता 2973
पाबंदी 2973
लार्@@ 2973
व्‍यापक 2973
(9@@ 2972
ach, 2972
coronavirus. 2972
masks 2972
wednesday, 2972
पासवर्ड 2972
n-@@ 2971
women@@ 2971
चोर 2971
तबाही 2971
देखरेख 2971
परिवार@@ 2971
जुड़ 2970
परिवर्त@@ 2970
लान 2970
expanding 2969
जम@@ 2969
फोटोज 2969
सिल्@@ 2969
escal@@ 2968
चेतना 2968
malhotra 2967
psych@@ 2967
बागी 2967
tai@@ 2966
अभिभावकों 2966
राई 2966
quran 2965
sanjeev 2965
ंदी 2965
गुरुग्राम 2965
चक्र@@ 2965
carri@@ 2964
collect 2964
तथापि, 2964
hearing, 2963
प्रायः 2963
certific@@ 2962
puts 2962
yellow 2962
कॉमेडी 2962
स्टेप 2962
aspirations 2961
dual-@@ 2961
possession. 2961
द्रविड़ 2961
1989 2960
2016) 2960
bottom 2960
surve@@ 2960
track@@ 2960
कें 2960
chief, 2959
discharge 2959
गियों 2959
विज@@ 2959
rati@@ 2958
डऩे 2958
परीक्षाएं 2958
स्वर्गीय 2958
हाजिर 2958
dog 2957
israel. 2957
खिलाड़ियों 2957
चाल@@ 2957
ander 2956
हिस्‍सा 2956
देय 2955
amar 2954
functional 2954
ories 2954
roll@@ 2954
जिसपर 2954
cutting 2953
matters. 2953
turkey 2953
worry 2953
वाद, 2953
chargesheet 2952
pi 2952
poor, 2952
unbeaten 2952
नवी@@ 2952
नोबेल 2952
भांति 2952
शुल्@@ 2952
होगी@@ 2952
finance, 2951
livelihood 2951
pet 2951
dsp 2950
[...]
